#version: 0.2 - Trained by `huggingface/tokenizers`
à ¤
à ½
Ð °
Ġ Ð
a n
Ġ à
à ¥
Ġ d
á ĥ
à ¼
e n
Ð ½
Ø §
i n
Ġ à¤
e r
à¼ ĭ
à ¦
Ñ Ģ
à ²
Ġ s
á Ģ
Ð ¾
a r
Ð ¸
Ð µ
Ñ Ĥ
Ġ Ø
Ġ a
Ð »
á ŀ
Ġ t
o n
Ñ ģ
Ġ p
Ġ m
Ġ n
Ġ k
a l
à ¸
Ġ Ù
Ġ l
e s
i s
Ñ ĭ
Ñ ĥ
à¤ ¾
a t
Ù Ĩ
Ø ±
à º
Ġ b
Û Į
a s
à ´
Ð° Ð
c h
o r
e l
Ù Ī
à¥ į
u n
i t
Ù Ħ
à ª
à ³
Ð ´
e t
à ¬
Ð º
à §
Ġ c
i l
à ¨
à ®
à °
Ġ 1
â Ģ
Ġ o
Ġ (
a m
Ġ h
Ġ v
à ¾
Ġd e
Ġ g
Ġ e
Ġ f
Ð ¼
à¤ °
à½ ¦
u r
a d
Ñ į
à ·
Ù Ĭ
Ġ Ã
Ù ĩ
i r
o l
Ð ³
Ø ª
á ı
Ġ r
Ġ S
á İ
o m
à ¶
o s
Ġ w
Ġ Ñ
Ġà ¦
Ð ²
u s
Ø ¯
a k
Ù ħ
à¤ ¿
Ġ ×
Ġ i
Ñ Į
à µ
Ġ A
Ã ©
à¥ ĩ
Ġ Ø§
Ð° Ð½
Ù ī
e m
i k
Ġ in
á Ł
Ġà ²
Ġ Ú
Ġ M
e d
a g
à¤ ¨
Ġ y
t i
à½ Ĥ
Ð° ÑĢ
à½ ²
à¤ ¤
Ġ j
u l
à½ ĳ
i d
Û ķ
Ø ³
u m
à ¯
t e
i m
à³ į
ĠÐ º
t a
Ã ¡
Ñ ı
Ġ 2
Ġ B
à¤ ¯
Ġd i
à½ ĸ
à½ ¼
an g
Ġ P
à¤ ķ
Ñ ħ
à¦ ¾
Ã ¤
Ä ±
i a
r o
i c
Ġà ¨
r a
Ð ·
Ñ Ī
à «
Ġ C
Ð° Ð»
áĥ Ĳ
Ġ Ñģ
Ġ T
r e
Ð ¹
à¤ ²
Ġ D
an d
à½ ¢
Ġ1 9
ĠÐ ±
à¥ Ģ
a y
Ġ K
à ©
ĠØ ¨
à½ Ħ
á Ī
à Ń
Ġ L
e k
× Ļ
Ã ³
Ġ áĥ
Ñ ĸ
à½ ´
a b
0 0
Ġà ª
a h
i g
à ±
Ã Ń
Ġ z
à½ ĵ
ĠØ ¯
u t
ĠÙ ħ
n g
áĥ ĺ
Ġl a
ĠÐ ¿
en t
e g
Ø§ ÙĨ
Ġ ÑĤ
Ġ I
Ġ N
in g
ã ģ
Ġn a
à½ ĺ
áĥĲ áĥ
à¤ Ĥ
Ø ¨
ĠÙ Ī
ï ¼
Ð ±
Ðµ Ð½
h e
à ¹
o d
à¤ ®
à¤ ¸
Ñ ĩ
Ð ¿
à½ º
Ġ âĢ
Ġ en
àµ į
o t
Ġ G
áĢ º
Ñģ ÑĤ
à¥ ĭ
à¾ ±
Ġ un
ã Ģ
Ġ R
Ġ an
à½ ł
r i
Ġ E
Ġ H
à¤ µ
Ð° ÑĤ
à½² à¼ĭ
s t
Ġ u
Ðµ ÑĢ
a p
à¯ į
Ġà ¬
Ã ¨
à½ £
× ķ
Ñ Ĭ
à¥ ģ
l e
ĠÐ ´
Ġ áİ
Ã «
q u
ĠÚ ©
Ġ á
i e
Ã ¶
à² ¿
ĠÐ ½
Ġà¤ ķ
Ò ¯
Ð¾ Ð½
Õ ¡
à§ į
i on
Ð¸ Ð½
à »
o k
×Ļ ×
Ú ©
Ø ´
Ã ¼
Ã ª
Ø§ Ø±
ĠÐ ²
Ġ F
Ñĭ Ð½
l a
u d
ï¼ Į
Ñ Ĩ
ĠÐ ¼
à½ Ķ
Ġà ¶
Ð¾ ÑĢ
à¦ ¿
is t
Ġ Þ
Þ ¦
Ġà¤ ¸
áĥ Ķ
à² °
o v
Ð°Ð ¹
Ġ Î
d e
l i
à¦ °
à³ ģ
Ġs e
Ġ ch
Ġà °
ĠÐ ¸
Ù Ĥ
Ġd a
es t
àª ¾
o g
Ð¾ Ð»
Ð ¶
Ġà ´
áŁ Ĵ
ĠØ ³
o p
c i
Ä ģ
Ġa l
ä ¸
u k
áĥĺ áĥ
ĠÐ ¾
Õ¡ Õ
áŀ ¶
n a
à§ ĩ
ĠØ ª
à¼ į
w a
Ã ł
×ķ ×
Ø§ Ø
à² ¾
i v
Ã ¦
an t
Ã ¢
Ġn g
Ġs a
Ġ J
Ġà ®
Ġ V
h a
áĥĶ áĥ
á »
d a
Ġà¤ ª
Ð¾ Ð²
Å ¡
ĠØ§ ÙĦ
Ġ W
Ġ Õ
Ø Į
i y
Ġ áĢ
Ġl e
à¤ ª
Ó ©
j e
Ð° Ñģ
à¦ ¨
er s
n e
Ð°Ð ´
Ġ O
Ġ '
à¤ ¦
Ġ is
à¥ ¤
à¤ ¹
à¤ Ĺ
Ġp r
Ġ ar
ĠÐ ³
u p
á ī
i b
Ġs t
Ġ Ñĥ
u b
) .
s k
ĠÑ ħ
u g
o b
) ,
ĠÙ Ĩ
Ð°Ð ¼
i z
à³ Ĩ
Ï Ħ
i p
Å Ł
ã Ĥ
Ø§ ÙĦ
à² ¦
an a
âĢ Ļ
Ġ "
à· Ĭ
Þ °
Ġ -
Ġà¤ ®
Î ±
s e
É Ļ
à² ¨
Þ ¬
á Ĭ
á ĭ
ĠÙ ¾
Î ¿
× ¨
Ġ qu
Ġ Û
à¬ ¾
Ø ²
ĠØ ¬
ar i
à¨ ¾
à´ ¿
ar a
Ø ¹
t er
à² ¤
âĢ ĭ
à§ °
áŀ ĵ
× ¢
j a
Ã ²
Ġà ¥
a z
ãĢ Ĥ
Ġ U
Ð°Ð ²
à² ²
áĥ Ŀ
en g
áŀ ļ
a v
Ġ 3
Ñĥ ÑĢ
Ġ Ä
e b
à¦ ¤
Ġ el
ã ĥ
a c
Ðµ Ð»
Ó Ļ
à± į
ĠØ ¦
Ú ¯
áĢ ¸
Ġ es
Ġ ì
àŃ į
Ã ´
on g
Û Ĵ
áĢ ¬
Å Ĥ
ĠÐ ·
à¾ ²
Ù ģ
k a
à¬ °
à¸ ²
Ñģ Ðº
Ñĭ Ð»
r an
Ġà¤ ħ
Þ ª
à· Ĵ
Ø ¦
Þ ¨
Ð¸ Ð»
n i
Û ĩ
Ã ®
o w
Ġ ÑĢ
ÙĪ ÙĨ
Î ¹
Ð¾ Ð´
Ð°Ð ³
ÙĪ Ø±
Ð°Ð º
ĠÙ Ħ
Ø ¬
Ġt a
Ġ2 00
Ġm a
s a
e v
Ã §
Ö Ģ
× Ĳ
e c
Ð¸ Ðº
Û Ĳ
Å ¾
Ð¾ Ð¼
Ðµ ÑĤ
Ġs u
y n
à½Ĥ à½¦
Ù ĥ
h i
e z
0 1
à¬ ¿
en d
àº ²
Ð¸ ÑĤ
m a
t o
àº Ļ
à« ĩ
e p
Ġt he
Ġ1 8
Ġa s
à¸² à¸
à¦ ¯
à² Ĥ
o u
y a
in a
Ġà¤ µ
Ã °
âĢ Į
Ġp ro
Ġt e
Õ ¸
Ù ¾
ĠâĢ Ķ
Ð¸ Ñı
un g
Î ½
áĥĿ áĥ
Ġc on
Ġk a
n d
à¯ ģ
Ġ et
Ġà¤ ¹
áĢ ¯
Ã ¬
1 9
i o
à¦ ²
à° ¿
à¤ ļ
Ġ Â
ad a
ÛĮ ÙĨ
Ġy a
Ġà¤ ľ
à® ¿
Ê »
i j
à´ ¨
Ñį ÑĢ
Ñĥ Ð»
à¤ £
à½´ à¼ĭ
Ä į
Ġj e
à¤ Ł
à¥ Ĥ
Ġ er
Ð´ Ð°
àµ ģ
à¤ ľ
à° ¾
Ä «
à¸ Ļ
Ð°Ð ·
Ã º
à½¼ à¼ĭ
Ġp ar
Ø³ Øª
Ġo f
å ħ
à¦ ķ
Ñ İ
al a
Ñ Ħ
ĠØ ´
Þ Ĥ
Ġt o
in e
Ã ½
i ch
Ðµ Ð¼
áŀ Ģ
à² ķ
Ġh a
ĠÙ ĩ
Ġk e
à® ķ
Î µ
Ð¸ Ð¹
ĠÐ ļ
ä º
k e
à¤ ·
Ġn o
l ar
Þ ĩ
Ø ®
à¶ ±
àª °
à½º à¼ĭ
ĠØ ±
s i
áĢ Ħ
Ġa m
à² Ĺ
d i
Ġ 4
à´ ¾
Ġw a
ĠÑ Ī
Ñĥ Ð½
Ġà¤ °
æ ľ
áĢ ±
an n
áı Ĺ
Ð¸ ÑĢ
ĠÐ Ĳ
Ġd el
Ġà¤ ¨
à´ ¤
ĠÐ ¡
Õ «
t r
Ð¾ ÑĤ
Ø§ Øª
ĠÑ ĩ
b a
à« į
Ð¾ Ð³
áŀ Ķ
Ä ĥ
áĢ Ń
Ä Ĺ
à´ ķ
à¸ £
à¤ ¶
t u
o c
Ġp er
Ġ on
at a
Õ ¶
Ġ× Ĳ
al i
Ðµ Ð´
áı į
ĠÐ¿ ÑĢ
Ð½ Ñĭ
à² ¯
Ġk o
er e
× ľ
Ø§ Ùħ
ÙĦ Ùī
Ï ģ
à² µ
Ġà¤ Ĩ
à¶ º
à½ ¡
ì Ŀ
Ġb a
g a
Ġn e
Ġà ·
à¨ °
in i
w e
en s
à© Ģ
Â »
ĠÙ Ĥ
à° °
Ġà¤ ¬
c e
Ðµ Ðº
Ġc om
£ áĥ
ĠÐ½ Ð°
v a
áŀ Ł
r u
à· ı
ĠÙ ģ
Õ ¥
Ġa t
Ä± n
Ø ©
ik a
ĠÐ »
Ġd o
Ġk u
Ġ 5
áĢ Ģ
ĠÂ «
à® ¤
h o
Ó §
à¤ ¥
Ġ2 01
Ġà¤ ¤
Ġà¥ ¤
áŀ ĺ
or t
m e
Ø Ń
à½ Ģ
à¤ ¡
à² ¡
Ġl i
ĠÐ ľ
á º
Ã ±
Ġm e
àª ¨
Ø º
à° Ĥ
il l
Ġ q
ÙĪ ÙĦ
as t
un d
Ġà¤ ¦
Ġà¤ Ń
Ð° Ñħ
u a
à¨ ¿
i en
Ñĭ ÑĢ
Ġ ë
Ò »
áŀ Ħ
à± ģ
à¦ ¼
in d
à¤ §
à¾ Ĵ
al l
ÛĮ Ø§
à½ ŀ
Ġ× Ķ
Ñį Ð½
× ĺ
Ï ĥ
el l
ĠØ ¢
Û ģ
i h
ĠÚ ¯
à¶ »
am a
à¥ Ī
à´ ¯
ĠØ ¹
ar t
n y
Ú ¾
à¤ ¬
Ä ĵ
Ġ il
à§ ģ
à© ĩ
ĠØ ®
Ġà¤ Ĺ
Ð° ÑĪ
or d
Ġ 6
ch e
al e
å ¤
Ð°Ð ±
Ġs p
Ġs i
Ġa d
à¹ Ī
ãĢ ģ
Ð¾ Ñģ
Ú º
Ġ it
àº² àº
an i
at e
Ġ Y
àŃ ĩ
à« Ģ
Ú Ĩ
k i
o h
Ġv an
r es
Ġr e
Ġh e
à¸ Ń
Ö Ĥ
o j
à½ ģ
áŀ ı
ar d
Ġo g
ĠâĢ ĵ
à½ Ĩ
ĠÐ ¶
Ò £
Ġs o
i er
Ġ and
Ġ x
Ġ Ñį
Ï Ĥ
a ch
Ġá Ĭ
Ġt h
Ã ¹
Ġf or
Ã µ
Ó Ģ
à½ĸ à½¦
å ı
Ðµ Ñģ
ÙĨ Ø¯
Ø§ ÛĮ
em b
Ø§ Ø¯
Ð¸ Ñģ
à» Ī
in t
Ã ¥
Ġá ĭ
er a
à¦ ®
an s
áĢŃ áĢ¯
Ġdi e
Ð¸ Ð¼
Ġáİ ł
Î ·
× Ķ
á Į
å ¹
c a
Ġ Z
áĥ £áĥ
ä »
y s
r it
Ġt i
ä ¹
Å «
Ġ áı
á ģ
at ion
er i
Ï Ģ
áĢ Ĳ
Ġqu e
à´ °
Õ¸ ÖĤ
ĠC h
Ġt r
à° ²
Ġ19 9
× ł
Ģ à¸
Ê ¼
à¦ ¬
l u
å ľ
ĠI n
Ġm u
Ġà¤ ²
o o
áĢ Ļ
à¤¾ à¤Ĥ
Ñ ĺ
an e
à® Ł
Ġd es
ar e
ĠÚ Ĩ
Ã »
Ï ħ
áĢ ¼
ĠÑ ı
ic a
Ñĭ Ð¼
Ġ est
à® °
àª Ĥ
ĠÃ ©
áĢ ŀ
Ġo p
v e
à° ¨
ĠÐ Ł
à² ¸
z i
à· Ķ
Ã³ n
Ġ or
Ġà¦ ¬
on d
ĠÐ ĳ
l o
ĠÙ Ĭ
à¸ ĩ
Ġn i
Ġ Ð°
n o
Ð½ Ð°
Ġi m
f f
Ðµ Ð¹
l an
à¸ ±
à· Ģ
Ġa k
Ġa b
à¾ Ł
áĢ Ķ
Ð¾ Ð¹
àº °
os t
Þ ĥ
Ġ áĪ
àº ±
Þ §
à¤ Ń
áŀ Ľ
ĠA l
z a
ł áĥ
Ġa g
à¤ ĥ
à¶ Ń
à¸ ģ
ak a
àª ®
Ä Ľ
á į
Ġ ÏĦ
à½ĳ à½Ħ
en te
à¾Ĵ à¾±
àº ĩ
à³ Ĭ
à® ¾
y r
Ġ 7
s ch
å Ĳ
Ð¾ Ðº
Ñ ĳ
àº Ķ
on t
Ġng a
à¾± à½²à¼ĭ
Ø µ
áĢ ·
ĠÑ Ħ
áĬ ķ
á ¹
æ ĸ
ĠÐ ¢
Ġe d
à² ª
Ġb e
Ġà¤ ¯
Þ Ī
àª ¤
ÙĨ Ùī
an y
à¦ ¸
áŀ ĳ
à¶ ¸
Ġg r
à½ ļ
p e
Ñĥ Ð´
Ø £
× ŀ
er t
Å į
Ó ¹
å ®
Ġ 8
Ä ķ
a j
à¹ Ģà¸
Ã £
à» ī
Ġá ī
à¥ĩ à¤Ĥ
à¸ µ
Õ¡Õ ¶
Ġà ¼
u h
Ġa v
áŀ Ļ
Ġk i
Ġa p
à¹ ī
as a
ÛĮ Ø±
ag a
Û Ĩ
àª µ
à´ Ł
à½ Ĳ
à¶ ļ
ĠA n
Ġà¦ ª
à½ ħ
s h
áĢ ķ
× Ł
áĥĺáĥ ¡
is i
Ð¸ Ð·
Ðµ Ð²
ĠS t
at i
k u
Ġ Ò
Ġj a
am b
ĠÃ ¤
àº Ń
Ġà¤ ī
àº ģ
ĠÐ µ
Ġd u
Ġp o
ĠÙ ĥ
Ġ .
× ĳ
es s
id a
à½ ķ
Ñĭ Ðº
Î »
Ñģ ÑĮ
Ġà º
à® ª
y o
Ġ Å
ĠÐ Ĵ
ÙĪ Ùħ
Ðµ Ð·
à® ®
j i
Ġo m
Ġà¦ ķ
il e
Þ İ
à¤ ĸ
Ġd er
Ð½ Ð¸
Ġà¤ ¥
il i
Ûķ Ø±
Ġd en
in s
à® ²
Î º
Ġm o
m an
y e
Ã ¸
Ġ1 7
à² Ł
à¦ Ł
ÙĬ ÙĨ
Ġl o
à§ ĭ
áŀ ĸ
à¬ ķ
Ø ·
k o
am p
áŁ ĭ
ur a
or e
å į
Ġm ar
Ġw e
Ì ģ
Ø§ Ø³
z e
å¹ ´
Ġà² ª
à¦ ¹
å Ī
Ġg o
ĠØ Ń
Ġà¦ ¸
Ð» Ð°
Ġk m
áŀ ·
Ò ĵ
Ġà ¸
is h
ÛĮ ÙĦ
Ñ ŀ
er n
el e
à¸ ¡
Ġt er
t s
Ġ1 5
à½Ķ à½ł
t h
em p
Ġ 9
Ø§ Ø¨
Ð°Ð ¿
áĢº áĢ¸
Ġ× ĳ
in n
à® ©
l and
Ä ħ
en e
à¨ ¤
áĢ Ĭ
Î ¯
ĠÐ ł
à¬ ¨
as s
å ¾
g e
ad i
ĠÞ ĩ
Ġm et
it a
Ġc u
Ġm an
ch i
áĥĲáĥ ľ
ĠØ§ ÙĪ
on s
Ġà² ®
à« ĭ
áĢ ħ
el a
Ñĭ ÑĪ
áĢ± áĢ¬
Ġà¤ ı
Ġ um
ÑĤ Ð°
Ġà¼ į
Ġn y
ĠÃ ¡
ĠÃ ł
Ð½ Ð¾
ä ½
Ñĥ Ð³
à¨ Ĥ
Ģ àº
àª ¯
áĢ Ľ
× ©
en n
Ġp a
m i
áĢ ¾
Ġk om
Ġb i
àµ Ĩ
j u
å °
Ġf r
Ð² Ð°
à¬ ¤
ĠA r
as i
Ġà² ķ
Þ Ĩ
Ġáİ ¤
ir a
iy a
× ª
à¾ Ĳ
Ñį Ð¼
ĠØ ²
y d
e w
à² ³
Ġà §
à¨ ¨
er d
Ðº Ð°
ĠÃ §
Ġ Ê»
00 0
å Ń
Û İ
it i
Ġáĥ Ľ
us t
u c
1 8
à½ ı
áŀ Ĭ
àºĻ àº
à² ®
Õ¸ÖĤ Õ
à´ Ĥ
à¨ ¸
àª ķ
l y
à¸ ´
Ä ĩ
àŃ ģ
Ġà¦ ®
áŀ ħ
v er
b e
í ķ
Ġk an
Ġ1 0
Ñ ī
m er
ĠØ¯ Ø±
Ù İ
âĢ Ŀ
Ġc i
Ġà¤ ¶
Ñĥ Ñģ
on a
Ñĥ ÑĤ
an o
ir i
ÑĢ Ð°
Ø§Ø ¦
Ġv a
× ĵ
ç Ķ
Ã© n
Ø¯ Ø§
Þ ī
Ġs h
Ġd al
Ġv e
ç ļ
or i
Ġ19 8
en a
Ġà¨ ¦
Ġ1 6
à§ Ģ
áŀ »
p i
u i
ĠÛ ģ
Ġd an
ol o
à½ĵ à½¦
Ġp or
e a
l er
Ì ¤
Ġ ê
Ġà² ¬
áĢ ½
Ã© s
à° ķ
Ġà² ¸
áĢ »
Ġo b
à¸ ¢
à½Ħ à½¦
ad o
ul a
u v
ĠÐ ĵ
à¨ ²
Ð°Ð½ Ð´
à¦ ¦
Ï Į
ĠÐ Ķ
ĠÐ ¹
Ġ1 2
Ġa y
Ġ ÛĮ
à® ±
Å Ī
áŀ ĩ
áİ ¾
áŁ Ĩ
ĠÐ ĺ
Ã¡ n
Ġy n
ĠÃ ¨
ir e
un a
ĠD e
à½ĺ à½¦
Ñĭ ÑĤ
ĠM ar
h u
ĠL a
á¹ ³
Ġ× ŀ
Ã¶ r
is ch
Î ¼
à© ±
Ġ19 7
à® ³
it e
Õ¥ Õ
Ġ X
Ð¸ Ñĩ
à¸ ¥
àª ¿
a f
Ó ĵ
ÖĢ Õ
Û Ī
à¦ ª
Þ ©
ĠÐ Ŀ
Ã¤ r
à´ ²
à« ģ
Ð³ Ð°
l d
Ø± ÙĬ
àº µ
à¤ Ľ
à¦ Ĺ
r at
Ø± ÛĮ
Ñĥ Ðº
à¾ ³
t en
à¸ §
à³ ĩ
× ¡
Ġ Ò¯
æ ĺ
ĠÐ ŀ
âĢ į
à¸ °
Ġa c
ol a
Î¿ Ïħ
ĠU n
Ġ19 6
l as
Ð¸ Ð´
áŁ ģ
à» Ģàº
o z
Ã¤ n
áĥĶáĥ ĳ
Ú Ń
Ġe k
ãģ ®
i f
àª ²
Ġun d
Ġe m
l ik
à¸ Ķ
Ġà· Ģ
à¯ Ī
Ġv er
à® ¯
áİ ©
g an
ÙĪ Ø¯
ĠÐ± Ð¾Ð»
p a
Ð¸ ÑģÑĤ
ï »
à´ ®
à½ ¤
it u
áī µ
m o
Ñĥ Ð¼
Å ¯
á» į
Ġt u
on e
im a
Ðµ Ð³
Ġà¤ ļ
Ñį Ð»
at u
Ġo d
c o
Ø± Ø¯
Ð ¡
ag h
æ Ī
or a
à½ Ł
à½ł à½ĳ
g i
à¨ ķ
âĢ ľ
ĠÐ £
Ø§Ø ²
Ġm en
à´ ª
Ġ19 4
e h
à° ¯
à¦ ĩ
Ġ us
b o
Î ¬
Ġun a
p r
Ġa f
at o
ÑĤ Ñĭ
Ġm ed
å Ľ
Ð¸ Ð²
à¤ ĩ
Ġ Ð°ÑĢ
áĢ ľ
à½ĸ à½¢
a w
çļ Ħ
Ġ ang
ä¸ Ģ
ul t
Ġb o
u e
ĠÑ Ĩ
Ä Ł
Ġà¦ ı
áĢ¬ áĢ¸
¯ áİ
à· ļ
Ġs er
Ġ1 4
Ġà¨ ¸
Ġp ol
Ġà¦ ¹
Ð½ Ð´
à¸ Ĺ
Ġv o
áı ĵ
ÙĨ Ùĩ
×¢ ×¨
Ġc a
à½ ī
à¤° à¤¤
Ñĥ Ð±
Ġ Q
Ð¾ Ð±
à¶ ½
ĠÑ ĸ
é ģ
Ġm as
Ġà² ħ
Þ Į
Ġk on
Ð°ÑĤ Ð°
ad e
× ¤
Ġi z
is s
Ġp e
un t
à½ĳ à½Ĥ
× Ĵ
à© °
v i
Ñĭ Ð³
à´ ±
Ġs k
f r
àº »
Ġo k
Ñį Ð³
l l
ì Ĺ
Ġáĥ ĵ
y m
áŀ ¾
ĠÃ ¶
à´ µ
à· ĥ
à± ĭ
áŀ ľ
ĠÐº ÑĬ
Ì į
Ð¾ Ð¿
Ð½ Ðµ
Ġ1 3
à· Ļ
Ð¾ Ð·
i i
ur e
Ð° ÑģÑĤ
b er
Ø§ ÙĬ
Ò Ľ
×Ļ ×Ļ×
áĥ ł
à¤ ģ
Ġb en
áİ µ
a a
Ġm at
Ġb u
Ġt il
Ø± Ùī
Ġ× ©
× §
ÑĨ Ð¸
Ð ļ
Ä §
Ġà¤ Ľ
Ø´ Øª
à° ¤
ä¹ ĭ
Ġ Ð°Ð»
àº §
áĢ ģ
r y
æ Ĺ
et t
Ġ× ĵ
è Ģ
à¾± à½²
Ûķ ÙĨ
Ġà¦ Ĩ
Ġb ir
Ġch e
s o
t or
u z
à® µ
ĠÑģ ÑĤ
ch t
p l
à¬ ¬
à° ¦
áĥ ķ
áŀ Ĥ
or m
Ġà· ĥ
i an
Ð¸ Ð³
j o
ang a
àº ¡
ĠÃ ¾
à¥ ¦
Ġ Ó©
ĠÑ İ
er o
ĠF ran
Å ¼
ï º
Ñį Ñħ
Ä± r
ĠÙ¾ Ùĩ
Û Ķ
à¶ ¯
Å Ħ
Ġp l
en ti
Ġà¤ ĩ
à© ĭ
Ġb y
ĠÃ Ń
2 00
ĠL e
Ġà¨ ¹
Ġf il
Ġf am
u f
áŀ ¸
c ia
Ġ× ķ
ä¸ ª
å ¸
à¦ ·
in o
on i
Ġf i
Ñĥ Ð·
à¸ ķ
àº ¥
Ð°ÑĢ Ñĭ
áĥ ¡
à° ®
Ġ1 1
Ġg e
as h
ĠÙħ ÛĮ
Ð°Ð ¶
Ġà¨ µ
is k
Ġ19 5
ĠØ¨ Ùĩ
ĠÐ´ Ð°
t t
Ġk ar
. .
ĠØ§ ÛĮ
Ã¼ r
ol og
ĠÙħ ÙĨ
it h
Ġv i
Ġf u
à¨ ¦
áĪ Ń
Ġn u
Ġ× ľ
p er
Ġv ar
Ġd r
à¬ ®
k an
à¸ ª
Ġz a
Ġ× ¤
Ġe x
sk e
äº º
et e
ak i
is a
å ·
Ġ ur
áĭ į
à¸ ļ
Ø± ÙĪ
áİ ¢
ĠÚ ª
is ta
Ð°Ð½ Ð°
Ġin d
en i
Ġg a
áı Ľ
ay a
à¤ ı
I I
à¤ Ī
Ġàª ª
Ġáİ ¯áİ
áŁ ĩ
Â ²
Ġl u
à¶ §
Ġà¦ ħ
å¤ §
Ø§ ÙĪ
ë ĭ
il a
is e
Â Ń
Ò¯ Ò¯
Ġm i
Ùī ÙĦ
Ûķ Øª
Ġ2 0
Ġd at
ÙĦ ÛĮ
ol l
à¾ ¡
Ġa h
æ Ń
b i
ĠØ§ ÙĨ
à¥ ĥ
Ġáİ ¾
p o
es i
Ø ¤
Ø§ ÙĤ
Ò ³
àª¾ àªĤ
Ġr eg
à¦ ľ
Ð¸ Ñħ
Ġo l
n u
Ð°Ð½ Ñĭ
âĢ ĵ
Ġs c
áŁ Ĥ
Ðµ ÑģÑĤ
Ġ |
ti c
o f
à´ £
ĠâĢ ľ
ĠÚ ¾
Ġp i
q a
Ð½ Ñĸ
ĠØ¬ ÙĬ
Ġ ,
id e
Ġr a
ĠT he
± Û
Ġà¨ ķ
é Ģ
om a
and a
ÐµÐ½ ÑĤ
Ġà¶ ´
ĠÐ ¥
ĠÄ ĳ
Ġl es
u w
ä¸ Ń
qu e
v en
ĠÐ Ľ
Ġáİ¯áİ ł
al d
à´ ³
ĠØ £
Ù Ĳ
Ġf a
Ø§ÙĨ ÛĮ
et a
Ġp re
ĠS ch
ĠM a
Ø§ Ùĩ
Ã¨ n
y l
Ġà »
Ú ª
Ġ ir
Ġ19 3
Ġà¶ ļ
Ġm il
Ñĭ Ð²
áİ ´
Ġáī ł
à¨ ¹
Ø¯ Ùī
ur i
b u
ĠâĢ ŀ
s p
Ø§Ø± ÛĮ
à· Ħ
à¦ ¶
Ġl os
g r
àŃ Ł
y on
Ã¢ n
m in
Ñģ Ð°
Þ į
Ġ áĥĲáĥ
Ġ Å¡
Ãª n
áŁ Ħ
áı Ĥ
Ð¾ ÑģÑĤ
Ġáĭ ¨
æ ķ
Ġj o
ĠØ§ Ø³
ar o
ÙĦ Ùĩ
ig h
Ġg u
ÐµÐ½ ÑĮ
an te
Ġb er
ic i
ab a
Õ¡Õ ¯
Ġd is
Ġs om
Ø ¶
k s
à° ¡
áı ħ
áĪ Ŀ
Ġc o
Ó© ÑĢ
áĢŀ áĢĬ
áĢ ®
Ġà ¹
ãģ «
è ĩ
áŀ ¼
àº ª
Ġp os
Ð Ĳ
Ðµ ÑĪ
w o
el d
ĠÚ© Ùĩ
ĠØ§ÙĦ Ùħ
v o
à³ Ĥ
à¨ ¼
àº ´
it t
×ķ× ª
ak e
Ã© r
Ġb ar
ol e
è ¡
g o
ĠE n
w an
Ġáĥ ¡
ti on
à·Ĭ âĢį
ĠE l
×ķ× Ł
§ à¥
ļ áĥĺ
Ð´ Ñĭ
Ġà¤ı à¤ķ
à¬ ²
Ø¯ Ùĩ
em a
Þ Ĳ
ĠA ng
el s
ÙĦ ÙĬ
Þ ĭ
× Ĺ
Î Ń
am ent
à¾ £
áŀ ¢
Õ¸ Õ
es e
à¦ Ĥ
ĠP ar
at t
Ð½ Ñı
1 7
áıį áıĹ
Ð¾Ð³ Ð¾
Ġà¬ ķ
ed e
ed er
ĠáĢ ¡
f a
Ġà¤ ĸ
em ent
h an
Ñĥ ÑĪ
g u
Ġt Ã«
Ø± Ùĩ
' s
à´ ¸
à² £
Ġ Ïĥ
am e
ĠÎ ±
àº ļ
Ġm in
Å Ľ
Ð°ÑĢ Ð°
r en
2 0
à¬ ¹
áĢº áģ
Ġà¬ ¸
Øª Ùī
æ Ŀ
áİ ¦
Ð¸ ÑĪ
Ï ī
Ġà¤ª à¤°
Ġ 0
Ġm ga
å Ĭ
Ġg en
ak o
áİ ¯
å ĺ
Ġt al
ìĿ ĺ
Ã¼ n
áı Ļ
Ðµ Ð¿
à¾± à½º
l es
áĥ Ľ
Ðµ Ñħ
ĠÎ º
Ġg i
à· Ĳ
ĠÃ ¼
Ġ :
Ø§ Ø´
s te
à· ĵ
Ñĥ ÑĮ
à¨ Ĩ
Ñĭ Ñģ
Ã« r
r as
it y
Ġàª ķ
æľ ī
w i
Ġin g
Ġb il
ĠÐ ¨
Ġà¬ ª
1 0
Ġà¤¸ à¤®
s s
el i
Ġ ÏĢ
Ġ2 5
à¸ «
ÙĪ ÛĮ
à° Ł
áİ ¬
Ġ ut
à´ ļ
Î ³
Ġy e
an u
Ġà° ª
ic e
ed i
áĢ ¡
Ġv un
Þ Ģ
en de
ä» ¥
à² ľ
al o
ig a
Û °
Ġs on
am m
Ġ í
us s
r on
ak an
Ġ×Ĳ ×Ļ×
c u
ä ¿
à¦ Ľ
ï¼ ī
é ĩ
" ,
ĠÞ ī
Ġan n
Ġf o
à¨ ®
Ġc un
Ø³ ÛĮ
áĪ į
Ø§ Ú
à¦¼ à¦¾
Ġl as
at an
ÐµÐ» ÑĮ
Ø³ Ùī
áĥ ļ
é ĥ
ĠÙĦ Ûķ
Ġs in
or n
ï¼ Ī
æ Ķ
ik o
à¾± à½¼
u o
Ġàª Ĩ
Ġà² ¨
Å Ļ
ĠÃ ½
Ø «
um a
áĪ µ
Ġh et
ur g
Î± Î¹
ci Ã³n
Ð°Ð» ÑĮ
Þ ģ
Ö ģ
ĠP r
Ġp op
à¤¤ à¤°
à© ģ
Ð¸ Ð¸
Ð° ÑĨ
Ã¡ s
is ti
å ±
j en
Ñı Ð½
ĠÐ± Ð°Ð¹
×Ļ× Ŀ
å Į
Ġà¨ ¨
ĠÐ¾ ÑĢ
Ġk as
Ñĭ Ð´
Ð³ Ð°Ð½
un e
Ġw o
à¥ Į
ĠA m
à± ĩ
d u
1 6
om e
à½ Ļ
ĠS a
Ðµ Ð±
ÙĨÙī ÚŃ
Ġ ÅŁ
Ñį Ð´
à° µ
Ñ Ĺ
Ġà² µ
á» ¥
à© Ī
à¾² à½´
m u
Ġp u
Ġb ol
Ûķ Ú©
t on
à° ¸
à¤¹ à¤°
áĥ ¢
Ġà® ª
Ä Ļ
ÙĬ ÙĪ
ro p
à¨¾ à¨Ĥ
æ °
è ¿
Õ¥ ÖĢ
ëĭ ¤
Ñĥ Ð¿
ag e
Î ®
ĠØ Į
à² ¬
Ð» ÑĮ
ÑĤ ÑĮ
ÉĻ r
Ġin ter
ĠÐ² Ð¾
2 01
" .
ë Ĭ
æ ī
Ġh an
ĠØ¯ ÛĮ
Ġ× Ĵ
à¬ ¸
ìĹ Ĳ
àª ¸
ik i
Ò¯ ÑĢ
am i
Ġm er
ĠÄ į
e f
àº Ĺ
Ġáĥ Ĵ
Øª Ø§
áĥ ĵ
Ð» Ñı
ÙĪ Úº
1 5
Ġh ar
Ġà´ ª
r os
Ġ ent
at s
c k
Ġz e
Øª Ø±
à¾± à½´
us e
ìĿ ´
à¤° à¤ķ
ĠÃ ±
ĠI nd
u x
Ġ Ð°Ð´
Ġt ra
Ú ĵ
Ã¤ Ã¤
im e
it o
Ð°ÑĢ ÑĭÐ½
áĥĲáĥ ¨
ê ³
Ġ à½ĳ
× Ľ
Ġw as
áı Ĵ
Ñį Ð¹
Ġàª ¸
Øª Ùĩ
Ð¾Ð½ ÑĮ
Ġn ang
à´ Ļ
ch a
ĠÚ© ÛĮ
å º
ĠØ¨ ÛĮ
å ¼
l Ä±
Ġr es
ç ī
à¸ Ľ
à½Ķ à½¢
ãģ Ł
ÑĤ Ð¾
Ø§ Ú©
b l
ig e
f er
Ð¸Ð¹ Ð½
Ġà¨ ª
ÙĨ ÛĮ
am an
ëĬ Ķ
à² ļ
ok u
al m
Þ¬ .
ä ¼
ĠÐ³ Ð¾Ð´
ic o
ĠÐ¾ Ð´
ç Ĥ
Ġw an
d er
à¦ ļ
em e
à¦ £
r t
à³ ĭ
àµ ¼
àµ ĩ
È Ľ
Ù ĳ
Ġ19 2
Ð» Ð¸
p an
u u
Ï ĩ
Û ĭ
Ð° Ñĩ
Ġ× ¢
Õ« Õ¶
áĢ ¶
à³ Ģ
ur t
Ûķ ÛĮ
Ã¡ l
r et
c z
é Ļ
Ġo s
ĠT e
ti v
Ñĥ Ñĥ
æ Ľ
ÙĦ Ø§Ø±
àŃ ĭ
Ġh o
Ġk un
1 2
Ġ Ò»
áĢ· áĢº
à¤° à¤®
ĠÐ¾ Ð±
à¸ Ħ
Ġà¦ ¦
i et
iv e
Õ« Õ
Ġà® ķ
Ð³ ÑĬ
Ġà² Ĩ
à½ĸ à½ŀ
Ġf in
ĠáĬ ł
ĠÐ± Ñĥ
Ð ł
Ġa z
ĠØ¬ ÙĪ
ÙĬ Ø±
åĺ ħ
d an
à¾ ¤
Ġe in
Ġà° ķ
áĥĺáĥ ľ
ĠS e
áĢ ²
Ġp ag
æĺ ¯
ar an
áŁ ħ
Ġà¦ ¨
ãĤ ĭ
ĠØ¦ Ûķ
ĠI s
å ¯
Ð¾ Ñĩ
Ð¾ Ð¶
ĠÛ ¾
à¶ ľ
v in
Ùĥ Ùī
Ò¯ Ð½
Ġ201 0
à° Ĺ
Ġm ag
Ġy ang
à¨ ļ
Ð¾ Ñħ
ÑĢ Ð°Ð½
a i
Ġm it
ÙĬ Ø©
Ñĭ Ñħ
Ð Ł
eg o
Ðµ Ñĩ
Ùħ Ø§ÙĨ
Ñĭ Ð¿
à§ ¦
áĥĲáĥ ļ
Ñĭ Ð·
Ġde m
Ãł n
à¼ Į
à²Ĺ à²³
Ġàª ®
áıį áİ©
Ġk r
Õ¸ÖĤÕ ´
Ġ ul
k en
Æ °
Ġp od
al is
à¹ ģ
Ø¯ ÛĮ
Ġà¦ ¤
à© Ĥ
Ġh ab
ĠÐ± Ð°ÑĢ
à¹ Į
and o
Ġà¬ ¬
ĠÐ ¤
Ġp h
È Ļ
Ġà² ¤
Ġp ara
ç Ľ
Ù ¹
à¤ ³
f i
Ã¤ t
áĥĲáĥ Ľ
Ð° Ñı
I n
Ã´ ng
et i
it s
Ð ľ
on n
à¤µ à¤°
Ġ [
Ð°Ð½ Ð³
Ã Ł
Ġà¨ ħ
Ð» Ñĸ
àº ·
Ð°Ñģ Ñģ
ĠÃ ¦
iv ers
m en
ĠN a
Øº Ø§ÙĨ
el o
Ġng w
al ar
à¼Į à¼į
Ġk at
ul i
ĠÙģ ÙĬ
áİ ¸
Ġàª ¤
p ar
Ġs eg
Ġn an
àŃ Ģ
Ġà® ®
ion e
Ġk ap
Ùī ÙĦÙī
à± Ģ
ÅĤ a
Ã¨ r
Ġn ag
× ¦
áı «
as e
p h
y k
à¤ ¼
ĠS an
à½ł à½ĸ
Ñį ÑĤ
ĠP ro
áĥĲáĥ ¡
Þ ®
Õ µ
Ġà² ĩ
Ġà¨ ľ
Ã© g
Ġn j
áĥĺáĥ ¨
Ð°Ð» Ð°
Ġs ub
im i
ÐµÐ½ Ð¸
ur op
Ġà¦ Ĺ
Ð¸ÑĤ Ðµ
à¸²à¸ £
ĠG r
Ġ3 0
Ġk et
Ø¨ Ø±
Ġp as
5 0
Ġj u
ĠØ µ
Ø °
à¬ ¥
ĠÛ ±Û
ĠÐ¸ Ð½
Ġp ri
áĥĲáĥ łáĥ
àµ ĭ
Ġà° ¸
Ġc um
ĠÐ· Ð°
Ġáİ ¢
ĠT h
à¸ Ī
at ur
Ï į
ÐµÐº ÑĤ
ĠÎ µ
c t
Î¹ Îº
Ð¼ Ð°
Ġàª ľ
à¾² à½¼
l in
ĠM e
ov a
× Ŀ
k t
Ð¸Ð½ Ð°
æľ Ī
Ġdi a
Ġt an
b r
æ Ļ
ãģ ¨
Ġr ep
b in
Ġs v
Ġs en
c c
Ġ2 4
Ð» Ñĥ
åľ ¨
Ġ /
b an
é Ľ
à° ª
1 4
Ġd ir
àµ ½
ĠØ¨ Ø±
Å ı
à®ķ à®³
Ġn om
ãģ ¯
Ġm od
è ¨
Ø ¸
áĥĶáĥ ľ
Ġà¤ħ à¤¨
Ð¾ ÑĪ
áĪ ĺ
ĠÐ ķ
y en
ãĥ ¼
Ñĭ Ð¹
å ĭ
áĢºáģ ĭ
ĠØ§ Ø²
Ġáİł áİ´
ĠÐ¸ Ð·
ĠÑ ŀ
ç ķ
at h
à½ł à½Ĥ
ì Ħ
Ġa st
ĠÐ¾ ÑĤ
áŀ İ
ÑĢ Ð¸
ĠØ¦ Ùī
à¤ «
Ġk w
å ¥
åľ ĭ
ĠÃ ª
ç «
Ð°Ñģ ÑĮ
ik e
Ġn as
àª ª
ol i
Ġ Å¾
à¨ ľ
à½ĸ à½ł
ĠR e
à¸ ŀ
çĤ º
l am
ÙĨ Ú¯
ĠÐ Ĺ
à³ģ .
Ġà¦ ľ
áı ¢
Õ ¿
un n
Õ¡Õ µ
Ġd h
Ġà´ ķ
Ñį Ñį
Â °
é ĸ
áį ¢
å ĩ
a u
Ñĸ Ð½
Ġp al
ĠÑĥ Ð»
à¸£ à¸°
à» ģ
àºŃ àºĩ
Ġá »
Ð´ Ð¸
ĠD i
Ġn Ã«
Ġ Ð°Ð²
ĠØ¨ ÙĪ
Ġm ak
à¸ ¸
à¾² à½²
ub l
Ġd Ã©
Ġw at
áĢ «
Ä ĳ
Ġe en
ĠÐº Ð¾Ð½
ãĢ Į
Ġs ing
ãĢ į
ÓĻ ÑĢ
ĠÏĦ Î·
Ġà¥ §à¥
à¬ £
Ġch i
Ûĩ Ø±
y u
Ġt s
Ã¶ l
Ġs am
íķ ĺ
ĠS h
ĠÑ ĺ
ĠÐ² Ð°
ar y
Ùħ ÛĮ
à¸Ń à¸ĩ
f t
Ġà² ¦
Ġàª Ľ
Ġd ist
ë ¡
Ä±n da
áĥ ľ
ÃŃ n
ÑĭÐ½ Ð´Ð°
§ à§
Þ Ń
à½ Ľ
à¸ ·
Ġf an
Ġà¶ ħ
Ð¾Ð» ÑĮ
Î ´
Ġà¤ «
Ð°Ð³ Ð°
Ġe v
à¦ Ń
Ġ Ô
el t
Ñħ Ð°
æĹ ¥
áŀ ½
Ġh u
Ġd he
à¹ ĥ
à¸µ à¹Ī
áŀ ģ
al t
ic k
ĠC om
ĠÕ °
ol d
àº «
àª ¦
àµģ à´Ĥ
Ġà¤ §
Þ Ĭ
Ġw ar
3 0
Ú© ÛĮ
ĠÐ Ń
ĠS p
Ã¼ l
ĠÐ §
or s
Ġáİ¤ áı
os a
Ò ¥
à¤ ł
×ķ ×Ļ×
à® ļ
à² ·
Ġd et
Ġs up
Øª ÛĮ
Ġà² ¹
è Ī
áĢ ļ
Ġt en
ĠÞ Ĩ
Ġì Ŀ
g en
Ã³ r
ek s
ĠÑģ Ðµ
Ñĥ Ð²
as yon
áĥĲáĥ ł
Ã¡ r
Ġp ers
É £
ĠI t
à¤ ī
áĪ Ī
ÑĤ Ðµ
ad h
Ġ× ĸ
à°¿ .
ĠO r
eg a
à¹ ĩ
ĠØ ·
Ġm un
áŁ Ķ
ul u
à¬ ¦
Ġáĥ ¬
ĠÎ ¼
ÃŃ a
Ø± Ø¨
àª Ĺ
Ø§Ø ¹
Ð¸Ðº Ð°
å Ĵ
et h
Ġà¶ ¸
ek t
Ġl an
Ġà¤ķ à¤°
Ã® n
áŀ ł
ar k
Ġr el
Ġà¨ ĩ
Ð¸ Ð¿
Ġag us
×ķ× ¨
il le
ĠH e
à¾ ©
ĠS o
y st
Ðº ÑĬ
ìĿ Ħ
ãģ Ĺ
Ã¬ n
Ġp at
à¼ĭ à¼į
à½£ à½¦
y t
ÙĪ Ø³
à¨ µ
Ġt ot
Å º
A n
à¦ ĸ
áĢ °
ah a
Ġs ch
Ð°Ð½ ÑĮ
à¦ §
es ti
Å ³
Ġt emp
ÙĤ Ùī
Ã¤ d
Ġáİł áı
å »
Ä ¼
ãĤ Ĵ
an ti
Ġáİ ¦
ÙĪ Ø¨
ĠáĬ ¥
æĪ Ĳ
z o
ion al
Ġà´ ¸
Ġb r
áŀ Ĵ
sk i
s ta
à´ ¦
us i
à¬ ª
o y
Ġà® ĩ
Ġà¤Ĺ à¤°
ĠÃ º
m as
1 3
à¤¾ à¤ĥ
g er
à¦ ¡
Ö Ħ
L a
å Ģ
ãģ ¦
Ð ŀ
æ ²
áŀ ī
emb er
Ġin i
å Ĩ
ĠÃ© ÃŃ
Ġd it
Ġa w
Ġe z
×Ĳ ×¨
å Ł
Ġàª ħ
ĠØ¯ Ø§
è ¦
Ġi d
Ġáĥ ł
f ic
æ µ
is che
Ġà¬ ®
p u
Ġk al
Ġs ta
Ð´ Ð¸Ð½
Ġb as
à¾ Ķ
ad u
Ġpr im
à½¡ à½Ħ
f e
à½ ĩ
à® ¨
Ġs ab
ib a
ĠG u
Î ¸
à² ¹
ÙĦ Ø§
ĠÃ »
Ġz u
ÑģÑĤ Ð²
uk a
á» ĭ
áĢ ĸ
å ĳ
Ġp an
Ġcon t
Ġà¶ ¯
ĠØ¨ Ûķ
Ø³Øª Ø§ÙĨ
Ð¾ Ñĺ
l at
ãģ §
àª ľ
à¾ Ĺ
Ù ı
Ġ× Ļ
Ġk en
ul o
Ð°Ð´ Ð°
Ġt ur
Ġpr es
i x
Ðµ Ð¶
Ġ ÑįÑĢ
am u
and e
ĠÙĩ Ùħ
áº ¹
à¬ Ł
l ad
ĠÃ ®
Ð ¢
ç İ
Ä± ÅŁ
ud i
Ð°Ð³ ÑĬ
Ġin t
Ġà¨ ¤
à¦ ¥
à® £
d en
Ð¸ Ñĺ
àº ķ
à¤ Ļ
à² ¶
ĠA mer
. ,
æ ĭ
ĠØ§ ÛĮÙĨ
à¶ ´
ĠB r
ĠÞ Ħ
Ì Ģ
Ġáĥ Ļ
ar n
Ġl ang
ar s
Õ¡ ÖĢ
z y
à¾ ·
áī °
p ort
Ġ à½¦
ur u
e j
Ġ ist
Ġm al
Ġá Į
ĠÕ §
19 9
à¹ Ħ
Ġv al
É Ľ
ä¸ į
or o
ÙĦ Ùħ
ĠÒ Ľ
Ó© Ð½
Ġi k
ÙĪ ÙĬ
Î± Î½
Ñĥ Ñħ
ent o
Ġf ran
à¶ «
Ġáĥ ĺ
ed d
Ġà¤µ à¤°
Å Ń
Ġg od
Ġy i
es te
ĠÙ¾ Ø±
ĠA s
ah an
Ġit i
àª £
áĥĲáĥ ĵ
ÑĨ Ð°
Ãª r
1 1
àº į
ĠÛ ½
Ò Ļ
áĬ ĵ
à¨¿ à©±
Ġà® ¤
æ ³
im b
×ķ× ł
v an
es ch
ãģ Į
§ Ģ
Ðº Ñĸ
un i
åĲ Į
å ½
Ã³ l
Ġpar t
Ġr o
el la
Ġa ut
om in
Ð ĳ
ÑĤ Ð°ÑĢ
or g
y p
áĥĶáĥ ļ
el le
Ġd in
et er
åħ ¶
Ġm ay
Ġà¨ ®
ĠÐ± Ð°
Ðº Ñģ
re g
Ø ¡
Ġc ap
Ġ19 0
à¸ Ĭ
à½ĸ à½ħ
Ø§Ø ¬
Ùĩ Ø§
Ùĩ ÙĬ
ãģ Ħ
Ġm ot
Ġin a
ĠØ§ Ø³Øª
ê °
Õ ¨
in de
ĠE r
Ð´ Ðµ
os e
åľ °
h r
Ġs al
on o
ç Ļ
ĠÄ «
Ã© t
Ï Ĩ
Ñģ Ñı
ĠÙħ ÙĪ
Ġu k
ÓĻ Ð½
in u
Ð Ĵ
in k
ĠJ oh
us tr
à§ ±
ek a
n ÃŃ
Ġd ari
Ġn d
à¬ ³
à¥ĭ à¤Ĥ
az i
ent r
Ġc ar
ol u
Ó £
er k
à¬ ĩ
à³į âĢĮ
Ġu p
Ð» Ð°Ð½
× ĸ
ĠÚ© ÛĴ
Ġ× ł
ë¡ ľ
Ùĩ Ø±
è »
Ġp Ã¥
Ðµ ÑĨ
Ġe g
n t
Ġà¦ ĩ
6 0
à¨ £
og ra
ĠÑģ Ð¾
v al
ĠP a
Ġà° µ
Ġin f
Ġj i
à½Ķ à½¦
Ġf l
Ġl at
Ġv on
Ã¤ l
y i
Ã ¾
Ġs ig
Ġ× §
Ġs em
à» ĥ
åĽ ½
Ġh em
ç ¾
Ø¦ ÙĨ
Ġ2 2
Ġm us
av a
é Ŀ
ĠÐº Ð¾Ð¼
à¤¾ à¤ģ
à¨ Ĺ
à¸ ¹
à½ĳ à½ĸ
Ġà´ µ
ÑĤ Ð¸
ok o
Ò ķ
on om
u ch
ĠI l
å ī
à¨ Ł
ĠT a
ĠØ³ Ø§ÙĦ
áĭ «
ĠÏĦ Î¿Ïħ
Ð» Ñĭ
ÙĬ Ø¯
ur s
Îµ Î¹
âĢ Ķ
ĠÐº Ð¼
er b
Ñĥ Ñį
ë ¥
ä ¾
èĢ Į
Ġs ek
ir o
àº Ľ
Ġa i
ot t
Ø§Ø Ń
áĥ ®
m ent
àª Ł
áİ ³
ag i
Ä± l
ĠÞ Ģ
e e
l ig
à¤µ à¤¨
Ġà¤ħ à¤¸
ĠF r
Ġ2 3
ä¸ Ĭ
Ġb at
Ø§ Úº
Ð³ Ðµ
ĠC ar
Ġ201 1
Ġà¤ľ à¤¨
ÙĨ Ú
ĠÑĤ ÑĥÑĢ
Ġ200 0
ĠÛģ ÛĴ
o i
Ġm on
Ġs ur
ç §
Ġà® µ
en ta
ĠH a
o ch
ĠÕ ´
Ġ à½¢
ul l
Ð Ŀ
ĠÐ¿ ÐµÑĢ
à¤µ à¤¤
ĠÃ¤ r
c es
Ġk h
áĥ£áĥ ł
Û Ĭ
Ġs el
ĠÐ³ ÑĢ
er v
áī ½
Ġd ur
Õ¡ ÖĢÕ
iv a
è ª
Ġg Ã¬
Ûķ ÙĪ
áĬ Ĳ
ad os
ĠA b
áĭ Ń
Ġ2 8
Ġà® ħ
h t
ra v
od e
ir en
áĢ® áĢ¸
Ġv ers
à¤ķ à¤°
ang an
Ò¯ Ð»
áĥ Ĵ
ĠÃ ³
ap i
Ġ2 7
h en
Å ĳ
ĠØ¯ ÙĪ
Ġà² ī
id o
ĠB e
Ġcom o
áĢŃáĢ¯ áĢ·
Ð Ĩ
Ġk l
Ġc e
il la
×ķ× Ĳ
Ã¨ t
Ûķ Ùħ
Ġ200 6
d o
es ta
Ġin c
Ã« n
ÑĤ ÐµÑĢ
al ia
er m
Ġ )
Ø§ Ùģ
à¨ ª
áĪ ĭ
Æ° á»
ub a
å İ
Ġe b
ĠS u
Ðº Ð¸
Ġ200 8
Õ ¾
ç ´
Þ Ħ
Ùī Ø±
ĠÚ© ÙĬ
Ġv ol
Ġk ab
Ġr ec
Ġà¬ ı
or k
on es
ĠÐ¾ Ðº
Ġàª µ
al es
ĠáĢ Ļ
Ñĥ Ñĩ
Ġà´ ®
Ñĥ Ð¶
Ð´ Ð°Ð½
à¬ ·
ok a
il ip
Ġ2 6
m p
um b
Ġà¶ ±
Ġà´ ¨
Ð² Ð°ÑĢ
Ġ áıĹ
Ù Ĵ
áĢ Ĩ
Ġt ar
à¤° à¤¸
id d
åĩ º
ik u
à» Ħ
Ï İ
Ð¸ Ð±
it er
ĠÐ³ ÑĮ
A l
Ġt ro
Ã¸ r
Ġy ari
Ġà® ļ
ãĥ ³
Ù Ļ
Ġk ir
áŀ Ĳ
Ã¦ ÑĢ
al s
Ġr i
Ùī ÙĬ
ĠØ º
j er
à¬ Ĺ
Ġà¥ ¨
Ø± Øª
Ġ200 7
à¾Ĵà¾± à½´
Ùħ Ø§
Ġas s
' t
ĠÑģ Ð²
áŀ¶ áŁĨ
Ø§Ø ®
Ġpar ti
Ġà¬ ħ
Ò ¡
Ñĭ Ò£
Ä± m
es k
Ã¨ s
Ġà¦ ļ
à² §
sk a
ran s
Þ ĳ
æ ¸
ĠB a
ĠÙħ Ø¹
ul e
Ġcon s
Ë ĩ
ĠK ar
Ġdi v
áĥĶáĥ ł
Å Ĩ
ĠI I
ÙĬ ÙĦ
ĠN g
Ġh i
Ġse c
Ġà´ ħ
an k
Ġal l
ag o
ĠÐ¿ Ð¾
áĢ± áĢ¸
à¾ Ļ
×ķ× ¢
n ing
å ĵ
Ġ× Ľ
ĠÐ´ Ð¶
od a
à· ľ
Õ¸ÖĤÕ ©
Ð² Ð»
Ã¢ t
áĢ² áĢ·
Ġb ak
ci es
Ġg ro
ĠÑ ī
Â» ,
Ð³ Ð°ÑĢ
. )
à± Ĩ
ĠT r
áī ł
Ġà· Ħ
o ur
ik an
in as
et s
ĠØ¨ ÙĨ
ĠA d
er g
æĸ ¼
ÄĹ s
Ġ×ĵ ×Ļ
àº ¹
ek e
ÐµÐ½ Ð´
m un
im p
ĠáĢ Ģ
id i
ĠK o
Ñ ļ
Ġ Ð°Ð·
àº ŀ
ĠÑĥ ÑĢ
à¸ Ĥ
Ã© ng
àº² àºĻ
à½Ĥ à½ŀ
Ð³ Ð¾
id en
è¡ Į
Ġst r
u an
ç Ī
ĠB ar
z t
is te
ĠÙĪ Ø§ÙĦ
Ġj ed
Ð°Ð² Ð°
Ù ½
Ġc r
Òĵ Ð°
4 0
ĠA fr
Ã³ w
ud e
à«ĩ .
u j
Ð» Ð°ÑĢ
à¤¾ .
Ã¦ Ð¹
Ġ×Ķ ×Ĳ
Ġa ta
ĠP h
×Ļ× ł
ĠÙħ ØŃ
Ġb al
ĠÐ½ Ðµ
Ð°ÑģÑģ ÐµÐ¹
ĠÃ ²
áİ ª
Î¿ Î½
áı ģ
p os
Ġs ar
ĠáĢ Ĳ
ÑĥÐ± Ð»
' m
Ð½ Ñĥ
Ð½ Ð¸Ðº
Ġt el
Ã³ k
Ġan t
Õ¡Õ¯ Õ¡Õ¶
áĢ ĳ
Ġn ov
ĠÑĤ Ð°
Ġb ul
ĠÃ ¥
áĥĶáĥ ¤
d ir
ç Ĳ
ĠØ§ ÙĪØ±
áĥ £
Ġv u
áĢ» áĢ¬áĢ¸
Ġpop ul
us a
Ġd y
à¯ Ĩ
u ta
àª ¥
Ġk il
ãĤ Į
Ġsp e
b en
áĥ ¨
Ġb h
ÐµÑģ Ð¿
ĠÑģ Ñĥ
Ð¾ÑĢ ÑĤ
Ġam in
iy e
Ġà² Ĺ
ĠK a
w ar
æ ±
à¨ ¬
as ti
ÑĭÐ½ Ð°
Ø¦ ÛĮ
ì ľ
Ġà° ®
Ġh ad
¦ ¬
n s
Ġk ur
ĠÐ± Ð°ÑģÑģÐµÐ¹
ĠE s
à¸ ³
à¤¯ à¤ķ
Ġ18 9
àª ¹
Ġà² °
ĠØ³ ÛĮ
n er
Ġs l
Ġd ik
ê³ ł
íķ ľ
Ġf e
Ð°Ð½ ÑĤ
à½Ĥ à½ī
à¤¯ à¤¤
Ö ī
Ġh er
om an
Ġ2 1
áŀ Ĺ
ĠÎº Î±Î¹
Ġà¤® à¤¹
Ġà¤ī à¤ª
ĠG e
Ð» Ðµ
ci p
Ġk or
8 0
àº Ħ
å ĸ
al an
à½º à¼į
áıĹ áı¢
Ã£ o
ÉĻ n
Ø§ Ù¾
Ġk ol
g g
D e
ì ł
Ġb l
Ġc ol
à¹ Ĥ
¯ à¥
å ¿
à¤ ŀ
Ġw i
ĠáĢ ķ
Ġd ag
à¯ ĩ
ĠÑģ Ð¿
Ġà¨ ¬
Ġ× ¨
ÑģÐº Ð¸
2 5
áĪ ¨
à± Ĥ
Ñĩ Ð°
c y
àº ¸
Ġ ÛĮØ§
àª ¡
ob a
ter n
àª ¶
Ø§Ø ¡
Ġh al
ç µ
Ã§ a
Ã² ng
Ġáĥ ¨
ĠáĢ ŀ
ap a
ak t
ĠD a
áĭ °
w er
à¤¾ à¥¤
ĠM o
Ġ200 4
Ð¾Ð² Ð°
ĠÙģ Ùī
y ÅĪ
en o
w ay
à½ĺ à½ļ
Ø¹ Ø¯
ÙĬ Ø§
ĠQ u
ÃŃ s
Ú¯ Ûķ
al iz
ĠÛ ²
Ġin s
Ġg h
ĠÃ ´
ay an
ĠÞ ĭ
Ġk ad
Ġar t
àµ Ģ
Ñı Ñģ
×¢ ×ł
Ġpol it
Ġfam il
Ġc l
Ġde c
Ó© Ð»
ĠØ¯ ÛĴ
Ð¸ Ð¶
ì ŀ
åŃ Ĳ
ĠÏĥ ÏĦ
Ġb et
ĠÄ °
ev a
Ġb in
um e
à¤² à¤¯
áĥĺáĥ Ĺ
ĠÛ ĭ
à§ Ī
Ð¼ Ð°Ð½
Ġà² ľ
Ñĸ Ð²
Ġ1 00
å¾ Į
Ú µ
Ġ %
Ġh av
ĠC on
ç »
ar r
ti m
Ø³ ÙĦ
ĠÐ± Ð¸Ð»
è ®
ĠØ± ÙĪ
Õ¥Õ ¬
æĸ ĩ
Î± ÏĦ
Ð Ķ
Ġ Ð°Ðº
Ġwa x
æ ´
em i
Ġì ŀ
Ġ2 9
ĠØ¦ Ûĩ
ï ¯
uk u
y an
ÑĪ ÑĤ
Ġf on
ĠÚ© ÙĪ
àº²àº ĩ
ĠÙħÛĮ Úº
j an
à¦¼ à§ĩ
ĠÑĺ Ðµ
l et
ç Ħ
ÑĢ Ð¾
ĠØ§ Ùħ
Ġn am
ida e
à¾Ł à½¼
Õ¸ÖĤÕ© Õµ
um an
7 0
at or
ĠØ§ Øª
áĥ ·
ĠR ep
Ø§Ø± Ùĩ
Ġà¦ ¯
ĠÐº Ð°ÑĢ
Îµ Ïģ
ä¹ Ł
Ġl ib
àº Ĭ
Ġp lan
Ó ¥
Ġp un
à¤¾ ,
Ġáĥ Ĺ
à«ģ àªĤ
Ñı ÑĢ
ĠK r
am ente
å® ¶
Ġw al
Ġà¤ī à¤¤
Ð¼ Ã¦
Ã© m
á» Ļ
f or
Ġ200 5
Ġn ah
Ç £
om b
Ġà¤Ĩ à¤¸
Ø¯ Ûķ
ì ĭ
l en
Ñį ÑįÑĢ
j et
Ġl ab
ÑĢ Ð¸ÑĤ
ĠÕ ¯
iz i
l h
Ä Ń
Ġ Ð°Ñģ
ĠA t
Ġm ul
ÙĨ Ø¬
ti g
st r
ĠÞ Ī
ĠáĪ ĺ
Ġà¦ ¶
Ġáĥ Ŀ
Ð» ÐµÐ½
à¥į âĢĮ
áĢ ¹
Ġk Ã¶
Ġk wa
Ġm or
n an
Ġc an
is m
il li
à¤¿ à¤Ĥ
ï¼ ļ
Ġn ak
Ġ Ð°Ð¹
Ġg eb
è ¥
Ġàª ¹
Ùħ Ùī
z en
ĠâĢ ĺ
Î¯ Î±
Ġer a
Ġ200 9
ĠÐº Ð»
v u
ÑĭÐ» Ð°
Ġt ek
ĠÑħ ÑĥÑĮ
Õ¸ÖĤ Õ¶
áĮ Ī
n os
Ġs ol
à¾ ¨
×Ļ× ¨
Ø³Øª Ùĩ
ÑĤ Ð¾ÑĢ
Ġi b
ÙĦ ÙĪ
áĥĿáĥ ĳ
n ik
à¤¨ à¤ķ
Ġáİ¾ áıįáİ©
Ġi ha
Ġm b
Ġl and
É Ķ
à½ĺ à½Ĳ
åĪ °
ĠØ¨ ÙĪÙĦ
Õ¡Õ ´
ug a
j on
Ú »
r s
Ġs y
Ð°Ð» Ñĭ
Ġm p
à¬ Ļ
ion i
Ġet a
áıį áı
Ã¤ h
ĠÐ¾ Ð»
ĠC o
Ñı ÑĤ
al ah
ĠN ew
Ġ áŀĵ
ĠN o
ĠÃ® n
è ģ
ĠU S
Ġà¤ Ķ
ãĢ ĭ
ÙĬ Ùħ
ãĢ Ĭ
Ġfil m
ãģ ª
à³Ĩ .
Ð°Ð¼ Ð°
Ġo ch
ĠÃ¤ bin
Ġfor m
é ļ
od i
Ã¼ m
ÓĢ Ñį
ĠÚĨ ÛĲ
Ñĥ ÑĥÐ»
àµ Ĥ
p p
ĠÐĲ Ð»
Ġ×Ĵ ×¢
àº ³
ĠÞ Ĭ
æ İ
à° ļ
Ġs an
ro d
ÑĨ Ñĸ
à²¦ à²°
Ġáĥ ľ
Ð £
Ġde p
ak s
áĪ «
ĠÙĨ ÛĮ
Ïĥ ÏĦ
ot s
Ġt re
ĠN y
Ġen g
Ġ ÈĻ
Ġk el
èĢ ħ
àº Ĥ
åħ ¬
Ġs z
e y
Ġa u
Ġ Ð°Ð±
ĠB o
f in
Ãł ng
et ro
æĻ Ĥ
Ġà¤ Ī
Ãº n
Ã¤ ld
Ã¡ d
ĠP er
ra z
Ã¶ d
Ġà¤ħ à¤Ľ
Ġor gan
ĠÂ °
Ö ĩ
ad an
Ġn ke
Ġl ig
Ð ĺ
un da
à© į
éĥ ¨
Ġà¨ ²
Ġan a
Ġ à½ĸ
à¥Ģ à¤Ĥ
Â ·
ation al
ed a
ud a
ÅĤ o
Ġn um
Ġpro d
æ ł
Ã© k
Ġà¨ ī
ij i
Ð´ Ð·
çĶ Ł
ĠØª Ø±
à¦ ĵ
Ã¡ t
ĠE urop
ÑĨ ÑĮ
àº² àºĻàº
Ġà° ¨
èĩ ª
l ah
Ġl oc
es a
Ġb el
p t
ĠÑĢ Ð°Ð¹
à§ Ĥ
ĠP ol
ĠL i
à¤ª à¤¨
áı ³
åŃ ¸
Ġc or
ĠÚ© ÛĲ
Ð¸Ð½ Ð¸
ek o
åį ģ
r ic
Ġà¦ Ń
ë ĵ
um i
ĠÎ ¿
ĠÑı Ðº
Ã³ t
Ø ¢
it ar
Ġàª Ĺ
ĠØª ÙĪ
ĠÐ½ Ð¾
il o
Ð°Ð´ Ñĭ
in c
Ð°ÑĢ ÑĤ
Ġà° ī
Ġk ay
ong o
om o
ĠS i
Ġd ar
à³į .
à¾Ĵà¾± à¼ĭ
os i
áī ¥
Ġf er
os s
Ã¤ m
ig n
Ġngw aga
im o
ot o
à¤ ¢
Ġà² Ĵ
Õ¡Õ ¿
is ke
ÐµÑģÐ¿ ÑĥÐ±Ð»
ç Ń
Ġe i
ä¸ ī
ĠÚ© Ø±
à² ¥
àºµ à»Ī
Ð¾Ð½ Ð´
Ġà¦ ī
Ð°Ð» ÑĬ
áĥĶáĥ ¡
Ġ Ð°ÑĤ
ut h
Ġà¬ ¨
à¸ģ à¸²à¸£
ä¸ »
Ĥ ¬
ĠÐ± Ð°ÑĪ
ç ¨
Ã« s
Ġà¤° à¤¹
Ð¾ Ð¸
à¸ ¨
et te
Ñħ Ð°Ð½
ĠÑģ Ð°
ĠáĬ ¨
áĥ Ļ
as an
Ġ× ¦
áĭ µ
Ġ5 0
à¬ ¶
ay o
Ġ â
ĠÐ´ Ð°ÑĢ
Ġs m
Ġf ar
k er
e u
ĠT o
Ġ6 5
id h
n ya
à¬ §
×ķ× ľ
id ent
ĠÙĪ Ùĩ
Ġu z
×Ļ× ©
k in
Ð¾ÑĤ Ð¾
Ġà¦ķ à§°
ä¿ Ĥ
ĠÙ ¿
Ùģ Ø±
ìĦ ľ
à²¿ à²Ĥ
ÓĻ Ð¼
à¥¦ à¥
Ġd os
à¬ ľ
ĠØ® ÙĪ
àº¥ àº°
è¥ ¿
og a
Ġm is
æ Ģ
Ġf ra
Ð ĵ
æ ¬
Ġàª ¨
ri b
ÑĢ ÑĤ
ÑĢ ÑĥÐ³
Ã¡ m
¹ Û
Ġà¦ ²
ec t
ĠØª Ùĩ
at ti
ĠáĢ Ľ
ç ¶
Ð½ Ð¾Ð¹
Ð½Ñĭ Ñħ
ĠUn ivers
ĠM an
å §
Ġb le
à¯ ĭ
Ġà¬ ¹
2 4
Ġt ab
Ġà§ §à§
à´ ·
à³ Ī
ÙĬ Ùĩ
id ad
eg e
Ðº Ñĥ
áĮ į
ĠM al
ag u
Ġà» ģ
os h
ĠÚ ¤
à½ł à½ģ
áıĻ áıĹ
as Ä±
Ã¡ k
Ġp ap
Ä ¡
ĠA nd
à¯ Ĭ
Ø´ Ùī
çĶ ¨
Ġm es
à½ĸ à½Ł
àµ »
li ch
ĠD ie
Ġal s
yn s
Ń áı«
à¨ Ī
ist or
j ar
Ġt ut
Ð°Ð» ÑĤ
ĠÑĤ ÑĢ
as ta
ad or
Õ¶ Õ¥ÖĢ
Ġb ah
ĠÐ¿ÑĢ Ð¾
æ° ĳ
Ġo t
à½ł à½ķ
ĠÐ½ ÑĮ
w en
à¤² à¤ķ
áĥĲáĥ ķ
la v
ĠÙĨ ÙĪ
è ³
ĠÑĤ ÐµÑĢ
up a
à¸²à¸ ĩ
åĲ į
Ġ4 0
àº Ī
ÑĨ Ñĭ
Ã± a
Ġb ag
áĥĿáĥ ľ
l ia
Î¹ Î±
it al
Ġà° Ĺ
ÙĪ Øª
Ġa ir
è ¾
Ø§ÙĨ Ø¯
Ð°ÑĤ ÑĮ
le y
up i
æľ ¬
ek i
Ġt ah
ĠÐº Ð¾Ð»
è µ
ÑģÑĤ Ð°
v ar
Ú ĺ
Ùħ Ø¯
áĥĿáĥ Ľ
¨ áıĴ
Ø´ ÛĮ
Ġl ing
à½ĳ à½ĺ
Ġt aki
2 2
é «
à¸²à¸ ¢
Ġáĥ Ķ
in an
Ð°Ð½ Ð¸
b ar
in in
Ġt ak
ĠÐ ®
is yen
Ġ18 8
il d
Ð³ ÐµÐ½
Ġb is
Ã¶ n
Þ ĵ
è ĭ
ÐµÑĢ Ð¸
ĠØ ¥
ĠÑ ĳ
Å¡ t
Ġà¤ ĺ
Ð´ Ð¶
Ñį Ñģ
Ġpar te
Ġ×© ×ľ
ĠÞ İ
Ġm ang
Ġm ill
Ã¨ ng
×¢ ×Ł
Ø® Øª
åĢ ĭ
Ġp en
à½ĵ à½Ħ
at er
áº ¿
· ¸
Ñĸ ÑĢ
×Ļ× ª
æ ŀ
ag n
áī ³
Ó§ Ð½
Ø¬ Ùĩ
Ñĳ Ñģ
f o
ÑĨ Ð¸Ñı
ÙĪÙĨ Ùĩ
åĴ Į
Ó© Ó©
Ġà¦ķ à¦°
Ġk am
Ġth at
ÐµÑħ ÑĮ
Ò ±
ug u
Ñį Ð·
Ġcom p
à´ Ĺ
ĠÎ ´
eng an
áº ¡
h ar
Ġma i
à¥ĩ .
ĠÙĪ ÚĨ
áİ¾ áıĹáı¢
19 8
Ńáı« áİ¾áıĹáı¢
Ġa o
ant u
Ġà® ¨
Ġk um
ĠB u
à½¼ à¼į
ov e
ĠØ§ÙĦ Ø¹
à¤° à¤£
à» į
Ġ201 2
ì ĸ
ir t
ic al
b y
áŀ ¹
Ġà° ħ
ĠE st
åį Ĺ
Ġà¤Ķ à¤°
ion s
ĠÑĢ Ð°Ð·
æ ¯
Ð°ÑĢ Ð´
ĠR o
an ta
à³ģ à²Ĥ
Ðº Ð¾
on u
ĠàªĨ àªµ
áŀļ áŀĶ
Ä± s
áĥĺáĥ ļ
Ġt am
Ġes is
Ġs ist
Ġp ÅĻ
Ä ĭ
Ġd as
ĠÃ© s
ÏĢ Î¿
Ø± Ùģ
ing s
Ġt op
Ã© e
id er
ĠÐ´ Ð¸
j es
å ł
é ķ
à²µ à²°
Ð°Ð» Ñĸ
ri e
k ar
min ist
à¸²à¸ Ļ
à¾³ à¼ĭ
ÑģÑĤ ÑĢ
á ¸
çİ ĭ
æī Ģ
à¦ ģ
ĠâĢ Ļ
à¤¯ à¤¨
ĠA c
z u
ë ı
ì §Ģ
Ġp ada
ĠØ¯ Ûķ
p ro
Ø³ Ùĩ
Ġàª ¦
ig i
Ġà¶ ¶
äº Į
é ł
Ġà¬ķ à¬°
v el
ĠØ¢ ÙĩÙĬ
2 7
am o
Ã¤ s
Ã© l
ÛĮÙĦ ÛĮ
à· ħ
ĠÕ ¸
Äķ Ð½
áĢ Ŀ
Þ ħ
ari o
rit o
ìĿ Ģ
à¾² à¼ĭ
Õ ´
Ġal t
Ġt ÃŃ
ĠØ¨ Ø§
Ġu g
Ġà¶ ½
Ġ ÅĤ
Ġs us
p or
ç Ł
Ġam b
Øº Ø§
2 3
¯ à§
o ti
Ð» ÑĬ
ĠÙħ Ø±
æ ¼
is c
Ã³ Ã³
Ġs um
áĪ Ľ
Ġi yo
à¸ ¶
áĥĿáĥ ł
Ġl l
à½¢ à½Ħ
Ã¶ s
à¤¸ à¤ķ
ĠÑĥ Ñĩ
ra b
à¬ ¡
eg n
Ùħ ÙĨ
Ġà¶ ľ
Ġáĥ ŀ
ĠØ§ ÛĴ
Â» .
ĠÐ¿ Ð¾Ð»
à§ĩ à¥¤
Ġg an
ng i
E l
Ġá ģ
Ġk ont
áı Ħ
Ġp Ã«r
us h
ĠÐ ¯
od o
ort h
Ïī Î½
2 6
à¤µ à¤¸
ĠÐ¹ ÑĭÐ»
Ġà² İ
à¤¯ à¤®
ĠÐ´ Ð¾
ĠÑĥ Ð³
Ġr ad
2 9
ĠÚ© Ø§Ø±
è ĥ
il m
×¨ ×Ĳ
àª §
er en
ĠL at
Ð°Ñħ ÑĮ
Ġb Ã¤ld
Ġm Ã¶
é ĺ
ĠÙĨ Ùĩ
è ©
en er
Ú ĸ
Ġh at
Ġà´ ¤
Ġà¨ħ à¨¤
ê° Ģ
å £
x t
ÑĤ Ð°Ð½
at iv
à½ĳ à½Ķ
Ġáİ Ńáı«áİ¾áıĹáı¢
it Ãł
x e
ay e
ĠÐµ Ð»
Ð» Ð°Ð´
ant s
u y
Òĵ Ñĭ
áı ¯
åŃ ¦
Ġa an
ur n
ÛĮ Ú©
à¤¬ à¤°
s c
¸ °
à® ´
f orm
è «
Ġw ith
Ð² Ð°Ð½
Ä± q
Ø¯ ÙĨ
Ġi g
Ã¦ Ð½
Î¿ ÏĤ
Ġm eng
à· Ŀ
Ġà¬ ¦
ìľ ¼
k l
Ĭ ¤
ed en
Ġtr ad
2 8
à´ ¶
Ġn h
Ġn ie
à½ĺ à½ģ
Ġ Ó
ĠÐº Ð¾ÑĢ
æĸ ¯
Ġáĥĵ áĥĲ
è ·
ul ar
à¥Ģ ,
Ñĸ Ð´
Ġs im
à½Ĥ à½ħ
ha i
à¸¥ à¸°
Ø¨ ÙĪ
à¤Ĺ à¤°
Ð» Ð°ÑĤ
Ġm m
Ġ Ð°Ð¼
Ñĭ ÑģÑĮ
ĠM on
K o
in h
er c
áĥ Ĺ
ĠN or
Ġà¶ Ń
iy an
ãĤ ¹
áŁ Ĳ
ĠØ¯ Ùĩ
Ð½ Ð°Ð¹
Ñħ ÑĮ
Ã¡ u
ÐµÐº Ñģ
Ġin v
à¹Ģà¸ Ľ
g h
Ġw ur
à¤ľ à¤¨
Ã½ ch
Ġ× ¡
à¥Ī à¥¤
Ðº Ð°Ð½
Ò¯ Ð¹
Ġse b
Ġ200 1
Ġf un
à¶ ¶
Ñ Ķ
ë¥ ¼
ç ¬
Ø§ÛĮ ÛĮ
Ġàª °
ç« ĭ
Ðµ ÑģÐº
Ð¿ ÐµÑĢ
Ã« t
ov i
Ġpr in
4 8
Ġz o
à½ĺ à½Ħ
Ú¯ Ø±
ÑĢ Ð°ÑĤ
Ġgr up
4 5
Ġb an
áİ ²
eng e
Þ Ķ
ez a
p res
Ġá» į
åĪ Ĩ
e an
áŀ ķ
Ùħ ÙĦ
es sa
ik k
ĠÐ¼ ÐµÐ½
ĠB el
ĠÈĻ i
Ðº Ð¾Ð²
ĠP o
ĠK on
Ġd z
r is
Ġl Ãł
Ġo o
Ò¯ Ð³
Ġ201 3
áŁĭ âĢĭ
m et
Ġàªħ àª¨
àµ ¾
ot h
ÛĮ Øª
Ð· Ð°
op h
à¤Ł à¤°
Ñĭ Ð¶
Ġ×Ĳ ×ķ×Ł
m b
Ġf ir
s á¹³
å¸ Ĥ
Û° Û
Ø¦ Ø±
à± Ī
ĠÐŁ ÑĢ
à¹ĥ à¸Ļ
Ġr ev
áİ ¶
Ġle a
y ch
ç ľ
ĠB er
and i
end o
ar en
Ã¼ Ã¼
Ġis ch
ant o
à® Ļ
19 7
à°¿ à°Ĥ
å¤ ļ
Ġà¹ Ģà¸
ĠÑĢÐ°Ð¹ Ð¾Ð½
Ùĩ ÙĨ
×Ĳ ×ł
à¤ ħ
at ra
åħ ¥
è ¯
ĠØ¨ Ûĩ
T he
Ã² r
ĠÐº Ñĥ
ĠD en
à½ł à½ĩ
Ð½ ÑĮ
Ġde g
ĠG er
Ġm id
Ø¯ Ø±
ĠØ§ÙĦ Øª
Ġk er
áĥĲáĥ ®
Ġ×¤ ×ķ×Ł
z n
Ġp la
Ûķ ÙĦ
6 5
áŁĦ áŁĩ
es h
Ðº ÑĤ
Äģ s
Ð°Ð» Ð¸
ĠÐ± Ð¸ÑĢ
ek k
alm ente
à« Ĥ
ĠÛĭ Ûķ
d d
ĠìĿ ´
A r
Õ ½
Ġp ot
os ta
ed ia
ci al
Į Ģ
Ġa Ã°
Ġp am
Ġp ang
Ø§Ø µ
à¸²à¸ ģ
à³Ĭ à²Ĥ
ĠØ³ ÙĪ
Ġa us
Ġp ra
×Ļ× ĺ
ÅŁ t
Ġì ķ
Ġs et
Ġà¨ °
ĠH o
Ø§Ø± ÙĬ
Ã´ r
à¾Ł à½º
Ġà¶ º
ĠÞ Ĥ
ĠJ o
ĠÕ ¥
Ġy u
ig o
g olo
Ġs ud
Ã» ng
Ä ¯
ĠØ¹ ÙĦÙī
r ed
Ġ Ð°Ð½
áŁ ī
um ent
áĪ ħ
Ġàª ı
Ġr et
ĠÙĩ ÙĪ
Ġhab it
ĠÏĦÎ· ÏĤ
ç ¥
Ġo li
f u
áı ©
Ġàª ¬
ì ķ
á¹ £
ä½ ľ
Ġdal am
ĠáĢ ľ
ĠÙģ Ø±
Ð½Ð¾ ÑģÑĤ
Ð¸Ð½ Ð³
Î ²
Ã³ ng
el en
ĠV al
Ġka j
Ġl eg
Ùħ ÙĪ
Ã¡ i
k k
in y
ä¸ º
Ġ201 4
Ø§ Ø³Øª
Ðº Ðµ
áī £
ĠÐ ¦
Ġà¨ Ĺ
ab i
emb re
ah i
d z
ĠØ³ Ø±
áĢ¼ áĢ®áĢ¸
æĸ ¹
å¾ Ĺ
it an
2 1
Õ¡Õ ¾
à¦° à¦¤
Ġp ou
al ak
Ġi a
Ġs Ã©
à· ĸ
ĠÙĦ Ùĩ
à¯į .
ÑĤ ÑĤ
Ġw ie
Ð¿ ÑĢ
Ð¾ÑĢ Ð°
áĥĲáĥ Ĺ
Ð¾Ð» Ð¾Ð³
Ð² ÐµÑĢ
Ġ199 9
b urg
z er
äº Ĩ
ĠáĬ Ĳ
Ġs ak
Ġg ra
×ķ× ĵ
æĶ ¿
àº²àº į
à¹ Ģ
ÑĬ Ñĥ
ub lik
áĢ¯ áĢ¶
å· ŀ
Ð ¥
àª ³
b um
ĠE m
ĠÏĦ Î¿
Â «
ar m
áĥĿáĥ ļ
ich t
ĠÐº ÑĢ
áĥ£áĥ ļáĥĺ
ĠE ng
áĢŃáĢ¯ áĢ¸
áĥĿáĥ łáĥ
Ø¯Ùī ÙĨ
Ġw ord
Ġp Ã²
à¶ ©
Ġáı Ĥ
à¾Ł à¼ĭ
Ġì ł
à¾± à¼ĭ
ÑĥÐ» ÑĮ
Õ ¯
Ġ- -
ä¸ ĭ
á» ĳ
Ġkil om
Ġen d
ê µ
ĠI ng
à¤ı à¤ķ
à¦ ī
áĥĺáĥ ĵ
ĠS al
ob er
áı ´
ãģ £
ê ²
Ñĥ Ð²Ð°
un s
Ġr az
Ġn on
Ġáĥ ĳ
ĠÐ¸ Ð¼
Ġ×Ĳ×Ļ× Ł
Ġg ar
Ġ×Ķ ×ŀ
f l
ÛĮ Ùĩ
Ø¦ ÙĬ
ad en
Ġr ah
Ġà¦¹ à¦¯
àº ½
à´ §
Ġà¬ °
×Ļ× Ķ
Ïģ Î±
Ġt or
Ñı Ð¼
ÃŃ ÃŃ
ĠáĢ Ķ
à¥Ī à¤Ĥ
Ø³ Ùħ
é Ĥ
3 5
ĠA g
p en
Ð² ÑĢ
äº ĭ
lar Ä±
Ġar e
áĥ£áĥ ļ
à½ł à½Ľ
Ġpro f
× ļ
à¨ ¡
ĠT im
ä¸ ĸ
ĠÑį Ð¼
i q
Ġ ord
ing a
iz a
æµ ·
Ġba ÅŁ
Ġo u
áĬ Ń
Ġà¤ħ à¤§
áĢ±áĢ¬ áĢº
Ú Ļ
Ġn el
Ã¡ c
re e
ÑĢ Ð°Ð¼
Ġs ay
Î¿ Ïį
à¸²à¸ ¡
à®ª à®Ł
Ġg y
ĠÐ± ÐµÑĢ
ĠÐľ Ð°ÑĢ
àº²àº ¡
k h
s u
áĥ ĳ
Ġv Ãł
ÑĭÐ» Ð´
ĠÚ ħ
Ġngw ag
x i
áĥ łáĥ
à½ĸ à½Ģ
ĠÐ¾ Ñģ
ĠØ§ÙĦ Ø£
Ġà» Ģàº
Ã¡ h
Ġst at
ĠX V
è» į
v at
Ġ3 1
ĠØ¦ ÛĨ
s en
Ä±n Ä±
x a
æ Į
ac e
Ġ18 7
à±ģ à°Ĥ
ak u
) ;
ĠR a
ist an
×Ļ× ľ
ĠÛģ ÙĪ
t an
æ ¨
Ġm el
ĠL o
Ã³ d
Å¡ k
æľ ĥ
ÙĦÙī ÙĤ
æ Ħ
æ Ĳ
Ùħ Ø§ÙĦ
ĠB rit
eg i
o te
in en
ĠW e
Ã° ur
Ġà¤ Ł
æ³ ķ
Ú Ī
Ð°Ñģ Ð°
áº £
Ġà¤ĩ à¤¤
Ġë °
éģ ĵ
Ġdi p
Ġw or
ĠO l
è Ļ
om p
áĬ ł
Ùĩ Ø§ÛĮ
c ion
Ġv om
w ag
åĮ Ĺ
áĥĲáĥ ¤
Ã° i
in ta
Ú ĳ
à¨ ĸ
Ġv ir
ĠÙħ Ûķ
en z
ur o
Ð Ľ
Ġà¤ ¡
er ra
à¬ ı
á» ĩ
ãĥ¼ ãĥ
Ġ ïº
àª ļ
ĠÚ© Ø±Ø¯
à» Ģ
Ġà¦Ĩ à§°
Ñĩ Ð¸
Ġ×Ĳ×Ļ× ĸ
E n
om i
à¶ °
w ana
Ġb es
ĠE d
Ð ¤
ÙĦÙī Ø±Ùī
Ò» Ñĭ
et o
à¶ Ĥ
Ù ĭ
ev e
Ġli f
à½ĺ à½Ľ
l os
Ġà¤ª à¤¹
Øª ÙĪ
Ø¯ Ûĩ
Äģ n
ir d
à©ĭ à¨Ĥ
à¾³ à½¼
Ġo ver
à¥ ¨
Ġa li
ĠM as
it as
ĠÐº Ð¸
ĠÙħ ÙĤ
Ð½Ñĭ Ð¼
Ġà¤® à¤¨
áģ Ĭ
et ti
ad r
Ø ¥
Ġn anga
Ġu d
à¤ª à¤°
oc k
l ov
qu es
.. .
ĠÑħÑĥÑĮ Ð»Ñĥ
ç ½
à° ¬
à§ ¨
Ġg w
ĠØ´ ÙĩØ±
Ġ4 5
ĠÊ» i
à¸· à¹Ī
ĠT ur
æ Ĭ
ĠÐ± ÑĥÐ»
ĠØ§ÙĦ ØŃ
áĥĿáĥ ¡
ÐµÑģÐ¿ÑĥÐ±Ð» Ð¸Ðº
m ar
à· ģ
ĠÐº Ð°Ð»
Ð¸ ÑĨ
à¥ĭ à¥¤
ÐµÑĤ Ð¾
áį £
ìĸ ´
ĠN e
Ġg l
Ġàª Ń
à¾² à½º
Ġáı ¥
g ar
ë Ŀ
ĠÐ±Ð°ÑĢ Ð°Ð¼
Ó§ Ð´
Ġd on
ĠW ar
ĠS c
ĠÐº ÑĮ
å± ±
t ar
Ã¢ i
g al
Ú ķ
Ġà¶ ĳ
Ġà´ İ
9 0
Ð ¨
Õ¡Õ ½
Ġay isyen
k at
ad as
Ġnj Ã«
ÙĦ Ø§Ùħ
Ġg el
ÙĬ Øª
ĠM in
ĠP l
ë ¦¬
Ġn t
ĠØ¨ Ø§ÙĦ
ĠáĢ ħ
Ñĭ Ñĩ
ti ca
ĠD o
ĠÐ¼ Ð°ÑĢ
áĥĶáĥ łáĥ
n Ã©
Ġs Ãª
Ð¾Ð» Ð°
Å¡ e
Ñĳ ÑĢ
Õ¥ ÖĢÕ
es p
ĠÐ¿ Ð¾Ð´
ÐµÑĤ ÑĢ
àº²àº Ķ
Ġ199 0
Ġn et
Ġ ÅĤa
Ġr oku
à²¦ à²²
à¶ ¢
Ġà¤ħ à¤°
áıį áİ¬
f s
Ùī ÙĨ
Ð°Ð» Ð°Ð½
ë Ĥ
à° ¶
ĠÐ¼ Ð°
ĠÐ¾ Ð½
ĠV er
Ġd engan
Ùħ Ùĩ
3 6
Ġàª ¶
à©Ĥ à©°
è §
Ð» Ð°Ð²
Ġg er
Ġes te
ÑħÐ°Ð½ ÑĪ
C h
ĠÙĪ Ø±
Ġm em
Ġn in
ult ur
ad d
Ġn or
id ade
Ġáĭ Ń
Ġ áŀĬ
ĠD r
ĠØª ÛĴ
Ð» ÐµÐ´
it Ã©
áİ Ń
ow n
Ġê ·¸
v et
Ñĥ ÑģÑĤ
ok i
Ġà® Ĩ
ĠM us
ĠØ³ ÛĴ
Ð¸Ð¹ Ð»Ð°
Ä±n Ä±n
Ġh is
ĠØ± Ø§
Ġs te
est o
à§ ĥ
Ġ201 5
ÏĢ ÏĮ
ç ©
an an
Ġan i
Ð°Ð» Ð´
Ġb eg
Ã» n
é ¦
Ġt ip
Ñį Ð¶
ant es
Ġas in
ç¬ ¬
Ð½ ÐµÐ½ÑĮ
à¤° à¤¦
Ø³ ÙĬ
ĠI m
ĠÙĬ ÛĲ
Ñĭ Ñĥ
à½ĸ à½Ļ
ut o
19 5
3 9
j n
Ġk ul
Ġm Ã¡
à¬ ļ
ĠS te
×Ļ× ¢
ä» £
Ġà¹ ģ
Ġc al
ÃŃ t
ĠF l
à½Ĥ à½ĵà½¦
Ð¸Ñģ ÑĮ
ĠÃ ģ
Ġ áŀĢ
Ó© Ð³
3 8
é ¡
àµį .
Ġv el
Ġr Ã©
ĠÙħ ÙĦ
áĥĶáĥ Ĺ
Ġà¤¸ à¤¨
Ð» Ð°Ð¼
ĠâĢ ¢
Ã¦ r
en ce
à° ľ
ĠÑĤ Ð°Ðº
Ġy o
ut s
j as
ĠÞ Į
Ð¾Ð² ÑħÐ°
Ġc y
Ġv ÉĻ
ÑģÐº Ð°
è ¶
Ġk ana
áĥ §
Ġ18 6
II I
Ð» Ð¾Ð²
Ġc re
r ist
æ ¥
w u
Ð½ Ð¾Ð³Ð¾
ĠÙĪ ÙĬ
á» §
Ð½Ñĭ Ò£
ĠÎ¼ Îµ
Ġg re
s on
â ģ
é Ł
yd d
it z
ber g
Ö ·
Ñĸ Ñģ
ÚĨ Ùī
å ģ
Ð° ÑĦ
ÑĤ ÑĥÑĢ
Ġdi g
ĠH ar
è Ń
Ī ëĭ¤
Ġ6 0
à¾Ĳ à¾±à½º
Ð½ Ð¾Ð²
àª ĸ
ĠØ¬ Ùĩ
t ur
âĢ İ
Ġy w
áŁ ĥ
ĠC ol
ĠÅ ł
à¤ Ĩ
ĠÚ© Ûķ
Ø§Ø º
ĠG o
å ķ
à¤ ĺ
al li
Ã¼ k
iy o
ÛĮØ§ Úº
å¾ ·
Ġng an
yst em
j el
Ã¤ i
ĠH er
Ġc ir
ut u
Ġà° ¦
c an
r in
Ñĥ Ð¹
ĠØ§ Ú©
Ð¸ Ð¾Ð½
Ġe e
k y
' d
ÑĤ Ð¸Ð½
Äį i
ìĿ ¸
Ġs or
Ġm ol
Ïģ Î¹
z h
Ùħ Ûķ
à¥ģ à¤Ĥ
Ġlif ay
ĠÑģ Ðº
ãĥ »
Ġ200 2
Ġpro v
Ġà Ń
at ik
ĠÃ ĩ
3 7
Ġh ot
à¾ ¦
áĥĺáĥ ł
Ð°Ñģ Ñĭ
à¶º à¶ļ
áĥ ¥
à¸± à¹ī
ĠÑĥÐ³ Ð³Ð°ÑĢ
c l
y g
Ġd il
ÙĨ ÙĪ
Ġê °
Ú ģ
Ġc ent
Ã¡ v
Ġà¤¤ à¤¥
z Ã«
Ñĥ ÑĥÐ´
Ġv is
Ġáĥ £áĥ
ri ch
ĠÕ ¶
Ġà¤¬ à¤¨
Ġà§ ¨
4 9
im al
Ġper i
Ġac c
igh t
Ñģ Ð°Ð½
Ġpro p
è ²
ĠØ± Ùĩ
à½Ĥ à½ı
ĠA z
Ġes ta
ĠÒ ¡
Ġm ah
ÛĮ Úº
i w
Ġ× Ĺ
ang e
à½ĺ à½Ĩ
âĢ ĺ
à¤° à¤µ
ĠØª Ø§
Ġ3 5
Ä ©
à¥ ī
æķ Ļ
Ġ à½£
Ġngwag eng
Ġh ag
Ġm eg
ÙĨ Ø§
à§ ª
ĠÚ ĺ
×Ļ× §
end er
ep t
Ġk in
or es
Ġh od
Ġd isi
Ú ļ
Ġáĥ ¤
ov an
Ġàªķ àª°
k m
Ġt rans
Ã¡ g
Ã¡ ng
Ð¸Ð½ Ðµ
ud en
Þ «
id u
ĠÙĪ ÙĦ
og o
éĥ ½
ÑĬ ÑĳÑģ
b re
l eri
ë ł
Ġl et
ÙĨ ÙĬ
à¬ ¯
il is
Ø¨ ÙĬ
æĿ ±
l ag
u er
Ä ¾
Ġk ang
ĠG re
ĠO n
å¤ ©
c is
ĠT i
Ġáİ¾ áİ
Ġt sa
ĠÃ «
Ñĭ Ð±
ĠÄ Ĺ
p s
ch h
áı ±
ic an
Ġn em
ÙĪ Ùĩ
Ø´ Ø±
Ġg ran
Ð°Ð» Ð°ÑĢ
ãģ Ĥ
ĠÚ© Ø§
Ġ200 3
Ġp lu
Ġs os
áŁģ áŁĩ
à¥ĩ à¥¤
é« ĺ
ch o
Ġr oz
ĠÑĥÐ³Ð³Ð°ÑĢ Ðµ
U n
Ġ 000
Ø§ÙĨ Ùĩ
ÑħÐ°Ð½ÑĪ ÑĭÐ²
Ġm ez
Ð¾Ñģ Ñģ
ç ı
Ġà¬ ľ
áĥĶáĥ Ľ
Ġc as
aga i
Ġe f
àº²àº ģ
Ġim p
Ġny ang
Ġna v
Ġun e
âģ ¿
àº ®
st itu
ÄĹ n
it at
Ø¨ Ø¯
Ġun n
ĠW a
ĠáĢ ģ
ãĤ ī
çĲ Ĩ
it ion
ic u
Ġà¬ ĵ
ĠÎ ³
4 7
h al
ë §
ĠÙħ Øª
æĸ °
Ġn eb
ÙĦ Ø§ÙĨ
ĠÐ±Ð°ÑĢÐ°Ð¼ ÐµÑħÑĮ
Ø± Ø§
Ñĸ Ð¼
j in
Ġd Ã¤t
Ġl eng
Ġà² ¶
3 1
à¸ ĸ
à²¾ à²Ĥ
ĠØ¦ ÛĲ
èĩ ³
Ġw u
Ġà® İ
à² Ń
Ġl ok
áŁ Ģ
Ð¾ÑĢ Ð´
çī ©
Ġá į
×ķ× ĳ
àµģ .
Ð½Ñĭ Ð¹
Ġad alah
am es
Ġy er
Ġà¬ ¤
Ã¨ l
Øª Ø§Ø¨
åı ¯
ĠÐĲ ÑĢ
çŃ ī
Ñı Ð»
Ġpro vin
à¬ Ń
Ã©g Ã²
el as
ĠÚ© Ø§ÙĨ
ak ar
Ġqu i
ch u
ÙĬ Ø¡
Ġb ab
ich e
ÚĨ Ûķ
Ðº Ð°ÑĢ
Ġ199 6
ì Ĭ¤
es se
Ñĸ ÑĤ
ĠÙĨ ÛĴ
é »
c on
il iz
ĠÑĤ Ð°ÑĢ
áī ¸
m at
Ġ Ð°Ð¶
Ġh as
Ġno ch
ar ia
Ġe h
ĠÙĪ ÛĮ
Ð¸Ð» Ð¸
Ñģ Ð¿
Ã© d
im ent
Ñİ ÑĢ
ĠÑĤ Ð¾
áº Ń
Ġs itu
ĠR eg
Ġes s
19 6
Ñį Ðº
ie j
Ã¦ Ð³
ĠÃ ¬
om en
Ġr ok
Ġà® ī
3 4
Ð¸ ÑĦ
la q
ÑĢÐ° ÑĦ
r ik
Ä± z
Õ¸Õ ¾
Ġp us
ĠK e
r d
Ġk Äģ
Ġh uk
à¯ Ĥ
Ġà¦ ¥
ĠÐ² ÐµÐ»
Ø§Ø ·
Ġì Ħ
è Ĳ
as te
ëĿ ¼
Ġd ah
Ġt y
Ġk g
il t
um p
Ġà¶ »
Ġma j
Òĵ Ð°Ð½
n en
an ya
ãĥ «
r ad
ÉĻ s
ÛĮÙĨ ÛĮ
ubl ic
Ġà¥§à¥ ¯à¥
l em
Ġp ay
Ø¯ Ø§Ø±
×Ĳ ×ľ
Ġf ac
Ð´ Ð°Ð³
ap at
ÑĭÐ½ ÑĭÒ£
ĠÎ Ń
ì ĺ
al u
Ð´ ÐµÐ½
ÙĪÙĨ ÙĪ
å Ķ
Ġt ha
ĠW al
ÑĥÑĢ ÑĤ
Ð¸Ð» Ðµ
ĠÅ ŀ
ç ¦
at l
Ġr om
ut t
v or
Ñ £
ĠÑĤ Ðµ
áĥĲáĥ ¢
Ġà° °
ãĤ Ĭ
ĠÑį Ð»
Ġc at
Ġo v
ĠL u
ĠÐ¸ Ð»
Ġst ud
Î½ Î±
Ð° Ñŀ
Ġn ord
Ġs uk
ĠC a
ap e
ÓĻ Ð»
Ú¾ ÛĮ
Ì Ħ
à©Ī à¥¤
w n
Ġk ra
Ûĩ ÙĦ
ÑģÑĮ Ðº
om as
l ing
s z
Ġd un
Ġb ro
ĠÃ ī
ir k
Ġ× ĺ
ãģ ĵ
Ġáĭ¨ áĪ
ĠSa int
Ġfamil ia
áĢ ĺ
ãģ ķ
Ò ·
ĠÐ Ļ
Ø¯ ÙĪ
Ø² ÛĮ
ÓĻ Ð¹
Ġa ch
Ġn at
Ñĸ Ñĩ
Ġ18 5
Ġent re
¶ Ģ
Ġ áŀĶ
Ġp ob
à§ «
ci o
ĠL and
Ûĩ ÙĨ
ens us
3 2
ĠÑģ Ñı
g n
Ġb it
or ia
ĠN i
ĠÐ» ÑĬ
ÛĪ Ø±
Ä Ŀ
ãģ ĭ
Ġáĭ Ī
Ġn ake
à¾ «
Ġna j
Ġes c
ilip inas
áı ĥ
Ò» Ð°
æĽ °
ì ļ
Ġa yns
Ġde i
à¤¤ à¤®
Å¯ m
ĠáĬ¥ áĬķ
L e
áŀ¶ âĢĭ
×ķ× ŀ
Ġfr om
é Ĺ
on y
ĠØ¬ Ø§
Ð²Ð» Óĵ
ç ·
Ð» ÑįÐ½
ĠÐ± Ð¾
Ġt ang
ĠJ a
ç º
Ġn Ã¡
Ġáİ ¨áıĴ
Ġch a
Å¡ a
ê ¸°
Ò¯ Ð¼
st er
ĠÙ¾ ÛĮ
Ġáī °
Ġfran c
Ġn ÃŃ
ĠS k
Ð± ÑĢ
ter a
áĢ Ĵ
à½² à¼į
Þ ¯
Ñģ Ðµ
Ġp ost
am s
à½ĳà½ĸ à½Ħ
Ġg j
ĠÐº Ð¾Ð´
à» Ĥ
Ó ±
Ñİ Ð½
Ġàª ²
ĠV en
Ġv or
ĠÎ ½
ĠÐ ĸ
ĠM ed
Ġà´ ĩ
Ġar a
ong a
Ð¸Ñĩ ÐµÑģÐº
Ġnake uh
ÐµÐ½ Ð°
Ġà¦ °
Ùħ Ø±
Ġà¨ Ĩ
Ġpr ed
Ġta e
å¹ ³
Ġg Ä§
Ñĩ Ðµ
Ġis s
áıį áıĽ
éĿ ¢
à¯į ,
Ø§ÙĦ ÛĮ
av e
Ġë §
Ġt ri
Ð°ÑĤ Ð¸
Ġì Ĺ
ogra f
am ba
Ġh in
ÐµÐ½ Ðµ
Ġs ed
st an
Ġáİ ¬
ãĤ Ĥ
áº ¥
Ġs hi
ĠB ur
ĠF o
Ð¾ÑĢ Ð¼
ä½ į
ĠØ¨ Ø¹Ø¯
k as
Ùģ Øª
éĢ ļ
ëı Ħ
ĠÃ Ħ
4 6
t l
ich a
éķ ·
Ġm ut
st o
ĠÐ¿ÑĢ ÐµÐ´
Ġ8 0
åĸ º
Ġà¶ ĩ
ÙĤ Ø§
ĠØ³ ÙĨ
in es
Ð°ÑĤ ÑĥÑĢ
ä» ĸ
is p
is se
ĠÐº Ó©
å° ±
ab e
ĠØ§ÙĦ Ø¨
3 3
ĠÕ ¿
à·Ĵ .
h l
ĠA ustr
Ġà² Ī
æľ Ģ
Ġkom p
res s
çĶ ±
áī¸ áĭį
Ġn eg
ĠÛ Ķ
à¸£ à¸²à¸
áĥĺáĥ Ļ
Äķ ÑĢ
Ġs ti
Ġr ed
ÑģÑĤ ÑĮ
ÏĦ Î±
à¥ ®
ĠÚ ķ
áĥĶáĥĳ áĥĺáĥ¡
Ġà¦ħ à¦¨
ĠÒ» ÓĻÐ¼
Ã ¯
in al
è· ¯
Ġ à½Ĥ
k om
Ġr u
ÑĢ Ð°Ð»
Ġà¬ Ĩ
az z
Ġ Öĩ
ĠR us
re y
j em
Ġà¤ ĵ
ĠG i
Ã¼ nd
Ġma o
nd r
ĠØ¯ ÙĪØ±
Ġà´ ļ
¡ à¼
Ġd ok
it et
àª ·
Ġc ur
à½ĸ à½ĳ
ĠØ¨ Ø§Ø´
Ã¢ u
ç ¤
Ð½ Ð°Ð»
Ġa ur
uk an
åħ ¨
Ġê ²
ì Ľ
à´ ¹
Ġà¤Ĩ à¤¹
éĩ į
4 2
Ġt em
ĠO s
à¾Ĺ à½ºà¼ĭ
ÑĢÐ¸ÑĤ Ð¾ÑĢ
å ¦
áĬ ¨
à¾² à½²à¼ĭ
Ð¸ÑĤ ÐµÑĤ
ĠÃ¦ Ð¼Ã¦
à¾· à¼ĭ
Ġà¬ Ń
ĠÐĲ Ð¼
n et
Ġt ok
ĠA k
Ñ Ľ
ĠÃ ¢
ĠÐ¸ ÑģÑĤ
Ù ¼
Ġáİ ª
Ġà¤Ĩ à¤¨
ë ©
ĠØ§ ÙĬ
Ë Ī
Ġc Ã³
Ġz iren
Õ¸ ÖĢ
Îµ Î¯
Ø® Ùĩ
ĠÑį ÑĤ
n am
Ñĭ ÑģÑĤ
ĠS ur
Ġt se
Ġm emb
Ġà² Ń
Øº Ùĩ
Ġáı¥ áıĦ
æĺ İ
Å ¥
Ġk las
ur d
y ar
Ġsu y
Ġáĥĵ áĥĿ
è¦ ģ
Ġt ag
Ġn ot
áº ½
åī į
Ġ Õ¡Õ
Ġd ol
Ø£ Ø±
ĠÒ ³
Ġs ÃŃ
Ñĸ Ðº
ĠJoh n
ĠÐ¸ Ð¹
ä¼ ļ
ÙĪ ÙĪ
ir an
ĠÐ± ÑĭÐ»
à° ·
à± Ĭ
åĽ Ľ
åĮ ĸ
Ġvi Ã°
Ġ =
Ġv ari
áİ ¨
ĠÕ £
d yr
w ang
Ġde v
ÐµÑģ ÑĮ
Ð¡ Ðł
Ġt it
à¦¼ à¥¤
Ġáı §
ĠÊ» o
ÑĭÐ³ ÑĬ
ĠØ§ÙĦ ÙĤ
Äĩ i
Ð¸Ñĺ Ð°
m m
Ġs un
ÑĭÐ½ Ð°Ð½
áĢ¾ áĢŃ
ur an
Ġun t
ĠØ¬ ÙĨ
Ġd re
ĠC an
Ð± ÑĥÑĢ
à¤ĩ à¤²
Ġ Æ
Ġn ing
Ġl im
Äĥ Ð½
åº ¦
Ñ Ļ
ÛĮ ÛĮ
ĠÐº Ð°ÑĤ
ĠP as
ap p
áĢ± áĢ«
Ð¸ Ðµ
Ġp el
áı ı
Ġi di
ĠA p
le x
Õ¡Õ ®
b al
ÑĢ Ñį
ĠÞ ĥ
4 3
s y
åħ ĥ
Ġk ut
ĠM or
à¤¨ à¤²
Ð¾Ð² ÐµÑĤ
hi ch
³ Û
æ ĵ
à¦¾ à¦Ĥ
Ġ199 1
Ġl am
Ñĸ Ð·
×Ļ× Ĳ
áŀĵ áŀĢ
Õ ¤
ĠØª Ûķ
å® ļ
à»Ģàº Ľ
es o
àº ¼
as y
Ġà¬ı à¬¹
h am
ÙĪ ÙĤ
æ ı
in da
Ġb or
Ã© ro
j al
à¦° à¦¹
Ġà° Ĩ
ÙĪØ± ÛĮ
h er
re z
Ġno h
Ġp ov
ap an
à¾² à½¼à¼ĭ
åĲ İ
Õ¸ÖĤÕ©Õµ Õ¸ÖĤÕ¶
Ð½ Ð³
ĠØ¯ ÙĦÙĩ
Ú© Ùĩ
åĬ ł
ir u
Ġs ich
Ġr Äģ
Ġw ak
èĥ ½
Ñĭ Ñı
ĠB i
ig u
Ø² Ùī
ÙĪÙĨ ÛĮ
ĠÙĩ ÙĨ
ì Ļ
ĠM u
e x
el m
Ã¢ l
end i
it or
Ġw erd
ation s
Ġ198 0
Ġl Ã©
ĠP al
Ø¨ Ùĩ
Ã¼ t
Ã¦ Ð¼
Ġn ad
Ġv um
Ġe p
Ġpro gr
Õ¥ Õ¶
Ïĥ Î·
ĠÙĥ Ø§ÙĨ
Õ¥Õ ¿
ĠÎ± ÏĢÏĮ
Ð» Ð¾
el y
áĪ ª
Ġna p
Ġà´ Ĩ
ĠD an
à½ħ à½ĵ
Ġ× ª
uk e
ìľ¼ ë¡ľ
c er
ÑĢ Ð¸Ð½
Ġs ob
Ġà¦ ĵ
ĠÐ±Ð°ÑģÑģÐµÐ¹ Ð½Ñĭ
4 1
Ġ ÓĢ
Ġà² ²
ien e
7 5
ic ip
Ġl ug
Ð± Ð°
Ġ201 6
Ø§Ø¯ ÛĮ
Ġà¦ı à¦ķ
æ ®
ĠÐº Ð¾ÑĤ
Ã¨ h
Ð°Ð³ ÑĮ
Ġt Äģ
od d
Ġà¤¸ à¤°
Ø§Ø¦ ÛĮ
éĸ ĭ
b ur
è £
us u
um u
ĠáĢ ĸ
ãĤ ¤
à¾Ĳ à½´à¼ĭ
on ia
Ġna f
ÑģÐº Ð¸Ð¹
Ð¸Ð» ÑĮ
à±ģ .
Ġáı Ħ
h n
Ġe c
Ñį ÑįÐ½
Ð³ Ð¸
ĠØ¨ ÙīØ±
Ñĸ Ñı
ĠX I
Ïģ Î¿
ĠÙĬ Ø§
w s
Ø³ Ø§ÙĨ
ÑģÑĤ Ð°Ð½
ud d
og u
åĲ Ī
r im
at es
åĽ ł
Ã¼r k
r em
Ð· Ðµ
Ñĩ Ñĭ
ĠÕ ©
Ð¾Ð¼ Ð¸
om s
ĠJ os
ĠG a
Ġsu yu
Ġat t
åı Ĭ
áĥĲáĥłáĥ Ĺ
ĠÏĦÎ· Î½
ngi Ã¨n
à¥ ©
Ġáı ĵ
åĪ ©
ä½ ¿
ĠÛ±Û ¹Û
à¥ «
Ġm Ã¡s
Ġo c
å» º
l ak
ol k
Ġ3 00
Ġl om
b it
Ġtah un
. "
d ÉĻ
Ú ı
Ġt im
ÙĦ Ø±
Ã´ n
áİ¦ áı
Ñį Ò»
ion es
ĠÎ ĳ
ĠÑı Ð½
ĠÙĥ ÛĲ
A ng
ĠB al
ĠáĢ ĳ
Ġ7 0
ãģ¦ ãģĦ
v is
Ú ¤
at en
Ã¨ re
ĠØª ÙĬ
áĮ ¥
Ġ×ĳ ×Ĳ
Ò³ Ð¾Ð¸
b ol
à¤¸ à¤®
Ġad minist
w el
ç ¸
à§ §à§
ul d
à¤² à¤®
áĭ ³
à¯ģ .
à¸Ļ à¸Ĺ
áĥ ¬
Ġt Ã©
àª ¬
ud u
à§ ©
Ġi p
ov er
em m
à³Ĩ à²Ĥ
Ġes p
Äĥ ng
Äĩ e
. :
ĠÙħ Ø³
Ġ199 8
ç ģ
à¦ Ļ
Ġs es
à° £
Ã¤ nd
mi ÅŁ
4 4
h y
Ġspe cies
Ø¯ ÙĬ
Å¡ u
ul ag
ug h
ez i
Ġha e
èĪ ĩ
åŁ İ
w y
t re
Ġd op
à§ ¬
Ã³ s
Ù Ģ
è ¼
Ġast ero
Ġx e
ĠK an
ĠâĢ Ŀ
Ì¤ -
j ed
æ ĥ
Ġm y
Å¾ i
ĠÐļ ÑĬ
à§¦ à§¦
o ol
Ġp in
ĠW est
ĠÂ »
à¸Ľ à¸£à¸°
ÛķÙĪ Ûķ
Ġh ann
Ð°Ð½ Ð¸Ñı
Ġà¦¸ à¦®
Ð Ń
Ġn un
Ġh Ã¨
Ġi Ã§
Ä± na
ĠK iba
ÐµÑĢ Ð³
o on
Ġ à½ĺ
Ġs w
Ġg al
ÑĮ Ñħ
ay s
ĠÑĢ Ðµ
Úĸ ÙĬ
at ar
ĠÙħ Ø¬
×Ļ× ĵ
Ġar y
Ġd im
ak una
Ð¸Ð¹ Ð³
Ø¨ ÛĮ
m on
r am
Ġd est
à· Ĥ
Å« s
ing en
l im
Ġb ek
r al
an ia
Ð² Ð¾ÑĢ
Ú¯ Ùĩ
×¢ ×ľ
Ġà¤ħ à¤Ń
es c
×Ļ× ĳ
à§° à¦¤
Ã¬ ng
ĠAfr ika
¡ Ù
à¥ ¬
ad t
Øª ÙĬ
Ġj isk
ne y
ÓĻ ÑĤ
ÑģÐº Ð¾Ð¹
n in
×ķ× ¡
à¨¿ à©°
ĠA f
à½ĳ à½Ģ
áŀŁ áŀĺ
à¾¡ à½´
Ġà¦ «
Ġdi b
ĠÐ½ Ð°ÑĢ
az a
à¥ ª
Ġd ans
am ar
ÃŃ m
ÑıÐ½ ÑĮ
Ġk ing
à¤ķ à¤²
×ĳ ×¨
t Ã«
eg en
ĠÙĨ ÙĪÚº
Ġpers on
à¬ Ĥ
ĠN ov
ÑĭÐ½ Ñĭ
ĠØ³ Ø§ÙĨ
un an
Ġc m
ĠP ir
Ġàª ĸ
Ġz v
ter i
ĠÑĪ Ðº
à½Ļ à½ĺ
æ² »
Ġs it
ĠØ ¶
ĠIn tern
ÑĥÑĤ ÑĤ
Ġ196 0
Ø§Ú »
ĠÑĤ Ò¯
Ú© Ú¾
Å¡ i
á»į n
ĠÑĤÐµÑĢ ÑĢÐ¸ÑĤÐ¾ÑĢ
ĠP ort
ent s
Ãł i
Ġà¦ľ à¦¨
st it
à¥ģ à¥¤
9 5
Ġs Ã¨
Ġb ez
Ġpr z
Ġwa ar
éĩ Į
è ī
Ġo le
ÑĮ Ñı
ĠÚ ī
ĠI r
ï¼ Ľ
ĠÐ¿ÑĢ Ð°Ð²
ÑĪ Ó¹
ci Ã³
à¶± à¶º
Ø§Ø± Ø¯
à´¨ à´¤
ĠY ork
Ñĥ Ñİ
Ġh istor
yn da
Ø¤ ÙĨ
u je
å Ĥ
à° §
ĠM art
Ġme i
æĲ Ń
ik al
ÃŃ k
å¸ Ŀ
Ġgen er
ĠÙ »
Ñĩ ÐµÐ½
ë ħ
à¸ ©
ĠM ag
ÑĪ Ð°
ĠC or
ĠØ¨ ÛĮØ±
ëĵ ¤
g es
ĠÐ± ÐµÐ»
å° ĩ
Ä± nd
ÃŃ g
çī ¹
h in
ÑĤ ÑĢ
áĥĺáĥ Ŀ
Åı h
Ġsup er
r ia
Ì Ĥ
Ð¸ ÑĨÐ¸
ig en
ĠÞ Ĳ
Ġl ag
áĥĺáĥ ¢
Ġ ;
ar u
g l
ĠÙĤ ÙīÙĦÙī
u ti
Ķ áıħ
Ã³ m
sk o
ni h
Ġ áŁĶ
Ġdi al
ĠF or
íķ ´
Ġ197 0
ÉĻ l
ament o
ĠM ac
Ã¤ ng
ig an
ud o
Ġund er
Ò¯Ò¯ Ð»
Ġà¦ª à¦°
àºĽ àº°
áĥĺáĥ Ľ
iv er
el er
ĠØ§ ÙĪÙĦ
Ñĸ Ð¹
Îµ ÏĤ
Ġà§ °
ĠÊ» a
àº· à»Ī
ç¾ İ
Ġc á»§
ĠK al
ĠH an
Ì Ĩ
Ġp ak
ĠÐł ÐµÑģÐ¿ÑĥÐ±Ð»Ð¸Ðº
à¾Ĳ à¾±
Ð¾ Ñŀ
Ġz i
à¤® à¤¨
Ġcon c
as o
Ġfam ili
à¨ §
ta v
Õ¡ Öģ
Ð°Ðº ÑĬ
áĥ£áĥł áĥĺ
áĥĲáĥ ª
ĠÐ¼ Ð°ÑĤ
ĠZ e
Ġ×ķ ×ķ×¢
ĠK om
Ġ18 0
Ġcá»§ a
) :
Ùī Ø³Ùī
Ġm ens
àª ĵ
as c
ag iti
op p
ãĥ ©
Ð°ÑĨ Ð¸Ñı
à¸ŀ à¸£à¸°
ÙĤ Øª
Î¿ Î»
Ġgen us
n j
Ġ áŀĸ
ĠÙĨ ÙĪÙħ
Øµ Ø±
ĠI II
áĭ Ī
Ġk ien
áĪ °
ĠÐ¸ Ñİ
er ia
Ġme in
ÑĬ ÑĢ
åħ ±
f ik
n im
ĠR om
st ru
Ġ199 2
ĠÐ±Ð°ÑģÑģÐµÐ¹ Ð½
ĠÑģ Ð¼
ĠÐ± Ð»Ð°
ĠÐ¿ Ð¾Ñģ
äº Ķ
ust ri
up e
% ,
Ġs at
Ġp ass
Ġv en
Ġg Ã¶
ĠÙħ Ø§
Ò» Ð°Ð½
Î ¾
am at
ĠCh ar
Åį ng
Ġà»ģ àº¥àº°
j ek
Ġj an
Ä± lÄ±
ung a
ïº İ
ÐµÐ½Ð¸ Ðµ
å£ «
s in
al ista
Ġpr om
Ġáİł áıĵ
Ġs j
Ïİ Î½
Ġf ak
Ġ194 5
ê³ ¼
y na
is mo
Ġ( "
ĠÚ ģ
à½Ĥ à½ĳ
áĪ ī
ãģ Ļ
r n
Ġt id
un di
Ø§Ø±ÛĮ Ø®
e ch
à´ ľ
Ġáĥ ¥
Ð°Ð¼ Ð¸
k et
æ ©
Ġs as
ìĹĲ ìĦľ
ÈĽ i
ÙĦ ÛķØ±
Ġz w
à²° à²¤
ÑģÑĤÐ² Ð¾
un u
ĠK u
Ġáĥ ®
áĥĶáĥ Ŀ
Ð°Ðº ÑĤ
ĠÐ¶ Ð°Ð½Ð°
éĸ ĵ
S a
or y
Ġo ut
à¤° à¤¯
à¤¸ à¤¨
ÉĻ t
áĥ£áĥ ľ
g ol
r om
Ó ¯
ell o
it ti
Ã§ on
ist er
Ûĩ Ù¾
Îµ ÏĦ
Ð» ÐµÑĢ
Ġb ot
Ð°ÑĢ Ð¸
áĥĺáĥ £áĥ
áıį áıĵ
pe cies
ĠJ ac
und o
çĻ ¼
Ġn is
Ġl laq
am er
Ùħ Ø¹
8 5
ĠFran k
ÑĤ Ð¾Ð½
Ġt in
il ay
à¥Ģ .
ĠÕ «
ÑĢ ÐµÐ¼
Ð¸Ð¼ Ð°ÑĤ
" )
d Ä±
ÑĢ Ð°Ð·
Ġs Ã¶
Ġi h
Ð°Ð» Ð´Ð°
à¤µ à¤²
Ġu ut
ĠÕ ¢
ĠÐĲ Ð·
Ġq ab
ĠT u
Ġbul an
Ð Ĺ
Ġ &
à½ĸ à½¤
ÄĹ j
un k
ou v
ba a
b all
Ġà¬ Ĺ
×ķ× ¤
ÛĮ Ø¯
Ġv ed
Ð¾ÑĢ Ð¸
áĥ ŀ
Ð¾ ÑĦ
Ġk es
ĠÐ³ ÑĬ
ÐµÐ´ ÐµÑĢ
Ð» Ð°Ñģ
ah n
áī Ģ
Ú¯ ÛķÙĨ
ĠÐº ÐµÐ»
ĠÕ º
å¤ ª
ĠD isi
ĠN ord
àµ Ĭ
ta b
à¤® à¤ķ
á» ģ
Ġdag iti
Ġw h
Ð°Ð¹ Ð½
ers ch
Ġfor ma
å° ı
Ġáĥ¬ áĥĲáĥľ
Ġnoh anga
à¦ ł
à§ ®
Ġc el
ĠÐ¿ ÑĭÑĢ
ac a
Ġà ³
Ġg ad
à§ Į
ĠB en
à¸Ĥ à¸Ńà¸ĩ
Ġpro t
áį į
è¨ Ģ
Ġch h
Å¾ e
ä½ ¢
Ġ ï»
Ġc amp
Ġáĥ ¢
×Ļ× ¡
iv o
çĽ ¸
Ã©ro id
ĠÐº Ð¾Ñĺ
ic s
Ġ×ĵ ×¢×¨
Ġb ed
ĠL ond
Ð¾Ð½ Ð³
áĬ Ľ
ĠÃº t
ĠáĪ Ī
Ġb ik
il ik
im m
ĠB ro
Ġen e
Ġa ma
Ðº Ð¸Ð½
Ø´ ÙĨ
à¤· à¤£
n ia
ģ áģ
Øª Ûķ
×Ļ× Ĵ
åħ ī
Ġà¶ļ à¶»
l ed
ÑĢ Ð¾Ð½
Ð» Óĵ
Ġf at
Ñį Ð±
à¤¯ à¤¸
Ãª s
ist o
ĠØ¢ ÙĨ
on an
im u
Ä± p
ĠR ob
Ġà° ľ
áī ħ
à²µ à²¨
áĥ¨ áĥĺ
u te
Ã© ra
ĠØ¨ ÙĦ
à¥¦ à¥¦
Ġst ad
æľ Ŀ
9 9
à¾Ĺ à½º
al la
at ed
Ġde ur
ĠP or
ÑĪ Ñĭ
ĠÐ² ÐµÑĢ
Õ¡Õ ¬
ĠØª Ø§Ø±ÛĮØ®
Ġà¤§ à¤°
ãģķ ãĤĮ
ĠØ¨ ÙĬ
à¤¦ à¤°
å¤ ĸ
Ġn en
ÙĪ Ú©
Ġast Ã©roid
ĠE v
ĠØ§ÙĦ Ø¬
Äĥ m
ier t
èª ŀ
ulag way
Ġd om
Ġw Äģ
Ê» i
Ġà¨ķ à¨°
Ġs ul
Ġs Ã³
ÑĤ Ð°ÑĤ
Ñĥ ÑĥÐ½
ĠÙĨ Ø§Ùħ
Ġ199 4
Ġ×Ķ×Ĳ ×ĺ
Ġr us
Ð² Ð°Ð¹
Ñı Ð·
Ġa j
à³ ¦
ent es
Ġar g
Ã² l
S t
a e
Ð» Ñİ
is ion
Ġg ore
ĠM il
ĠØ¯ ÙĬ
à¦¨ à¦°
æŃ ¤
à¹Ħ à¸Ķ
w r
ĠM ay
iv i
ne i
àº± à»ī
Î ¶
Ġk ok
Ġc er
ĠB as
ĠH ol
Ġu b
Ð½Ð° Ñı
n is
Þ ĸ
Ġsa i
àº²àº §
Ġim port
Ġ9 0
e i
ar ch
Ä± Ã±
Ġà¤® à¤§
Ġdep art
ĠÃ ¹
ĠÐ³ Ð°Ð·
Ð¾Ð´ Ð°
ĠÚ¯ ÙĦ
áĢ Ĥ
Ġb ang
yn y
âĢĿ .
ĠAmer ika
re k
ÐµÑģÑĤ Ð²
8 8
ar g
ĠÃ ĸ
Ø§Ø± Øª
ĠØ§ÙĦ Ø³
Ġì ĭ
ung s
å® ī
Ġp ort
id os
áĥĲáĥ ¥
áĥĶáĥ ĵ
Ġwa a
ÙĦÙī Ùĥ
Ġà¦¬ à¦°
Ġs Ãº
Ä± w
ÛĨ Ø±
Ø§Ú µ
el li
Ġà² ļ
Ġà²® à²¤
Ġin te
ÑĪ Ðµ
ÑĭÐ» Ñĭ
åĬ Ľ
Ġd Ã¶
Ġk op
à¤° à¤¹
à½Ĥ à½Ħ
ĠØ¨ ÛĲ
Ġun u
áİ¾ áı
agh t
áĢ Ł
Ġb ha
Ġë ĭ
w at
Ġà¤ ł
Ġt Äĵ
àº ĸ
it he
ad em
á» Ľ
Ó§ Ð¼
Ñļ Ðµ
Ġ Ð°Ð¿
ol ah
ĠÑģ Ð°Ð¼
Ñģ Ñĭ
à§ Ń
ĠÙħ Ø´
Ġ×Ĳ ×ķ×Ļ×
Ġ×¤ ×Ĳ×¨
c om
g y
Ġal g
Ġà¨ĩ à¨¸
Ġde f
Ñı Ð¹
ĠÐŀ ÑĢ
ĠÐ³Ð¾Ð´ Ð¸Ð½Ð°
Ġ×¢ ×ľ
Ġd or
Ġà¤Ń à¤¨
ĠÅ Ľ
v ers
en cia
à¸ ĺ
ia u
Ð¸Ð» Ð°
Ġter rit
j oni
ìĭ ľ
Ġà¦ ĸ
Ġgr and
áĥĺ áĥĲáĥľ
ok s
Ġ3 6
ÑĥÐ» Ð°
Ġwat akuna
re a
Ã¥ n
ĠÐł Ð¾ÑģÑģ
£ ¼
Ĳ ĺ
ÑĤ Ó¥
à½ĸ à½ı
Ð¶ Ðµ
Æ°á» £
Ġj ach
ĠK ab
Ġàª¹ àª¤
° áİµ
Ġs ie
Ġg es
ĠÙħ Ûĩ
Ġà° ¤
ow y
Ð¸ÑĤ ÑĮ
ç ±
ĠØ °
áŀ ¡
Ãª ng
à¤ª à¤¤
ow e
all y
ĠÅ Ħ
Ð°Ð½Ð´ Ñĭ
Ġà¦ı à¦ĩ
ĠM ont
Ú¯ ÛĮ
ÄŃ ng
ar te
àº ¶
ĠÐ± Ñĭ
b ay
Ð¾ ÑĨ
Ġt sh
ir m
em es
Ġan c
Ã¢ ng
å· ¥
à¨ ħ
ãĥ Ī
ĠØ ¤
Ġp asa
Ġb and
Ġo Ê»
Ġe y
ĠØ¨ ÙīÙĦ
ÐµÐ¼ Ð°
àºģ àº²àºĻàº
à½Ĥà½ŀ à½ĵ
Ġd ins
in te
Ġb id
Ð´ Ð°ÑĢ
Ðº Ð¾Ð½
ek tr
Ġ199 3
l j
Ġv Ã¤
áı Į
ĠM at
ĠÐ± Ð¸
Ã³ g
Ã§ Ã£o
7 6
er ne
it en
Ġf Ã¼r
×Ļ×Ļ× ł
Ġm w
Ġm ÄĽ
Ġk ant
Ġc entr
Ġr ap
ĠA y
æľ Ł
d om
à½ §
Ġa ug
Ø¯ Ùħ
ak k
ĠA ug
Ñı Ð²
à¤¸ à¤°
Ð°ÑĤ Ñĭ
çĦ ¡
l ab
Ð½ Ð¾Ð¼
ĠO p
Ġis ang
ĠP e
Ð°Ð» ÑĭÐº
ĠØ¦ ÛĮ
Ġg ew
ad Ä±
Ã½ ar
áº §
Ġap r
b b
i Ã°
l is
Ø³ Ø§
áĪ ³
ob o
è¡ ¨
v es
Ŀ i
ĠØ¨ Ø§Ø±
×¢ ×Ŀ
Ġvo or
Æ ¡
ĠC al
Ġres p
ĠÐ¹ÑĭÐ» ÒĵÐ°
Õ ¬
Ð°Ð» Ð°Ð¹
áĥĺ áĥĲ
Ġko ji
w al
Ġm ur
Ġb ay
ĠM ad
Ġan ti
Ġà° ļ
ĠÕ ½
Ð²ÑĢ Ð¾Ð¿
b at
ë ³
à´ ¥
ĠÙħ Ø§ÙĨ
ent u
ĠV ir
ĠÊ» oku
in ne
at ura
à¨ ĩ
Ġg inh
Ġi ÅŁ
Ġ199 7
Ġà²® à²²
à³į âĢį
ĠÑĪ ÑĤÐ¾
è ¬
Ġs ang
eb ru
Î· Î½
ÑĥÐ³ Ð°
d y
on na
Ġf ur
ĠS en
ĠU r
ĠÄ Į
Ð°Ðº Ñģ
à½ħ à½ĳ
ĠL ib
Ġar m
Ø¬ Ø§
Ġma is
Ð°Ð· Ð°
5 5
à¬ ĸ
ed ik
ĠG ro
ÛĮÙĨ Ú¯
Ġx o
àº» à»ī
l eg
¸ Û
Ġa uf
ne j
à½Ĳ à½ĺà½¦
áĢ¯áĢ¶ áĢ¸
Õ ¢
Ġs id
à¸ į
à´ ¬
it ate
Ġz um
Ø² Ùĩ
áĮ ł
Î» Î»
ë į
Ġb ana
à´ ´
à¬ Ĩ
Ø¯ Ø§ÙĨ
ĠÐ¿ Ð°ÑĢ
Ġna z
ri ed
Ð¸Ð½ ÑĮ
æ º
ë ŀ
Ġh y
Ã² n
9 6
Ù Ķ
Ġda i
ĠÕ ¤
ib en
Äĥ ÑĢ
Ġnah il
ar in
Ġl og
à© ľ
Ġka o
alak ip
Û į
ec e
ĠÐŀ Ð±
l ay
Ġv Ãµ
ĠØ¬ Ø§ÙĨ
ÑĥÐ½ Ð°
9 8
ĠS tr
os o
ĠØ§ ÙĪÙĨ
isch en
Ġaf o
Åı ng
çĦ ¶
r Ã¡
ing e
ĠW ik
ĠáĢ Ĩ
ÑĥÐ½ Ð´
áĢ¼ áĢ±áĢ¬
ï¯ ©
Õ £
Ù ł
on te
Ġl is
ĠA ir
áĥĶáĥ ļáĥĺ
ĠÙĨ Ø¸
ra c
à¤¡ à¤²
en za
Ġf yr
ÑĢ Ñĭ
Ġt w
Ġt et
Ġk ons
Ġà° ²
æĭ ī
Ġnahil alakip
b as
Ġd j
Ò¯ ÑĤ
Ġng on
Ġk uma
à° ¥
Ð² Ð°Ð»
Ã© u
ĠD em
Ø§Ø¯ Ùĩ
àºª àº°
à½ĺà½Ľ à½ĳ
ÑĢ Ðµ
ĠA w
ÙĤ ÙĦ
Ġà¥ §
Ġà¤ħ à¤¤
ĠÙĦ ÙĦ
à´ķ à´³
æĿ ¥
ar is
Ġáĥ ķ
ĠØ³ Ø¨
Ð¾Ð² Ð¸
éģ İ
ìŀ Ĳ
k ol
Ġ áŀŁ
Ġn ui
Ġb iy
ãĥ ª
æ± Ł
Ġà´İ à´¨
ëĤ ĺ
ĠwÄģ hi
Ġm Ã¼
it ed
Õ¡Õ £
Ġit u
Ġm ir
Ġà¬ ¯
èĭ ±
á¸ į
on de
à¤¤ à¤ķ
ĠT er
Õ« Öģ
Øµ ÙĦ
ÑįÑħ ÑĬ
à¹Ģ à¸£
Ġb ie
it l
ĠÃ į
est er
Ġer u
æŃ £
) ØĮ
el es
ØŃ Ø¯
àºĻàº Ĺ
ĠÐ¹ Ð¸Ñģ
ag an
à¤µ à¤¯
Ġmun icip
ÑĤÐ¸Ð½ ÐµÐ½ÑĤ
ik in
Ð¾Ð½ Ð°
áī ±
Ġastero id
te k
Ñħ ÑĥÐ·
ĠÐ¼ ÓĻ
Ġà¤¸ à¤ķ
ĠAn t
Ûİ Ú©
h et
ch d
ÐµÐ½ Ð¸Ñı
Õ¸ ÖĢÕ
Ġfo i
on ne
Ġk it
ÙĦ Ûķ
Ġh Ã¤
ĠÙħ Ø¦ÙĨ
Äģ m
Ġal bum
åį Ģ
Ġê ³
p et
Ġv it
Ñį Ð¿
any e
Ġ Ð°Ð³
Ð» ÑĭÐº
Ġk em
at al
Ġb ur
ra in
ah o
Ã¹ n
Ã¹ ng
ÙĪ Ø´
ĠÎ ·
à¦· à¦°à¦¤
am in
ĠÚ ı
uk s
bo chi
an c
an na
áŀ º
on da
Ġf ut
Ã¢ r
Ġd ob
ĠM os
Ġà¨ Ń
ĠJ e
Ġ +
à½ ¨
Ġm and
ĠE x
Ġì ĺ
Ġ199 5
ĠØ§Øª ÛĴ
ĠÐºÐ» Ð¸Ð¼Ð°ÑĤ
áĥ ª
ĠØ§ Ù¾
Ġ5 00
Î¯ Î½
un c
Ñı Ð´
áŀļáŀĶ áŀŁ
Ġp ul
el u
ĠÑģ Ð¾Ð½
ri j
ĠØª Ø¹
è ĳ
eg u
ĠØ´ Ø±
Ġcom un
Ġso ci
Ġs Ã²
ĠØ¨ ÛĨ
Ġun ivers
wa i
Ø§Ø¦ ÙĬ
Ġpro c
ĠNg wag
ÛĮ Ùħ
ĠP i
v ol
Ġk ot
Ġf und
Ġest as
ä¾ Ĩ
Ġngwageng k
è ´
à§ §
Ùħ ÙĬ
ĠD ist
ri p
Ġà¬ ¶
ĠÐ¼ Ñĥ
ny m
Ġprin cip
Ġk ub
ow s
Ġ×ķ ×ķ×Ĳ
Ġ à½ģ
un o
ĠS er
Ãł l
Ã¦ s
Ġ196 2
f at
è Ĥ
ÑĤ ÑĭÑĢ
Ġb ut
uk t
á» ±
æŀ Ĺ
à¦ī à¦¨
en k
ĠÐº ÑĥÑĢ
ab o
ÑģÐº Ð°Ð¹
Óĵ Ð»
M ar
an z
Ġt eng
ch n
Ġv il
ĠÐĲ Ð½
ĠØ¹ ÙĦ
Ġus ka
Ġ $
Ġp Ã¶s
Â ¬
Ġn ek
ĠÐ´ ÐµÐ¿
ĠÚ© Ûģ
Ġà¤ħ à¤ª
ast illa
Ġfr ug
in ter
ÑĤ Ã¦
Ġn Ã©
à¾ Ń
ĠC l
Ð¾Ð½ Ð¸
ĠÃ¤bin on
Ġf ev
à³ģ ,
ĠO b
Ê» u
âĢĿ ,
Ø±ÛĮ Ú©
ĠpÃ¶s od
Ġ Å«
ar am
Ġn al
ag g
Ð¹ Ð»
ãĤ ¯
201 0
Ġà°ī à°¨
Ġunt uk
9 7
y in
å¥ ½
Ġ×¦ ×ķ
i ent
ed o
n es
à¸ ľ
ir in
ĠA v
ĠÐ¿ Ð¾Ð²
Ã´ t
Î½ ÏĦ
Ġà¹ģ à¸¥à¸°
Ġlom ane
Ġg ur
ĠÎ £
åĭ ķ
à¾Ļ à½²
ĠbÃ¤ld oti
Ġlifay elas
Ġà¤ Ŀ
Ġp ur
Ñĸ ÑĹ
ĠØ§ÙĦ ÙĨ
l t
Ãº s
Ġ×Ĳ ×ª
ond o
Ð¾Ðº ÑĪ
Ð°Ð»ÑĬ ÑĥÐ»
Ġd ay
Ġl it
Ġà¦ Ľ
iz z
×¤ ×¨
Ġ áŀĺ
Ð½ Ð¸Ð¹
ÙĪ Ø§ÙĨ
àª Ń
Ġr iv
ĠÎ ľ
à»į à»Ī
Ġàªı àªķ
l ie
Ġ Ð°ÑĪ
Ð¾ Ðµ
ĠÑ Ķ
Ġi de
á» ĥ
Ġà¦ª à§°
Ġsub s
Ġk ia
ĠÙ Ĳ
Ó§ ÑĢ
ÙĨÚ Į
as ar
ch en
à¯ Ģ
ĠÑģ Ð¾Ð»
ĠD av
ĠÑİ Ð¼
Ġginh ulagway
il ia
Ġw is
à¤¨ à¤®
Ġz en
ĠG ra
Ġa le
il s
Ġr ay
Ø³ Ûķ
ÐµÑĢ Ð¸Ðº
op a
Ġáĭ ĵ
ãģ£ ãģŁ
ĠÑıÐ½ Ð²Ð°ÑĢ
in ing
à¦ ŀ
Ã¶r d
af t
Ġreg ion
ç ł
ÏĮ ÏĦ
a qa
p art
ÑĤ ÑĭÐ½
à§ ¯
ĠÐº Ð°Ðº
ĠK i
ap o
ĠÑħ ÑĮ
Ã¥ r
ÑĨÐ¸ Ñĺ
Ġb az
éĽ »
ç į
à¥ Ń
ĠU m
Ð¸ÑĢ Ð¸
Å¯ w
ç ³
Ġt amb
ĠP at
ĠÑĤ Ñĥ
Ã¼ ÅŁ
àª® àª¨
os tr
Ð°Ð´ Ð¸
Ã½ Ã¤r
ãģĹ ãģŁ
Ġs ik
il er
Ä± k
à²¯ à²¨
n om
Ġm ad
ÙĨ Øª
Ġh im
ĠÐº ÑĭÐ»
ĠD u
áĭ ¨
d ar
Ġm ab
ĠD es
à½£ à½ĺ
Ġáĥł áĥĶ
I l
ĠØ§ ÛĮÙĦ
à© Į
Ġáĥ ª
le c
Ġng Äģ
à®µ à®°
ĠÐ¾Ðº ÑĢÑĥÐ³
ê² Į
ç ®
áŀ Ĩ
Ġh am
ĠD er
ĠK h
Ø§ÙĦ ÙĬ
áĥĿáĥ ĵ
à¤Ł à¤ķ
ea e
Ħ ì
ak at
Ġà¨ «
Ø§ÙĨ ÙĪ
ing i
à¾Ķ à¼ĭ
ch it
or u
æ ģ
à¸ ł
Ġo ll
and u
Î± Ïģ
ij o
Ġà¸ ŀ
Ġan u
Ġà¤ª à¤¨
áĭ ĭ
Ç «
Ġt om
à¤¤ à¤²
ĠÑģ ÐµÐ¼
Ġu f
ĠÐ¾ Ð·
Îº Îµ
Õ Ŀ
Ġv id
Ġi da
Ġáİ §
Ġà¤ķ à¤¥
ib i
ĠÐ· Ð°Ð¼
äº ¤
Î¹Îº Î®
7 8
um m
ÙĨÙĩ ÙĨ
éĩ ĳ
ĠÑģ Ð¸ÑģÑĤ
ĠL os
ub e
lar y
ĠÐºÐ¾Ð½ ÑĤÐ¸Ð½ÐµÐ½ÑĤ
ĠNgwag ak
Ùī Ø±Ùī
ĠÎ ļ
ĠÑĢ Ð¾Ðº
c ol
Ø¨ ÙĦ
áĬ «
ĠáĪ µ
ĠÐ±Ð¾Ð» Ð³
Ġ195 0
Ġcont ra
æ¼ Ķ
an ce
Ġn og
and er
ĠÐ¸ Ñģ
à´Ļ à´³
å§ ĭ
ÙĪ Ûķ
à° ¹
Ġu bochi
ĠÐ´ Ð¾ÑĢ
à²° à²£
ĠÑĪ Ñĥ
Ġum a
Õ¥Õ ½
q an
Ġn ar
Ã© ho
×ķ ×Ļ
omin ina
Ġáİ¨áıĴ áİ¢
9 2
en y
el ik
Ġc ul
ta h
ĠÙĩ Ø³ØªÙĩ
Ġcom e
à¸Ń à¸Ļ
Ġà§ «
Ġgod ine
Ġà¦ĩ à¦²
à½Ĥ à½Ļ
ĠÙĩ Ø±
Ð¸ÑĢ Ð°
Ġd ha
Ð´ Ð¼
Ñĸ Ð½Ñĸ
Ġàº ģ
Ġà·ĥ à¶¸
ĠÃ¾ Ç£
à¤ļ à¤¨
å Ħ
Ġn it
Ġv ia
Ġdi ff
ig g
ĠG en
áĥĶáĥ ¢
ÑĤ Ð°Ð»
Ġm Ã©
à´ Ń
em at
Ð¾Ñģ ÑĮ
% )
Ġ ÑįÐ½
Ġt hi
Ðº ÑĢÐ°
em u
ÓĻ Ðº
åĭ Ĵ
Ġf Ã¶r
à½ĺ à½Ĥ
ĠÐ´ Ðµ
åħ µ
n ie
áı Ł
áŁ ¡
ab in
ĠØª Ú¾
Ġà¤¤ à¤ķ
p end
Ġw hich
us k
áĥĺáĥ ª
ÐµÐ» Ðµ
Ã´ i
Ġil i
Ġà¤¯ à¤¹
o a
s er
et u
Ġr ek
ĠâĢ ĭ
Ê¼ Äħ
áº¡ i
Ġs á¹³
Ġp ad
Ġm oo
is u
Ð¾Ð³ ÑĢÐ°ÑĦ
ÐµÑģ Ñģ
j adi
v ir
Ø¨ Ø§Ø±
ep h
ĠÔ ±
åİ Ł
6 8
à¦ «
à¸ ĵ
ĠØ¯ ÛĲ
ĠÑħ ÑĬ
Ã² un
ĠÙĤ Ø±
Ûİ Øª
Ð ķ
el k
ÙĪ Ø§
ic as
ĠN ap
ĠÎ ł
Ùģ ÙĬ
Ġà¤ı à¤µ
Ġs ag
Ġw ier
iz e
ĠÙ¾ ÙĪ
r ÃŃ
al ch
à¬ ¼
Ðº Ñĭ
ov o
ĠÐ· Ð°Ð¿
yn yÅĪ
Ġve ur
ĠÃ¶ z
Ġà¤ĩ à¤¸
ĠbÃ¤ld ot
ĠÐº ÐµÑĢ
ĠÑĤ Ó©ÑĢ
ĠÐ¸ Ðº
ä¹ Ŀ
Ø¯Ùī ÙĥÙī
i ja
Ġs ind
Ġl in
Ġb ev
ent er
ĠU k
Ġ198 9
Ò¯Ò¯ Ð´
Ġs Ä«
à¨ ¥
Ġi ki
ĠÑģ ÐµÑĢ
àŃ Ĥ
ac ion
n it
Ġm j
st en
Ġal le
ÑįÑĢ Ñį
áĢ¾ áĢ¬
à½ĸà½ħ à½¦
an as
ind ÉĻ
à¸Ħ à¸£
à¹ĥ à¸«
k hi
Ð¾ Ñİ
al y
ch er
ĠÐ¼ Ð°Ð»
áŀĦ áŀĢ
Ġsh ek
à»Ħ àºĶ
d r
ë °
ÑĤ Ð°Ð¹
Ġl ik
à´ ŀ
et ta
ang o
ĠT or
×Ļ× Ł
ÑĨ Ðµ
ÙĪØ± Ø¯
Ġka ominina
ĠÙħØŃ ÙħØ¯
Ġà¶ĩ à¶Ń
em o
ãģĤ ãĤĭ
Ùĩ Ùħ
iv u
à¸Ń à¸¢
n ÄĽ
un de
Ġc ant
áĥĲáĥ ĸ
ĠÐ¼ ÑĥÐ·
b il
w Äģ
æ ¢
is ka
Ġà¨ ļ
ĠÐ² ÑĭÐ»
Ġ3 2
ÑįÑĢ Ð³
hen ua
Ġà¥¨ à¥¦à¥
à½ĺ à½ł
ÑĭÑĪ ÑĤÐµ
ar b
Ġl s
Ġc it
Ġh ini
ah r
Ú© Ø±
Ã§ Ã§
Ġq Ã«
à«Ģ ,
ĠÎ½ Î±
ìĻ Ģ
ol t
id ir
re v
Ġch o
ÑģÐº Ð°Ñı
à¸Ń à¸ģ
Ġà¤ī à¤¦
j at
k n
ĠØ§ Ø¹
ĠØ§ ÛĮØ±
Ġà¶ ī
ani i
asa un
Ġbil en
u el
áĥĺáĥ ļáĥĺ
ãĤ ¢
ĠÅ ¼
Õ¸ÖĤÕ©Õµ Õ¡Õ¶
èµ ·
ÑħÑĥÐ· Ð°ÑħÑĮ
g eb
m ann
Øª ÙĨ
Ġr ak
id an
ĠØ§ÙĦ Ùĥ
oc a
Ġbe i
é £
Ī ĺ
al ity
et r
Ġr ob
áİ ¯áİ
ĠÐ² Ð¸Ð´
Äĵ ng
Ġad d
ult ura
é ¢
us ta
im in
ap t
Ġam er
à¶Ń à¶»
à¹Ģà¸ Ķ
Ġà¦ı à¦¬
Ġg Ã¶r
áĪ Ĩ
ÑģÑĤ Ð¸ÑĤ
ri v
à» ľ
áĥĿáĥ ķ
Ġ×Ĳ ×ľ
Ġwe er
land s
Ø´Øª Ùĩ
à¥ĩ ,
à¤¶ à¤¨
ï¼ī ï¼Į
ĠÐºÐ¾Ð¼ Ð¿
åİ »
n og
w in
Ġ3 8
ÐµÐ´ Ð¸
Ġà¤Ĩ à¤¦
ny ch
æ¬ ¡
èĻ Ł
k r
ĠÚ© Ø¦
×ķ× Ŀ
ãĤ Ī
ÓĻ Ñģ
Ûĩ ÙĤ
Äį k
ä¼ Ĭ
ç¶ ĵ
Ġp ut
Ñĸ Ð»
ÐµÑĢ Ð¼Ð°Ð½
ok an
ĠV a
Ġof f
×Ļ×Ļ× Ł
' '
6 7
h Äģ
Ö ¸
Ñģ ÑĭÐ½
Ġin to
ul an
Ġs yn
ĠJ u
à¤Ĺ à¤²
áĭ ļ
Ð¸Ð» Ð»
Ġon t
Ġl ist
Ñĭ Ðµ
Ġw id
Ġin n
Ð¸Ð½ Ð¸ÑģÑĤ
ĠV i
Ó© Ð¼
Ġë ĮĢ
Ġbo Ê»
Ġfo ar
åĴ Ĺ
Ġa ast
à¤° à¤Ń
Ġna ch
áĥĶáĥ ķ
Ð¾Ð² Ð°Ð½
Ġcon tr
Ġàº ª
ĠInd ia
ÐµÐ½Ð´ ÓĻ
Ġà®İ à®©
Ġv y
id s
ĠB or
ÐµÑĢ Ð°Ð½
Ġre f
Ġ×ĳ ×ŀ
Ġkad agiti
ĠK as
à¤¸ à¤Ń
sk u
ĠÐļ ÑĢ
Ġek onom
Ġod er
æ° ´
ĠÐ´ Ð·
Ú© ÙĬ
Ġà° ¬
à¦¨ à§°
ĠØ¨ÙīÙĦ ÛķÙĨ
t li
y Ãª
as ion
ad es
Ã© es
ĠÐ¿ Ð°ÑĤ
ĠÑħ Ð°ÑĢ
Ġl ong
Ġb os
Øª Ùħ
Ġj ndr
ĠL es
åħ ĭ
Ïĥ Îµ
Ġop er
æĶ ¹
á»Ļ t
Ġole h
k il
æ ·
à² ĸ
Ñı Ð±ÑĢ
à¤ª à¤®
Ġáİł áıĤ
Ð¡ Ð¡Ðł
is sa
à¬ Ľ
à¬ ł
Ġc chi
ĠK at
ĠÚ© Ùħ
Ġ3 7
Õ¸Õ ²
à½ĸà½Ļ à½ĵ
N E
n je
Û ²
Ġt ou
Ñģ Ð¾Ð½
ÙĦ Ùģ
äº ¬
ÑĢ Ð°Ð´
Ġp Ã¤
Ġh and
Ġà¶ Ĩ
ij u
ĠÓ© Ð»
ĠPar is
ÑĢ Ð¸Ðº
Ġk Ã©
Ġb ok
et y
Ñį ÑĪ
ĠS ant
ãģ ¾
Ġà´ Ĵ
Î¹ Î¿
ĠÛĮ Ùĩ
ĠÐ±Ð¾Ð» Ð¾Ð½
ĠÚ¾ Ûķ
z z
as u
Ġv eg
Ġr en
ang i
ra h
la c
ĠÐ³ Ð°ÑĢ
ann ya
ĠGer man
is o
ĠÐº Ð°Ð½
à¤Ĺ à¤¤
ip i
ĠÙ¾ Ø§Ø±
Ġit ali
g b
n ar
Ð¼ Ð°ÑĤ
ĠM el
ÑĬ ÑıÑģ
Ú© ÙĦ
Ø Ľ
í ĸ
ti f
à¨° à¨¤
æĽ ¸
c ul
Ġt lh
à¤¯ à¤¯
ĠÚ© Úĵ
à½ ±
Ġt Åį
ĠM ak
ÐµÑĢ Ð°
áĥĶáĥĳ áĥĲ
l ish
s el
é ©
Ġt l
Ġm am
ĠS m
ĠS w
eb ut
Ġdo or
ä» »
à¨¼ à¨¾
ro t
ab an
¤ áİµ
Ð §
ÙĨ ÛĴ
ĠC ha
Ġu u
ĠØ³ Ø±Ùĩ
h at
ç ²
Ġn atur
ĠØ§ Ø¨
à¤¯ à¤°
Ġà¬ ļ
ib ot
Ã½ m
Ð°Ð½Ð³ Ð»
Ð¾ ÑģÐº
Ġk os
is an
ang g
×Ļ ×ķ
Ġì Ĥ¬
Å¾ en
Ġà¤ī à¤¨
Ġ Ð°Ñħ
ĠÑģ Ð°Ð»
ĠN eder
à½ĺ à½ĳ
ĠØª Øµ
ev er
Ġt ir
Ġm ok
ĠÑħ Ñĥ
Ġter m
ĠÓ© Ð·
ÑįÑħ ÑįÐ¼
éĺ ¿
Ġp on
Ġv ez
áŁ ı
ĠH u
Ġu ff
Ġà´ ī
×Ĳ ×ŀ
Ġon d
ĠØ¢ ÙĩÙĨ
aj u
m Ä±ÅŁ
à¤² à¤¬
Ã¼ s
Ġle b
Ġdes c
ĠÐ±Ñĥ Ð¾Ð»
Ġ×Ĵ×¢ ×ķ
Ġbag ian
i es
n ji
Ùħ Ûĩ
eb r
Ġni an
r ind
Ġd ens
Ġk Ã¤
ut en
à¤£ à¤¨
Ġë Ĥ
åº ľ
Ġdist rito
Ġg ant
ÙĬ Øº
ĠØ¨ ÙĪØ¯
à¶º à¶±
áŀĺ áŀĢ
Ġor ig
Ġà§§à§ ¯à§
è ¢
Ġ ill
ĠÙ ¡Ù
à¤² à¤¨
Ġà¶ ¢
ĠÄ ĵ
ali f
åŁ º
x o
Ġs ira
Ñģ ÐµÐ½
ĠP an
ri ek
ĠØª ØŃ
j is
æ Ł
Ø± Ùħ
Ġv r
Ġg ol
ĠM et
Ġà´ ľ
ib li
b or
ra a
Ġà¤¬ à¤¹
Ðļ ÑħÑĥÐ·Ð°ÑħÑĮ
Ġlab ing
Ġsuy upi
Ġe pi
em en
ĠÑħ Ð°
×¨ ×ĳ
Ġà¬ª à¬°
Ġtaki wÄģ
D ie
å Ŀ
Ġd ak
Ġs he
id ente
ãģ Ĩ
ri o
Äģ k
áİ¾ áİ¢
è» Ĭ
è ½
Ġh or
ĠT ha
àŃ ¦
àºĤ àºŃàºĩ
ĠØ¨ Ø§Ø²
Õ¸ Õ¶
Ġkom un
6 4
å ¢
Ð½ Ð°ÑĢ
or ge
à¤° à¤¨
Ġi ku
ĠÐ´ Ð»Ñı
ÙĤ ÙĬ
ÑģÐº Ð¾Ð³Ð¾
Ã° a
at z
ĠÃ ¸
Ġr oman
Ú© ÙĪ
Ġch Ã¬
Ã¦ Ð´
Ø§Ùħ ÙĦ
gan iz
Ð½ Ð°ÑĤÐ°
Ġs il
Ġs ci
Ñģ ÑįÐ½
Ġk Ã²
Ġf el
ro v
ĠT ar
ers te
ÑĦ ÑĤ
8 9
d al
Ġa ve
Ġp ÅĽ
Ġb est
Ġb iz
Ø³ ÙĨ
Ð°ÑĤ Ð¾ÑĢ
Ã± u
h ol
à¥ §à¥
Ġp ic
à³ ĥ
ĠM er
ĠL or
Ãº ng
åħ Ń
ĠØ® Ø§ÙĨ
ãģĻ ãĤĭ
ÙĤ Ø§ÙĨ
áĥĶáĥ ¨
ĠØ§ÙĦ Ø¯
Ñĳ Ð½
ĠÐ³ÑĢ ÑĥÐ¿
Ġp ir
ÑģÐº Ñĸ
à¤Ł à¤¨
ĠÙ¿ ÙĬ
ëħ Ħ
ÃŃg ÃŃÃŃ
áĥĲáĥ Ĵ
Ã¼ d
ÙĤ ÛĮ
Ġis h
Ġab it
ĠCom p
N a
à³į ,
19 0
ÑįÑĢ ÑįÐ³
Ġpar l
á¹ Ń
æĦ ı
Ġp Ãª
Ġm os
Äģ r
ãĥ ĥ
åı Ī
àºŃ àºģ
Î¼ Î±
×Ļ×Ļ× Ŀ
Ġáİ¢ áı³
á¸ ¥
æ ħ
ab u
ap it
Ġà¤¶ à¤¹à¤°
is en
os to
Ġdi pl
áĪ ©
Ġtemp er
åł ´
m ed
Ġn os
ĠB an
Ð°Ð» Ð»
ind en
ĠÑı Ð·
Ġva an
p ol
ĠÙħ Ø®
Ø¦ ÙĦ
ĠÑĩ Ð°ÑģÑĤ
Ġà¨¹ à¨¨
Æ°á»£ c
al am
ĠC i
ĠÐ¼ ÐµÑĤ
Ø§ÙĦ Øª
Ø² Ø§Ø±
áıį áıĻáıĹ
Ġ198 8
ea u
å¿ ĥ
a ut
k ur
Ġr est
Ġà¦ ¡
Ġy ar
ĠÊ» e
à¸Ķ à¸¢
áĥĺáĥ łáĥ
ich te
Ġà¤¯ à¤¸
Ġà²ª à²°
Ġê µ
ĠX X
à¾Ķ à½¼
c ta
Ġt um
Ġn im
Ð°Ð½ Ð´Ð°
ĠÑĤ Ò¯ÑĢ
ĠÐ´ Ñĭ
ÛĮÙĨ Ùĩ
Ø§Øª ÛĮ
Ġà¤Ĩ à¤°
ĠÏĥ Ïħ
Ġsubs pecies
al ÃŃ
Ġy on
ĠÑĪ Ð¸Ð¹Ð»Ð°
ĠÃ± iq
v ed
áĥ ¦
Ø§ Ú¯
Ð´ ÐµÑĢ
Ġc z
áĪ ¥
ot u
ÙĪØ± Øª
Ġ15 0
à½ĸà½Ł à½Ħ
5 6
à¸ ĭ
Ġw ay
Ø³ Ø±
Ġpal ibot
al in
ik s
ĠN u
ĠÙĨ Ûģ
ĠØ´ ÙĬ
Ġno ho
zi un
áį Ī
à¦ľ à¦¨
ĠWar ay
Ġm Ã«
à¶ ³
Ã¡ ra
Ã¢ m
ĠW illi
ec k
Ġdel la
Ġq a
Ò³ Ð¸
Ġáİ¢ áİ¦
ĠEurop a
at us
or f
à¨ Ń
ĠÃ ŀ
áĥĲáĥ Ļ
ĠG reg
à³Ĩ ,
ä¹ ĥ
ĠÐ° ÑĮÑħ
ç ¯
Ġr in
om m
ĠÐ¿ Ð°Ð´
Ġà¤¸ à¤¹
ÄĽ t
ä½ Ĩ
à½ĺà½ļ à½ĵ
ï¼ļ ãĢĮ
n as
Ġd oc
Ġk up
Ġf re
à²¤ à²°
ac k
Ġ4 4
à¾Ĵà¾± à½´à¼ĭ
Ġ iri
Ġo lar
Ġo cc
om at
Ùħ Ø§Ø±
ĠØ§ Ùģ
ĠÐº Ð¸ÑĢ
ĠØ¯ Ø§Ø±
Ġà¤ķ à¤®
à½Ĥ à½Ł
Ġse u
op o
uk o
à¦ĩ à¦²
ÐºÑĬ Ð°
os p
Ùī ØªÙī
Ġáĭ «
p on
ĠÐ½ Ð°Ð·
à¬ķ à¬°
Ä±r Ä±m
æĢ §
ë ĮĢ
Ġt as
Ġo tr
ul le
ab le
th er
áĥĶáĥĳ áĥĺ
æ¸ ¯
Ġnak alista
Ð» ÐµÐº
is on
ĠE t
Ġwur de
i ha
Ġ Ö
Ø§Ø ¶
áĢ± áĢ·
Ø£ ÙĨ
uh an
ãģĹ ãģ¦
Ġt ap
áŀļ áŀĳ
Ġì ľ
åħ «
Ġcom m
å ¡
ar ak
ĠÐĶ Ð¶
ĠÑıÐ½Ð²Ð°ÑĢ ÑĮ
am as
ĠB l
Ġàª ¥
Ġhav e
ìĺ Ģ
Ġy r
à½Ĥ à½¡
ĠÐ¿ Ð¾ÑĤ
od u
ĠH en
ÛĮÙĨ Ø¯Ùĩ
Î» Î·
200 7
A m
Ø§ Ú¾
Ġg eme
ĠÐ´ ÐµÐº
ud ad
Äĥ Ñħ
Ġkat ika
ĠÐ¸Ñİ Ð»ÑĮ
it r
Ñħ Ñį
ĠF in
çķ Į
Ġrah aa
ĠÚħ Ø®Ùĩ
Ġcchi Ã¹
9 1
Ġf ol
åı £
ĠÙĬ ÙĪ
Óĵ ÑĪ
å¦ Ĥ
M a
ì Ĥ¬
Ġd Ã³Ã³
Ġn orm
Ġl Ã¶
at ta
Ñħ ÑĬ
he id
ĠØ´ ÙĪ
×ĺ ×¢×¨
ĠUnivers ity
6 6
Ñĸ ÑģÑĤ
Ã« m
à²¿ ,
Ð¾Ð² Ð¸Ñĩ
ba ch
Ġà¤¤ à¤°
ki i
oj n
ÙĨØ¯ ÙĪ
á»Ľ i
ĠÃ±iq in
Ġo h
ĠØ§ÙĦ Ø´
Ó¹ Ð¼
ĠØ§ÛĮ Ú©
j ÃŃ
Ġp Ã¤Ã¤
ĠÕ ¾
Ġta un
ĠÐĿ Ð°
Ġdis c
ĠÎµ ÏĢ
Ġm Ã¤
il u
Ġg ed
ĠR oma
Ø¬ ÙĪØ¯
áĮ £
Ġak ka
×© ×ł
Å¯ n
Ð°ÑģÑĤ Ð¾ÑĢ
Õ¶Õ¥ÖĢ Õ«
ë ¬
es han
ĠB ir
ĠÑģ ÑĭÐ»
ann an
Ġ194 0
I s
c el
ĠS el
Ñĩ Ð¸Ð½
ĠÏĦ Î¿Î½
I t
Ġ áŀĤ
Ġo ok
Ð³ Ñĥ
Ãł y
Ġab baa
ÄŁ Ä±
it sch
ot l
ri f
Ġu it
Ġáİ ¡
Ñİ ÑĤ
ĠÐ° ÑģÑĤ
ĠÃ¶ n
Ġa ti
Ġt á»
Ġg ir
ĠB ak
ĠØ³ ÙĨØ¯
ĠØ¹ ÙĨ
åĳ ½
é ¤
Ġp eng
Ġk ada
ÙĦ Ùĥ
Ġc Ã¢
je v
ĠÄ Ĳ
à¸²à¸ §
à²¯ à²²
Ø§Ùħ ÛĮ
p es
en se
Ġp ublic
Ġde pi
ul ui
ut er
áŀļ áŀĢ
Ġ197 5
ë ¶Ģ
Ġl iv
Ġh el
ĠR os
Ġà´ °
ĠÙĨ Ø§ÙĦ
Ð¾Ð³ Ð°
amb o
Ñħ Ð¾Ð»
ĠÐ¿ Ð°
Ġà¤¸ à¤¬
ĠÐ¾ ÑĪ
ib e
ĠÄĳ Æ°á»£c
ÑĢ Ð°Ð²
al en
Ġv iv
ĠP op
ĠÅ ģ
Ð½Ð¸ Ñħ
Ġ198 6
æ¥ Ń
à¦ ı
Ġm ara
Ġo ba
Ã¤ k
ing ton
Ġel s
Ġit s
Ð¸Ð¼ Ð¸
Ġtr as
àº° àºĻ
à¦¸ à¦®
ÑĭÑĪ ÑĤÑĭ
Ġfev r
ĠÑĤ Ð¾ÑĢ
Äģ t
à½ģ à½Ħ
à²Ĺà²³ à²¨
in is
à¤¤ à¤¨
ĠØ¨ Ø¯
Ø¨ Ø§ÙĨ
ÑģÑĤ Ð²Ð°
ĠØ³ ÙĦ
Ġsa c
ĠJ an
Ġpro bl
ĠMar ia
ĠÐ³Ð¾Ð´ Ð°
1 00
5 8
Ðº Ð°Ð·
áŁ ł
Ġà° ĩ
áŀļ áŀĦ
Ġje ung
à¸£ à¸¡
åĪ ¶
Ġ Ïĩ
à´ ¡
Ġy an
ow er
Ê» e
áģ ı
ĠáĪ ²
×Ĵ ×¢
Ġpl us
à¾¡ à½ºà¼ĭ
Ġ×¢ ×¨
m ak
à¤ ĵ
à¼ ¡à¼
Ð² Ðµ
ĠÐ± ÑĥÑĤÑĤ
Ġu ga
ĠÞ į
Ã¦ ÑģÑĤ
Ïī ÏĤ
ĠÐ´Ð¶ ÑĭÐ»
7 4
Ġs iy
Ġk v
Ġl ah
à¤¿ à¥¤
ĠÐ¼ ÐµÐ´
las h
ĠáĥĲáĥ łáĥ
Ġprod uc
ĠÓĢ Ð°
Ġd Ã¤
Ġt Ã¤
Ġh ay
ĠÃ ľ
ĠS am
ĠB ul
Ã¨ m
ist en
eb e
Ã§ ion
Ġsu cc
nd er
ÙĨØ¯ ÛĮ
Ġà¦ı à¦¹
åĮ º
ek u
ĠÐ½ Ð°Ñģ
ÅŁ a
ma a
×ĵ ×¢×¨
er in
ro w
ĠK iben
ĠÄ ¯
Ø¬ ÙĬ
Ġil e
Ġfevr ye
è ı
Ġst ol
Ø² ÙĬ
ĠØ¦ Ø§ÙĦ
à±ģ ,
éĢ ²
Ä¼ u
å ²
à¬ ģ
ĠS ar
ĠC er
ĠÐ± ÑĥÐ´
ĠK ur
Ġà¤ķ à¤²
ÅĤ ow
Ð¸Ð· Ð¼
æķ ¸
l Ã©
Ġ <
Ġn w
Ġr em
Ġz oi
Ġseb agai
k astilla
s an
Ġáĥ ļ
ĠØ³ ÙĬ
Ġcon d
×ĺ ×Ł
åı ²
éĻ ¢
Ú Ĭ
Ġd aga
Ġo ld
ĠS ol
ag on
ab b
ĠÙĦ ÙĪ
Ġfr am
Ġ198 2
al it
Ġl id
us o
ĠR oman
ĠÂ ·
I ng
y ah
in um
Ġt Ã¡
Ġh Ã¶
ic os
ĠE k
up akan
à»Ģàº Ĺ
esi es
çı ¾
6 2
T A
ĠØ§ Ø¦
Ð°ÑĤ Ð°ÑĢ
ĠÐ½ ÐµÐ³
ĠÎ ¤
ĠV ol
àª° àª¤
Ġà¤ĩ à¤¨
áŁħ âĢĭ
Åº e
åĵ ¡
ì ¡
ĠÐº Ð½Ð¸
ĠÑĤ Ó¹
200 1
ĠInd ones
Ġd hi
Ġn Äĥm
ad ar
ĠM ah
Ġà¬ ī
Ó§ ÑĤ
å· ´
ĠAc Ã¨h
D i
Ġs Ã¬
Ġh ev
Ġv egn
Ġà¨ ĸ
ay n
ĠF er
ĠØª Ùħ
lar da
Ġper t
5 4
í ĥ
Ñģ Ð¾
um o
ĠÑģ Ð°Ð½
ĠØ¬ ÛĮ
Ġà¥ «
åı ¸
Ġab o
Ġmar c
ĠÐ¹ Ð¾Ð²ÑħÐ°
Ä±s Ä±
ÑĢ ÐµÐ´
à¥į à¥¤
un ta
Ġi ma
ĠT s
ĠÐ³ Ð¾Ð»
Ġd ru
Ð°ÑĢ Ñĥ
Ñı Ð»ÑĮ
le in
ĠØ§ÙĦ Ø±
ĠÐĳ ÐµÐ»
Ġ193 0
ĠPa ul
Ġling ua
ĠØ «
ĠS ta
ĠØ³ Ùħ
ĠØ³ ÙĨÚĮ
ĠÐ¾ Ð½Ð´
yn n
åħ Ī
Ð½Ð° Ñĩ
j Äħ
s l
İ áī½
à·Ģ à¶Ń
uv o
Ġpat edik
Ġsist em
éŁ ³
Ð¼ ÐµÑĤ
Ġà¦ ĺ
ik ato
ĠB os
ĠØ¦ ÙĪ
ĠØ² Ùħ
ÙħÛĮ Ø´
Ġinc l
at ive
ĠØ§ Ø¯
Ùī ÙĨÙī
Ð°Ð¹ Ð´
à¼į à¼į
Ġà¤² à¤Ĺ
Ġadminist rat
Ûķ Ùĥ
ĠE g
ĠÐ¾ Ð¿
×ķ× ¦
und u
à¬ĩ à¬¥
ãĥ³ ãĥ
S A
i u
ë ¦
er u
ab il
Ã¶ t
åĲ ĳ
ĠÑĸ Ð½
é¦ ĸ
Ġe o
sk im
ÙĪÙĦ ÙĪ
à¹Ģà¸ ģ
k on
è Ĭ
Ġf ig
áĪ ®
ĠJ es
ÑģÐº Ðµ
Ġak o
d in
ç Ŀ
Ġ áŀĳ
Ñĭ Ñī
ĠS av
ak h
ĠÙħ Ø¯
ĠÐ½ ÑįÐ³
Ġes se
ï» ª
er te
Ġa la
Ġk re
al as
et en
Ġc iv
ĠS eg
Ø¨ Ø§Ø¯
ĠÎ ķ
ĠÑį Ð·
Ġdiv ers
et an
ad y
ĠG l
Ġà¬ ²
ĠÐ² Ð°Ð»
à²° à²ķ
ĠØ³ ÛķØ±
Ø¬ ÛĮ
7 2
l ari
è İ
Ġn ed
ĠÐ· Ð°Ð²
ĠÑĢ Ð°Ñģ
å° Ķ
æī ĭ
å» £
Ġart ik
Ġáĭ¨áĪ ļ
áº¥ t
er de
Ġp es
Ð´ Ñĸ
Ġc in
Ã© ta
ĠC ast
Ð¿ Ð°
ĠF ilipinas
ÐµÐ» Ð¸
ĠÃ¾ e
à±Ģ .
Û°Û ±Û
an ne
en ne
Ġm ik
Ġb w
Ġr as
ro g
ri bu
ĠØ§ÙĦ Ø¥
à©ģ à©±
N A
S O
Ġl iter
Ġh om
Ð°ÑĤ ÐµÐ»ÑĮ
Ġà´ ¬
×Ļ×Ļ× ĺ
Ġáĥł áĥĿáĥĽ
å½ ±
Ġáı¥áıĦ áıįáıĹ
9 4
æ Ĵ
am h
ĠS on
Ġw ere
äº ¦
å® Ĺ
Äĩ a
ĠÃ± u
nos ti
z ia
ì ĥ
Ġn ia
Ð½Ð¾ Ðµ
Ġeg y
' ,
7 1
k un
y at
Ġm á»Ļt
Ġde b
ist r
ĠÙĤ ÙīÙĦ
Ġmu z
à¸« à¸Ļ
Ġata wa
n ika
ĠA pr
Ñħ ÑįÐ¼
Å¡ ÃŃ
ĠÑĥ Ð¶
Ġ197 9
Ġem p
Ã¼ h
Ġà¤¸ à¤Ń
ãĤ ·
Ûİ ÙĨ
Ġ198 7
å¥ ³
Å ĵ
Ġt ran
à½ĵ à½ĺ
ĠÑħ Ð¾
áŀ¸ âĢĭ
ĠÐ¾Ð± Ð»Ð°
à»ĥ àº«
9 3
y c
ĠÙ ¹
is ip
ĠÐ¿ Ð¾ÑģÑĤ
Ø´ Ø§ÙĨ
ĠÎ ²
ĠÐ¸ ÑĤ
ÙĤ Ùĩ
Ġpr ime
äº İ
ĠÑı ÑĢ
à¸¢ à¸Ļ
ĠÐ°ÑĢ Ñħ
çķ ¶
an je
Ġa qu
Ġm g
al le
Ġl Ã¶d
Ġv l
ĠP res
ab r
Ġse z
Ġal so
Ð¸Ð¼ Ð°
áŀ» áŁĨ
Ð´Ñĭ Ò£
ëĵ ľ
ì ¹
ĠW il
Ñĳ Ð»
åĪ Ŀ
Ġáİ¾áİ ¥
Õ¡Õ ¼
á» ¯
Ġ4 8
Ġë ª
×ĺ ×¢
ÑĨÐ¸ Ð¾Ð½
w as
Õ º
à¥ §
Ġm h
al q
âĢ ¦
Ð² ÐµÐ´
ĠØª ÙĪÚº
Ġà¤ħ à¤ªà¤¨
åı ¤
Ø§Ø³ ÛĮ
Ġny an
âĢľ ,
Ġáģ ģáģ
y ri
è ±
Ð» ÐµÐ¼
ĠÐ± Ð¾Ð²ÑħÐ°
Ġë ı
åı Ĺ
Ó¹ Ð½
y ag
à§ ·
Ð¼ Ñĥ
áŁ Ī
Ġ19 20
Ġda v
iz o
ĠPir uw
ĠÐºÐ¾Ð½ÑĤÐ¸Ð½ÐµÐ½ÑĤ Ð°Ð½
alch aa
b le
Û ±Û
ar ti
el ij
Ġe qu
os c
ab or
Ð°ÑĤ ÑĢ
Ãł r
Ġ198 5
ĠÐŀ Ð»
ĠUS A
å ³
Ñģ Ð¸
Ñģ Ñį
Ġp og
Ġh eb
Ð¼ ÐµÐ½
ĠS ud
Ñı Ðº
Ġu a
å¼ ı
ĠÐ¼ÐµÐ½ ÐµÐ½
O r
Ġn yo
or ld
à¥Ģ à¥¤
ĠÐ¼ Ð¾Ð¶
Ġà® Ĵ
à´ķ àµ¾
ĠÛģ ÛĮÚº
ĠÐĵ ÑĮ
âĢľ .
% ),
y er
z d
Å ©
Ġd Ã»
Ġk ud
Ãł u
Ð¾Ð¼ Ñĥ
Ð¸Ñı ÑĤ
àºģ àº²àºĻ
å¸ ¸
çĽ ´
Ġìķ Ħ
Ġb ij
Ġy it
ĠD on
ÑģÑĤ Ð°Ð²
Ø§ÙĦ Ùħ
ac eae
ĠØ¢ Ø±
olog i
Õ¥ÖĢÕ ¨
à¾« à½¼
ç³ »
m it
Ã ī
Ð¾ Ð¾
ar on
ĠÐ´ Óĵ
uk i
Ġsa v
Ó© ÑĤ
ĠÑħ Ð°Ð»
à²¤ à²¦
ĠØ¢ ÙĦ
à¸ķ à¸£
ĠS up
us ti
ÑĬ Ð»
Ġst ate
Ġel ement
ĠIn ter
Ġdr ug
è¢ «
ĠÐº Ó©ÑĢ
Ġse i
ÅŁ i
ÐµÑĤ Ð°
ya a
à·Ģ à¶±
Ġà·ĥ à·Ħ
ìķ Ħ
é ¦¬
am en
à¤¯ à¤²
àŃ ĥ
Îµ Î½
àºŃ àºĻ
à¾Ĳ à½¼
å½ ĵ
Ġa a
al k
ĠP et
Ú© Ø§Ø±
Ø³Øª ÙĪÙĨ
ÛķÚ© Ø§ÙĨÛĮ
Ġrep res
v ÃŃ
Ġd Ã®
ed s
Ã¡ Ã¡
à½´ à¼į
ÐµÐ½ Ð¾
ĠÐ¾ Ð¹
Õ¡Õ º
Ġà¤¦ à¤°
à¾³ à½¼à¼ĭ
Ġà·Ģ à¶±
å¼ Ĺ
Ġdir ec
h as
æ ¡
à¤ Ŀ
Ġs ystem
ĠÐ¿ Ð¾Ñĩ
Äģ l
áŀĵ áŀĶ
ãĥ ¬
Ð¸ÑĤ ÐµÑĢ
à¹ģ à¸¥à¸°
q q
Ġt od
am il
Ġf ond
Ã© h
ic t
ĠÐ´ ÑĢÑĥÐ³
Ġà¸ ģ
n at
ĠØ§ ØªØ§
Ú© ÙĨ
à¹Ģà¸ Ĺ
Ġmil im
ÎŃ ÏĤ
x im
ĠB ay
ĠD et
ĠØ¯ Ø§ÙĨ
ĠÐ½ Ð°Ð¿
ĠÙĨ Ûķ
ĠÙĩ ÙĬ
ĠÛ² Û°Û±Û
ĠÐ® ÑħÐ°Ð½ÑĪÑĭÐ²
F ran
l oc
Ġc Ã¡c
ur as
ĠÐº ÓĢ
ĠD at
ĠÑĤ Ó©
ĠR uss
Ò¯ Ð½Ð´
Ùĥ ÛĪ
Ġmar k
f an
áı ļ
ra ch
eg g
à¤¸ à¤¯
Õ¡Õ ¦
Ø¹ Ùĩ
ij an
Ø· ÙĦ
ko et
. ).
Ġp ach
Ġk im
Ġk od
Ġc ode
Ġo Ã±
Ġg or
ĠØ¯ ÙĨ
×ķ× §
Ġà¤ª à¤¶
ÙĪØ± ÙĬ
ÑĦ ÐµÑĢ
ann o
ç« Ļ
åĨ Ľ
Ġmp Ã©
ar c
Ġm ant
ĠT en
ens is
ard o
ĠÒ» ÑĭÑĥ
7 7
Ġt onu
Ġo a
um s
ĠÑĤ ÐºÑĬÐ°
he y
áŀĻ áŀĢ
ÛĪ Ù¾
ÄŁ an
ĠÃ¼ Ã§
Ġl Ä«
Ġr ez
ĠS ay
Ø³ Ø¨
à²° à²¦
ĠØ´ Ùĩ
Ġpo ur
å° į
Ġ198 1
Ġà¤Ľ à¤²
à¾¤ à¾±à½²à¼ĭ
àº¹ à»Ī
w et
å ¨
Ġg ov
Ã¦ Ð»
æĹ¥ æľ¬
Î¸ Î·
Ġtel ev
åģ ļ
à¸£à¸²à¸ Ĭ
ãģ¦ãģĦ ãĤĭ
Ġn Ã¤
ig er
ĠG al
Ã« ng
à¦¨ à¦¤
Ġà¤¦ à¤ķ
sch d
6 3
6 9
Ĺ Ħ
Ġa ka
om et
à¶ ®
ro c
ĠÚ¯ Ø±
Ð³ÑĬ Ð°
y es
áĥ ĸ
à¬ ī
Ð¼ Ð¸
Ð² Ð¸
Ġj Ã®
à²¿ .
Ġst o
ÙĪÙĨ Ø¯
ĠØ¹ Ø§Ùħ
à¤ī à¤¨
6 1
ÑĪ Ð¸Ð¹Ð»Ð°
ĠÐ± ÑĢ
Ð¾Ð½ Ð½Ð°
ĠÑĥ ÑĪ
Ġ201 7
áĢ¾ áĢ¯
Ġorgan iz
ĠbÃ¤ldot Ã¼
ĠÐ°ÑĮÑħ ÐºÐ°
Ġs inn
Ġg as
à¤¨ à¤¯
ĠG h
ĠÐ½ Ð°Ð¹
Ġje h
Ġë ³
ÑįÐ½ ÑĮ
Ġà¤ļ à¤²
Õ¡Õµ Õ«Õ¶
ĠÕ¸ ÖĤ
Ġp il
Ġk us
Ġde fin
Õ¡Õ °
ĠÐļ Ð°ÑĢ
Ġ197 8
Ġ194 1
áĢľ áĢĬ
ĠÐķ Ð²ÑĢÐ¾Ð¿
val ora
Ð» Ð°Ð³
à° ³
Ġv Ã½
ur y
Ø³ ÙĪ
ĠD ip
ĠL ou
ok rat
áĭ ²
ä» Ĭ
Ġ197 3
ĠÕ¥ Õ¶
Ġnis qa
Ġ×ķ×ķ×Ĳ ×¡
T a
Û µ
à½¢ à½ĸ
ah u
à¦° à¦¸
Ú¯ Ø§Ùĩ
Ġà¤ħ à¤®
Ã¬ a
Ð´ Ñį
Ñĸ Ð»Ñĸ
ĠÐ¼ Ð°Ð¹
Ġse pt
áĥĶáĥ Ĵ
Ġ198 4
áĥĲáĥ¨ áĥĺ
×ķ×ł ×Ĵ
Ġmez valora
ç¤ ¾
à¤¿ ,
ed je
Ġy Ä±l
Ã¡ p
Ñĸ Ð»ÑĮ
×ķ× ©
áĥĿáĥ Ĵ
Ġ6 4
ach t
ĠØ£ ÙĨ
o x
Ġt res
al Ä±
Ġg ob
ĠK ir
à½ł à½ļ
å¤ «
Ġ197 7
ÑĭÐ³ Ð°ÑĢ
Ġev ante
Ġinf orm
on ta
Ðº ÐµÑĢ
ĠN ob
ÑĬ Ñı
ĠÐ½ Ð¾Ð¼
Ú© Øª
ale y
Ġ197 4
Ġ197 6
à¸¹ à¹ī
æ© Ł
Ò «
é Ń
Ġo ku
ha ir
áŀļ áŀŁ
Ùİ Ùĳ
àº§ àºĩ
Û° Û°
ĠSan ta
i ed
Ġ ÑĭÐ»
Ġst an
ij n
à²¯ à²µ
áĢ» áĢŃáĢ¯áĢ¸
ĠÐĺ Ð½
à¤Ľ à¤¨
Ġ194 4
æ² ³
b ert
es an
id at
ĠÑĤ Ð°Ð»
ĠF a
ÑĭÐ½ Ð´
Ġà¥ ©
Ġba i
amp a
æĪ ĸ
ĸ º
Ġd w
Ġs ent
Ġa ff
Ġm aka
Ġn Ãº
Ġpi Ã¹
ĠÑĥÑĩ Ð°ÑģÑĤ
s ur
à¤ ½
ĠÐ Ĩ
en da
Ġn da
Ġg Ã¢
áı ²
Ġáĥ ©
Ãª t
Ġel ektr
Ġà¤ľà¤¨ à¤¸
æ¸ ħ
Ð» Ó§Ð½
Ġn ev
ĠÑģ ÑĬ
Ġz em
Ġz yn
ÛĮÙĨ Ø¯Ø§
ĠÛĮ Ú©
ÛķÚ© Ø§ÙĨ
áŁ į
á» ©
ung an
Ġni Ã¨ng
ĠAr th
Ø« Ø±
ÄŃ k
Ġáİ¾áİ ¿
8 3
c ional
Ġ áŀ
ÑĤ Ð¸Ðº
Ġa da
Ġm ov
Ġk ah
ĠØ§ Ø®
ĠÐ· Ð°Ðº
yn d
Ġ×ľ ×Ķ
Ġkilom etro
Ġd um
Ġt ul
Ġr aj
à¤µ à¤ķ
Ð¸ÑĤ Ð¸
Ê¼ Ã©
êµ Ń
à½ĸà½Ģ à½ł
r Ã©
w orth
Ġt eg
áĥļ áĥĺáĥ¡
ĠáĮ į
ĠØ¥ ÙĦÙī
l og
Ġk ep
à¨ «
Ġà² ¯
Ãª u
Ãª da
Ġst ar
ĠØ® ÙĪØ¯
Ġ197 1
Ġsist ema
Ġ( *
iy Ãª
ĠU l
Ð´Ð° Ð°
Ġ197 2
Ġmat eri
Ð°Ð½Ñĭ Ò£
Ġ190 4
Ġmilim etro
. -
w ed
Ø§ Ûģ
er an
Ġp Ã³
Ġp li
áı Ĭ
ik as
ĠÚ ļ
Ð¿ Ðµ
à½ł à½Ĩ
Ġà¬ ¥
Ùĥ Ûķ
Ġad olah
> >
a ÅĤ
f ord
Å ĭ
Ġg he
Ġ19 18
ung e
à°¾ à°Ĥ
ĠÐŁ ÐµÑĢ
à¹Ģà¸ ¡
Ġ×ľ ×Ĳ
t y
Ġt ol
Ġg et
ur in
Ġr y
àµ Ī
áĭ Ĭ
Ð¾Ð¼ Ð°
ke un
ĠØ§ÙĨ Øª
Ġmer upakan
ĠáĬĲ áĭį
ĠIntern ational
l Ã®
n h
z b
Ġb ad
eg ov
ĠR ad
st and
ez e
emp er
Ð²ÐµÑĢ Ñģ
5 3
en c
ĠB re
ĠØ³ Ø§Ø²
ĠFran c
ĠÐ¤ ÑĢÐ°Ð½
æł ¡
§ àŃ
Ġ Õ¡Õ¶
Ġm om
is hi
Ġde k
ĠM od
ĠØ¨ ÛķØ±
ĠW o
ĠO t
áĥĺáĥ¡ áĥ¢
à¤ĩ à¤¨
Ø§ÙĤ Ø¹
ĠÃ¤bin ons
S i
Ġ Ó¹
Ġk Ä«
áĥĲáĥ ļáĥĺ
Ø§ÙĦ Ùĩ
lar Ä±n
áĮ ĭ
à¾¡ à½¼à¼ĭ
201 1
çĲ ĥ
n Ã¡
è į
àº £
Ġh Ã¤n
Ġe ar
ro pa
ĠÑĤ Ñı
ĠÚ© Ø´
ÑĨ Ñı
Ã¦ t
ĠO k
sk og
Ġsi Åıh
áĥ£áĥ łáĥ
ĠÑģÑĤ ÑĢ
ÑĪÑĤ Ó¹
7 3
Ġs ens
Ð´ Ñĥ
ent re
Ġà§ ©
Ä±nd an
j ad
z el
Ñį Ñī
áı ĺ
ĠS ept
os ti
Ġw ob
Ø¯ ÛĮØ±
ĠI V
Ġà¤ķ à¤°à¤¤
ĠÐ¾ Ð³
à½ĸà½¦ à½ĺ
aka u
ç§ ĳ
Ġd Ã¤n
áİ ·
Ġen c
Äģ ng
Ġ3 3
Ġth is
Ð¸Ñģ Ñģ
Ġ196 7
Ġà¦Ĩ à¦¸
à¸¶ à¹Ī
ĠXI X
K r
å ĥ
Ġs ir
Ġn ep
Ġb rit
à° Ń
ti d
ĠD is
qu i
à¬° à¬¤
ĠÙĩ Úª
aga uz
ĠÐ¨ ÐµÑĢÐ°Ð½
áĥĵ áĥĲ
çĪ ¾
áĥĶáĥ¤ áĥĺáĥ¨
Ú ³
Ġs unt
Ġj adi
Ð°ÑĤ ÑĭÐ½
×Ļ× ŀ
à¤Ĺ à¤³
Ġper o
ih u
×© ×¨
áŁī áŀ¶
en u
Ð½ Ð¸ÑĤÐµ
Ġc ara
ĠÑĤ ÐµÐ¼
ist as
ÛĪ ÙĨ
Ġing k
çĻ ¾
w yd
Ġv erd
ĠL ong
li o
Ãł m
ĠÐĲ Ð²
Ġre o
ori an
200 6
B S
l ÉĻr
í ĺ
ÑĤ Ñį
Ġl eki
ĠÑħ Ò¯Ð½
Ġà¤ħ à¤²
Ġpro b
ly k
Ġpre z
à¾¤ à¾±à½¼
æ ĩ
Ð½ Ð°Ð½
il an
Ġà¸ Ħ
Ð¾Ð½Ð³ Ð¾Ð»
áı ª
áı °
em ente
ag s
im an
ĠP Äģ
Ð± Ðµ
ÐµÑĢ Ðº
à¤¶ à¤ķ
ĠÙĤ Ø§Ø±
ÑĭÐ³ Ñĭ
ĠÑİ ÑħÐ°Ð½ÑĪÑĭÐ²
Ġhad ton
ĠIndones ia
Ù º
ar l
ĠØ§ ØŃ
Ġy oo
ĠR el
Ġà¶ ĭ
ĠÙĤ Ø§ÙĨ
amb i
æ¯ Ķ
ĠÐµÐ» Ð³Ð°
j t
Å ±
ar de
il and
Ġo st
Ġw ah
ĠÐº Ò¯
à¦¾ à¦ģ
ci ja
ip un
ãĢĤ ãĢį
Ġ3 4
Ð½Ñĭ Ðµ
Ġad am
sh tÃ«
ĠRob ert
j Ã³
m ÉĻ
ë Ł
ÑĤ ÑįÐ¹
Ġl ia
ĠÙħ ÙĬ
ot ta
ĠV e
Ð°Ð´ Ð·
ich i
Õ¥ Öģ
Ġàº Ħ
ĠÐ¾ÑĢ Ð³Ð°Ð½
O ku
w ata
Ġp Äĵ
ti ve
ĠD ev
ĠÐ½ Ð¾Ð²
ä¸ ĥ
à¤¹ à¤²
ĠPro vin
8 2
f en
er st
ÑĤ ÐµÐ½
ang ka
ĠÑģ ÑĥÑĢ
ut an
ant an
Äį en
ÑĭÑĢ Ð³
Ê¼ ÃŃ
ĠÒĽ Ò±
Ġllaq ta
d ah
Ľ àº°
Ġd ro
ĠP u
he im
ĠÐ´ Ð¾Ðº
ĠÐ°Ð· Ñĭ
ë© °
ĠØ§ÛĮØ± Ø§ÙĨ
. ),
L i
a an
f as
n ost
Ġa Ã±
Ð´ ÑĭÐ½
Ġh on
Ġe une
Ð² ÐµÑĤ
Ġy az
à¦¿ à¥¤
Î¹ ÏĤ
Ġ4 00
ĠÐĲ ÑĦ
ÙĪÙĦ Ø§Øª
ĠZ a
ĠÚĨ ÙĪ
Ġà²¬ à²°
ÑĨÐ¸ Ð¸
5 2
y Ã®
Ð½ Ð¾Ð³
Ġj uga
Ġáĥ ĸ
Ġàª ī
Ġá ¹
ĠJ er
æŃ »
Ġà®ĩ à®°
çŁ ¥
A s
h Ã¡
z k
z in
Ġn ab
Ġh un
Ġi c
ĠD el
ÃŃ o
áī ¶
sk ih
×ĳ ×Ł
5 00
Ġp ok
ÙĨ Ø§Ùħ
ĠT Ã¼rk
ĠÙħ Ùĩ
ĠÙħ Ø§Ø±
Ð¾Ð´ Ð·
Ġku ti
Ġser v
Ġnisqa qa
m es
Ġa tu
àº ľ
Ġb om
ad s
Ġr is
Äģ i
ĠÑħ Ð°Ð¼
×Ĳ ×¡
ĠCh r
Ġtr ong
ÙĨÚ Ī
Ġà «
Ġt ill
el se
Ġf it
ĠØ§ Ùĩ
Ð¾ÑĢ Ð¾Ð´
à¾Ĵ à¾²à½´
ÙĨØ¯ Ø§
áĥ£áĥ ¨
ÑĭÑĪ Ñĭ
ë§ Į
ÛĮÙĨÚ¯ ÛĮÙĦÛĮ
z es
Ð» Ð°ÑĪ
Ġf Ã©
ĠM en
ĠM ol
ĠK ong
Ã« l
ĠÎ ¸
op e
Ø² Ø±
áĥĿáĥ ¨
Õ¥Õ ²
Ġ193 9
áıįáı Ķáıħ
æł ¼
ÙĬØº ÛĩØ±
m ag
Ð¾ Ñı
Ġm ont
Ġh ak
à½Ĥ à½ĵà½Ħ
ĠÐ´ ÑĮ
ĠØª ÙĤ
ÏĦ Î·
ĠØ¬ ÙĨÚ¯
áĥĿáĥ ¤
Ġ196 9
Ø¯Ùī ØºØ§ÙĨ
Ġsv oj
Ã¡d Ã³Ã³
Ġ áŀ¢
Ġs ov
Ġj Ã¼
te g
æĹ ¶
×Ĺ ×¨
Õ«Õ ½
as sa
Ð¼ Ð°Ð½Ð³
ĠB ol
×Ļ× ¤
ib u
Å« n
ĠØ§ÙĪ Ûģ
ĠÛĮ ÙĪ
Ġà¤Ľ à¤¨
à¤¼ à¥Ģ
ĠAs ia
d abin
is me
Ġr um
ĠM i
Ġà¤ª à¤¦
ĠÐ¡ Ð¾Ð²ÐµÑĤ
à©Ģ à¥¤
rind ra
u ar
Ġ áŀĩ
et se
ĠS v
ĠC hi
Ð¾Ð½ Ñĭ
Ġng i
ĠJ ean
à½Ĥà½¦ à½£
end en
ala w
ĠØ¹ ÙĦÙĬ
ĠØ® ÙĦ
Ġm ac
Ġo z
Ð³ Ñĸ
Ġr ic
áİ ¨áıĴ
Ġà¦ §
re b
od h
ĠÐ² ÑĸÐ´
Ġà¤ª à¤¤
ĠO d
Ð°Ð¼ Ñĸ
are a
ÑįÒ» ÑįÐ½
] ,
è º
Ġin de
ti a
ĠÑģ Ð°Ð¹
Ø¦ ÛĴ
Ġë ĵ
ÙĨØ¯ Ø±
ĠÐĵ ÑĢ
à·ļ .
Ø´Øª ÛĮ
è¦ ĭ
à¤ķà¤° à¤£
ìł ģ
5 1
v y
Ñĭ Ð²Ð°
Ġh usi
ra y
ÃŃ l
ĠÚ© ÙĦ
ĠØ§ÙĦ ÙĦÙī
Ġ×Ĳ ×¨
Ġ194 8
f ar
q t
Ġj ul
ĠÐ± ÑĥÐ³
Ġz ap
ĠÙħ ÛĮÙĦ
Ġdel s
ĠáĪ Ľ
Ġ198 3
Ãłn h
ÑĥÐ»ÑĮ ÑĤÑĥÑĢ
5 7
c ie
o ta
r ag
v Ã¤
è Ĺ
Ġi w
áĪ ģ
Ùĥ ÙĨ
à¶» à¶¸
ĠAr t
Ġ196 5
Ġvo e
ske j
æŃ ¦
Ġpap ul
Ð»Ð°Ð¼ Ð°Ð½
èĲ ¬
ç· ļ
l ÉĻ
ad er
ak on
ĠÑĤ Ð°Ð±
áĥ£áĥ Ĺ
à¨¤ à¨°
ÑĥÑģ Ð¸Ñı
Ġ196 3
y ÅĦ
Ġb li
Ġe ine
ad da
ĠÐº Ð°Ð¼
ÛĮÙĨ Ø¯ÙĨ
ĠØ± Ø³
ĠCh rist
à²¸ à²²
åĲ Ħ
Ġgr ande
so ci
ĠFran ce
áĥĶáĥ¤ áĥĺ
T i
Ð´ Ð¸Ðº
ĠÑĤ Ð°Ð¼
ĠÑĢ Ð¾Ð·
åŃ Ĺ
Ġata u
Ġn ya
Ðº ÑħÐ¾Ð»
ĠA st
à¤¤ à¤µ
Ã¨ in
à¾Ĵ à½¼
Ð°Ð± Ð¾ÑĤ
Ġ196 6
æĪ °
Ġsig ni
Ġs ou
Ġm inn
Ġk az
Ġh ir
ĠÐ¿ Ð¾Ð·
ĠØ§ÙĦ Ùģ
ip e
Î¿ Ïģ
Ù¾ ÙĦ
Ġreg i
Ð¼Ð°Ð½Ð³ Ð°Ð»Ð°Ð½
ÐºÑħÐ¾Ð» Ð»Ð°Ð¼Ð°Ð½
h d
i Å¾
j Äģ
w are
Ġb isa
ĠÐ¿ Ð°Ð»
ĠÑĥ Ð½Ð¸
Ġno i
Ġcom mun
ell es
çļ ĩ
8 7
Ùī Ø²
ãģ ı
ip edia
Î± Î»
áŀĶ áŀĵ
ini Ã±
chi Ã¡
à¾Ĳ à¾±à½¼
à¾³ à½²
Ġind rindra
S ay
Ġm ell
ĠS il
ĠN am
Ġda e
Ã² m
Ġsu a
Ä« n
áº¿ n
ĠÃ« shtÃ«
è ĺ
Ġ íķĺ
Ġd Ã¶r
Ġt rop
Ġn di
Ġn ome
ag atan
ĠØ¨ Ø®
ĠE sp
ĠÐ¸ Ð»Ð¸
ĠÚ¯ Ø¤
ĠÑı ÐºÑĸ
Î¹Îº ÏĮ
Ġà¬ħ à¬¨
u q
ë ²
at in
Ġo an
Ġdi es
×Ļ ×ķ×ª
ĠÚ© ÛĮÙĦ
la ch
up p
ali an
ĠØ¢ Ùħ
Ġx we
Ù¹ Ø±
áĬĲ áīµ
Î¯Î± ÏĤ
b ir
id as
Ø§ÙĨ ÙĬ
op s
Ä« t
Åį l
Ġ195 6
à½ĸà½¤ à½ĳ
Ġh en
Ð² Ð°ÑĤ
Ġen s
á» ĵ
ĠÐ¡ ÑĤ
ill er
ĠÚĨ ÛĮ
à¸ģ à¸£
ĠÏĦ ÏīÎ½
Ġà¨ī à¨¸
A mer
m ek
z im
Ġ ort
áĥ ¤
Ġb re
ĠÐº Ð¸Ð»
Ñħ Ð¾Ð´
ĠK ol
Ġáĥ ¯
Ñĩ Ñĥ
ĠH ann
ĠH ind
Ã¶ Ã¶
ĠY n
è¿ ĩ
Ð° Ð°
Ġt ina
Ġl ar
ĠS om
Ġw en
Ġj ako
id es
ĠÐ¿ Ð¾Ðº
ĠR i
ãĤ ¿
åı °
asa o
ĠÒ¯ Ð»
Ġà¤īà¤ª à¤²à¤¬
Ġt on
ĠÙ ¼
Ġb Ã«
as Ä±nda
ci je
áĭ Ŀ
ke hÄģ
à¹Ģà¸ Ĥ
Ġàº Ĺ
of t
áİª áıĹ
ĠÐ´Ð¸ ÑįÐ½
ĠPÄģ kehÄģ
E A
in di
Ġp it
ĠÙĪ ÙĨÙĩ
up u
ter e
Ûĩ Ø´
ÙĪØ± ÙĪ
åı į
isti an
à¾© à¼ĭ
Ġplan et
) )
f ica
Ġs iya
Ġb ila
ad z
ti ons
×Ļ× ļ
Ã¼ z
ĠÐ¸ Ð½Ð´
Ð¶ Ñĭ
ĠW ind
Ġ196 8
à¾¡ à½¼
Ġaw on
çŁ ³
ĠÑģÐ¸ÑģÑĤ ÐµÐ¼
n ak
Ġ ÉĻ
ÑĢ Ð³
à¤° à¤²
ĠS in
ĠÑĤ Ð°Ð½
Ġpr ima
à§° à§°
áıħ áıĵ
Ð¾Ð»Ð¾Ð³ Ð¸Ñı
ĠÐľÐ°ÑĢ Ð¸Ð¹
Ġd v
Ġl ÄĽ
Ġo lan
Ã¤ Ã¤n
ĠD ep
Ê» a
Ġà¤¤ à¤¸
Ïħ ÏĦ
Ġáī Ģ
Ġà²ª à²¨
×ĵ ×Ļ
Ġ196 1
if e
å· ²
Ġdur ante
t al
ë ª
Ġd Ã¨
Ġd Ã¢
ĠÐº ÑĥÑĪ
ĠB h
ĠP ers
ĠI mp
ĠØ§ÙĦ Øµ
Ø¹ Øª
Ġke essa
ĠÐ¢ ÑĥÑĢ
ÐµÐ² Ð°
200 8
Ġà¤°à¤¹ à¤²
ç± ³
g in
t et
Ġ à½ķ
Ġp et
ĠÙ¾ ÙĬ
Ġì ĸ
Äį e
Î¼ Î±ÏĦ
Ġà¤ıà¤ķ à¤°
es tiv
Ġde d
Ġf ot
Ġf Ã¸r
ĠS ov
Î¹ Î½
àº²àº ª
Ġáİł áİ
à´° à´¤
Ð²Ð» Ð°Ðº
àª¶ àª¨
æİ ¥
o is
ar ar
Ġm Ã²
or is
ic z
le a
Ġse p
ĠØ® ÙĪØ±
ess o
à¤ĸ à¤£
æµ ģ
ë¥ ´
f ur
Ú «
Ġn ÄĽ
Ðº ÑĢ
il ar
ĠÐº ÑĢÐ°
ĠR u
st ra
ÐµÑĢ ÑĤ
est u
áĭ ĺ
çĽ ®
Ġble v
Ġnaf so
S h
Ġf ue
ok e
×Ļ× Ľ
Ø§Ø± ÙĪ
Ġse o
Ð¾Ð» Ð±
ha a
Äį a
áŀĢ áŀĺ
Ġku wa
Ó§ Ð½Ñĭ
Ġil s
ÙĪÙħ ÛĮ
áĢºáģ Ĭ
ĠÏĢ Î¿Ïħ
k ov
Ġ áŀı
Ġm ob
Ġb aba
ĠÐ¿ ÑĥÑĢ
Ð± Ð¸Ð»Ðµ
ĠÐ³ Ð¾
eb er
Ġcon f
å° ¼
ĠAr g
Ġáİ¤ áıįáıĹ
Ġà²ħ à²°
ĠØ§ÛĮ Ûģ
Ġze uden
ĠÆ Ļ
d Ä±r
Ġk ond
or um
il di
Ġv art
Ã¢ nd
Ġst and
ÙĦÙī ÙĤÙī
ãģĭ ãĤī
F A
Ġn es
Ġl Ã¤s
Ġb io
à³ Į
Ġch u
ĠÙĨ ÙģØ±
Ġap p
Ġàªª àª°
ilay ah
à° «
Ġan Åį
Ġle at
Ġit o
ĠAr m
Ø´Øª Ø±
Ġáīł áĬ
j ak
Ù ¬
Ġk ara
Ġe urop
ĠS ir
ĠP ri
áī ĥ
Ġma in
Ð¸ÑĤ ÐµÐ»ÑĮ
ĠÐ¿ÑĢ Ð¾ÑĤ
Ġà¤Ĩ à¤§
ien te
ĠÑģÑĤ Ð°Ð½
200 9
ĠÚ¾ ÛķØ±
ĠÐ±Ñĥ Ð¹
ĠÕ© Õ¾
ì §
Ġp ed
Ġh ol
Ġh ett
ĠØ¨ Øª
ĠG od
Ġet t
ĠSt at
Ġva i
à½ĳà½Ĥ à½ł
éĩ ı
Ġla wan
ing er
ĠÐ½ ÑįÑħÑĬ
ãĤ ģ
à§° à¦£
ij as
Ġà¸ ª
Ġmil it
àº´ à»Ī
ĠAug ust
ra el
Ø¹ Ø©
ung en
Ġpar tic
Îµ Î»
di al
åĪ Ĺ
ĠJoh ann
Ġeng ari
l ine
Ã© c
ÙĤ Ø¯
iy on
áŀļ áŀĬ
Ġáĭ ĺ
ĠÒ ®
ĠÑıÐ· ÑĭÐº
' .
g Ä§
Ġs ia
az ione
Ġek s
201 4
à¸¹ à¹Ī
Ġd omin
ol f
Ġà¦ Ł
Ġj en
Ġal b
ĠÄ ¡
à¤§ à¤¨
Ġop p
à¹Ģà¸ ¥
ìĹ ¬
ĠÚª Ø±ÙĬ
Ġà¬¸ à¬®
Ġáİ¦ áıĻ
åĨ ħ
æ ¹
Ġ ÏĨ
Ġs ic
Ġm any
Ġi eu
Ùī Ùħ
ĠK ing
ĠÑĤ Ð¸ÑĢ
áĭ ®
à´¯ à´¤
ĠÐ° ÑĦ
àºĶ àºĹ
ÙĪÙħ Øª
à®± à®¤
ĠÏĥÏĦ Î·Î½
ç¥ ŀ
à¾Ń à¼ĭ
h ur
k ok
s cz
ĠS he
Ġw ird
Ġj Ã¨
ĠT el
ĠÐ± Ð°Ñģ
Ð°ÑĤ ÑĤ
Ġng Ã¬n
Ġka i
æĹ ı
ÑįÑħ ÑįÑĢ
ĠÐ±Ð°Ð¹ Ð½Ð°
Ġáİ¢ áİ¬
Ġhu et
ĠtÄģ one
g t
r ak
Õ Ń
Ġh og
Ġf j
Ð³ ÑĥÑĥÐ»
Ġà¤ħ à¤ķ
ow o
ann u
Ð°Ñħ ÑĬ
Ġà¤Ĺ à¤¯
ach a
Ġtang ata
Ġs ap
un ya
ĠÚ ĩ
ĠC ensus
Ġpr os
Ġqu al
à¬° à¬°
ĠÑĢ ÐµÐ´
ĠÑĪ Ð°
Ãµ n
ÓĢ Ñĥ
ÙĨØ¯ Ùĩ
Ġá» Į
çµ ±
ĠÛ² Û°
à¥Īà¤Ĥ à¥¤
h el
k al
ÑĢ Ð¾Ñģ
Ġs ha
Ġa ig
ÙĨ ÛĮÙĨ
un y
ĠM ur
ia y
oc e
Ġà§ ª
è¨ Ń
8 4
Ù ¿
ÙĬ ÙĪÙĨ
om h
Ð°Ð½ Ð°Ð¹
ek et
Ġz av
Ø´ Ú©
ĠÐ¼ Ð¾Ð´
ĠÒ ĵ
Ġ194 6
ĠÏĢ Ïģ
Ð¸ÑĤÐµÑĢ Ð°ÑĤÑĥÑĢ
8 6
Ġm ana
Ð¼ Ðµ
à¤¿ à¤ĥ
ĠP art
ĠW orld
ib h
ãĤ «
Ġon e
Ġ×Ĳ ×ł
Ġind iv
å¯ ¹
Ġspe ci
ĠLat in
b es
v ille
à¤¿ .
ĠÐº ÑĥÐ»
Ð± Ð¾ÑĢ
à¤¸ à¤¤
ĠØ´ Ø§Ùĩ
à¾Ł à½ºà¼į
Ġ196 4
à»Ģàº ¡
è© ±
v r
Ã ¿
ç ¿
Ð° Ñĥ
em an
Ø§Ø «
ÓĻ Ð½Ðµ
ĠÐ· Ð°Ñģ
Ġwa ard
Ġcom pl
ĠÚ¯ ÛĮØ§
ogra ph
ìŀ ¥
æ ¿
Ġf al
Ġw el
Ġj anu
Ûķ Ù¾
ĠC r
ĠÙĪ Ø§ÙĤØ¹
st u
ĠÞ ĸ
à¤¦ à¤¨
ĠÑĥ Ð½
ĠÑĥ Ð¾Ð½Ð½Ð°
áĬ ĸ
lan o
ÑĥÑĮ ÑĢ
Ġdipl om
ch es
ak Ã©
em er
Ð± Ð¸ÑĤ
áŀļ áŀĺ
ĠÑĢ ÐµÐ³
Ò» Ð¸
Ġor a
ĠáĪ Ŀ
200 5
áĥ® áĥķ
ç ¹
Ġs q
Ġk hi
ÙĦ Ø³
Ġdi fer
ra f
ah l
à²° à²µ
Ð¶ Ð°
av o
ou w
Ġ4 2
å® ĺ
Ø§Ø¦ ÙĬÙĨ
ĠáĥĲáĥ Ľ
ĠØ¦Ûķ Ùħ
Ġìŀ Ī
. [
h or
¤ ĳ
Ġs ont
Ðº ÓĢÑį
ĠØ¨ Ú¾
Ġàª ļ
ĠØ¯ ÛķØ±
ĠÙĪ Ø§
ÛĲ Ø±
×ľ ×Ĳ
ĠÃ¶ t
è§ £
Ġprogr am
d t
§ à³
Ä °
Ġg az
ĠW h
ip a
à´¿ .
ĠÐ¿ÑĢ ÐµÐ·
Ġáī ¥
Ġ×ķ ×Ķ
Ò¯Ò¯ Ð½
àŃŁ à¬°
à±ĩ à°Ĥ
ĠìĿ ¼
Ġsob re
al ist
it Å«
Ñħ Ð¸
ia i
ãĤ £
áŀļ áŀĩ
ÑĥÑĢ ÑĥÐ´
ĠØ´ Ø¯
ĠÃ¨ n
à¤¼ à¤¾
áĥĶáĥľ áĥ¢
çľ ģ
0 4
f ol
Õ ©
Ġl y
Ġh Ã¡
Ġz ona
Ġch á¹³
Ùĥ Ø§ÙĨ
ĠÐ£ ÐºÑĢÐ°
ç¨ ±
ī áģ
in z
Ġr eb
ĠN ational
ĠJ ul
ìĿ ¼
à¶» à¶º
ish t
ĠÕ° Õ¡Õ´
d em
j Ã¡
m os
Ò ĳ
Ġ áŀł
ĠS im
Ñħ ÑįÑĢ
ĠÐ± ÑĭÐ´
ĠF e
áĥĺáĥ ĸ
Ġet x
Ġàº «
ĠÒ¯ Ð·
ĠÕ¸ ÖĢ
t Ã³
å ŀ
ar es
Ñĥ ÑĥÑĢ
Ġ( Â«
ĠA lex
ti e
ĠÐº ÄķÑĢ
Ø§ÙĨ Ø§
ĠI b
ãģ Ŀ
Ð¾ÑĢ Ð¸Ñı
li che
ĠÑħ ÑįÐ»
ÚĨ ÛĮ
Ġfr Ã¡
S C
Ġs ama
Ġn k
Ġl ie
is tic
ab ar
ib us
eng a
ĠØ¦ ÛĪ
Ġàº ¡
Ġà¨ĩ à¨¹
d ad
Ġm Ã³
Ġg ud
Ġe di
áı ķ
Ġng ok
Ġ194 2
ĠØ· Ø±Ùģ
åĳ ¢
entr al
Ġà¦ī à¦ª
Ð½ ÐµÐ½
ang u
Ä± y
ĠÙħ ØµØ±
Ð¸Ð½ Ð´Ðµ
ug al
ĠÙĨ Ø´
Ð°Ð¼ Ð±
ĠÙ¾ Ûİ
ĠÒ ļ
å¾ ŀ
æķ ħ
çķ Ģ
Ġáĥľ áĥĲáĥĽ
k am
ë Ĳĺ
ÑĤ Ð¾Ð¼
àº ¢
as on
Ġr Ãª
Ġw er
ĠÐº Ð¸Ð·
ĠÐ± Ð°Ð»
op er
ãĤ ³
ja v
åħ §
Ġà¸ Ĺ
à»Ģàº Ĥ
mo i
7 9
Ð ¯
Ġl Ã¡
Ġb one
el n
à¬ µ
Ġg ara
ÐµÐ½ Ð³
ap u
Ã¶ p
Ġì §Ģ
Ġta ona
Ã§ e
Ïģ Î¯
Ġne i
Ġ×Ķ ×ª
Ġàº ŀ
Î¬ Î½
ĠÓ ¨
ĠÑĢÐµ ÐµÑģÑĤ
ĠWilli am
Ë Ĳ
Ñ Ĵ
æ »
é ħ
Ġt ers
Ñģ ÐµÐ¼
Ġp ub
à¥į âĢį
am atan
áİ ł
Ġan no
ib le
Ġmet er
Ġkom o
ĠÐ£ ÑĢ
lÄ± q
ĠIs lam
ĠgÃ¢ e
ÑĤ Ð¾Ð¹
Ġp ah
ĠÐ´ Ð²
ĠÐ´ ÓĻ
sk ich
Ġke i
ens ch
Ġq ar
0 2
b on
m al
u we
es is
Ġb ara
ĠS ec
Ġi y
ĠM ari
im it
ÐµÐ½ ÐµÑĢ
Ġan s
ri an
Ġso o
áĬķ áĭµ
Ġ194 7
Ġà²ħ à²¨
àº§ àº²àº¡
ÑģÑĤÐ¸ÑĤ ÑĥÑĤ
5 9
è Ħ
in ci
Ġs r
Ġs co
Ðµ Ò£
at r
el et
Ġe ff
ĠÑĤ ÐµÑħ
ion g
à²° à²®
Ã¢ s
ĠÐļ Ð¾Ð¼Ð¸
Ġà¤¨ à¤Ĺà¤°
áĥ£áĥ ¡
ĠÎº Î±ÏĦ
à¨Ł à¨°
i Äį
ar um
à½Ĥ à½¤
Ġj ir
×Ļ ×Ļ
Ã¶ k
ant aro
Ð°Ñģ ÑĭÐ½Ð´Ð°
ÐµÐ» Ð°
ĠÙĩ ØºÙĩ
ĠÐĲ Ð±
ini ÅĪ
Ġà¤Ń à¤¯
ÙĪÙħ Ùĩ
Ġ194 9
à¸Ħ à¸§
éĽ Ĩ
ãģĵ ãģ¨
ĠDist rito
h om
ÑĢ Ð»
Ġs ien
áŀ ĭ
Ġt Ãª
Ġw Ã³t
Ġy ak
Ġz ip
ap h
Äĥ k
à»ĥ àºĻàº
Ġcons ider
çĪ ²
Ġwax aa
ĠØ¦Ûĩ ÙĬØºÛĩØ±
Ġc are
Ġc unt
Ġj uo
ĠP ilipinas
ãģ į
ĠÄ ī
ĠØ¹ Ùħ
Ġre fer
Åı k
p ad
t ra
Ġd ua
Ġs aka
Ġc las
ĠM c
Ð°ÑĢ Ð°Ð½
Ġj ag
ĠÐº Ð°Ð´
ĠH y
à¤µ à¤ª
end u
à¸£ à¸ĩ
Ð½Ñĭ Ñı
ÐµÐ· ÑĮ
ĠÛĮ Ûģ
Ù¹ ÛĮ
Ġtab ata
N y
m is
à¦ ĺ
Ġh id
Ã© p
ĠC ity
ĠD ur
ri z
ä¸ ¦
Ġst u
ÞĤ Þĳ
Ð°ÑĪ Ðº
Ġx am
ĠÐĲÐ» ÐµÐºÑģ
C C
is ia
el and
Ġv ien
ĠÃ Ģ
te in
ĠÎ Ł
Ġcom me
åĽ ŀ
ÎŃ Ïģ
Ġ ÓĻ
Ġt Ã©ng
Ġb un
àª¾ ,
áĥĶáĥ ¥
à¾Ł à½ºà¼ĭ
ä½ ĵ
Ġ193 8
æĶ ¾
Ġáİ¾áİ¥ áİ¢
ĠÕ©Õ¾ Õ¡Õ¯Õ¡Õ¶
n um
Ġ É£
Ð´ ÐµÐ¼
Ûķ Ú¾
ĠÐ½ Ð°Ð¼
Å¡ Äĩ
ug g
Ù¾ Ùĩ
åı ĳ
Ġà¸ ¡
å¾ ©
à¦Ĺ à¦¤
Ġà¹ Ĥ
à¸« à¸¥
ĠÐĲÐ¼ ÐµÑĢÐ¸Ðº
ĠKab up
ĠDav id
S S
ar p
Ġt ara
Ġk y
Ð´ Ð°Ð»
ur es
em ba
ĠB ud
ĠÐ± Ð°Ð³
Ã¶ Ð½
Ġà´ Ń
ub u
Ã½ a
à°Ĥ ,
×ĺ ×¨
ĠIn se
ĠÑı Ð»
ĠAn im
Ġex p
áĥĽ áĥĲ
é¦ Ļ
j s
n ou
Û ´
Ġ ÏĮ
Ġm ic
Ġk n
Ġh ist
áŁ Ĭ
Ġj in
Ġdi f
áĪ ŀ
ĠR h
ĠÐ´ ÑĢ
ha an
à¤ª à¤¦
ĠÙĨ Ùħ
Ġes as
Ã® s
Ġta up
à¦ķ à¦²
à¹Ģà¸ ŀ
enn s
ĠUn ited
ĠÐ°ÑĢ ÑĤ
Ġ/ /
ĠGe orge
Ġprovin cia
8 1
l Ã¡
l ant
Ð½ Ñį
Ġs ot
Ġb on
ch te
ĠC he
ing u
ĠR ich
Ò¯ Ðº
Ð¾Ð² Ð¾
ĠØ§ÙĦ Ø®
ĠØ± Ø§ÛĮ
ĠÐ¿ÑĢ Ð¸
f el
ì £¼
Ġ áŀħ
Ġ Õ¡Õµ
Ġd id
Ġa ba
Ġt ch
Ġt ij
Ġm ani
Ġb og
Ùī ÙĤ
ĠÙĪ Ø³
Ġre h
Ġx a
Ġà²Ĩ à²°
Ġprof es
Ġtid ak
% .
T C
Ġm ba
Ġ1 000
Ġv as
Ġg am
ĠN ic
ĠV an
iy at
Ġne w
Ġq il
à¸Ń à¸£
ĠAl l
à°ķ à°°
Ġsen esi
Ġinf lu
w á»įn
Ñ ľ
Ġd ina
Ġv end
à½¦ à½Ħà½¦
Ġi Å¡
ÃŃ c
ĠÐ¿ Ð¾ÑĢ
à½ĺ à½¢
Ã« ch
à¸²à¸ Ħ
à®ķ à®ª
ĠÚ¯ ÙĪ
Ġà¤Ľ à¤Ĺ
Ġ195 4
Ġ195 7
olog y
ici al
ĠÐ°Ð´ Ð°Ð¼
Ġáİ¢ áı
à¸Ī à¸²à¸ģ
Ġsar ong
ener al
áĢ±áĢ« áĢº
c in
l or
à¥ ħ
is er
Ġb aley
ra w
áĥĲáĥ ĳ
Ò¯ Ð´
Ġle i
ĠØ¦ Ø§Ø³
ÅĤ y
Ä« Å¡u
àº²àº Ĭ
oo ta
ĠÑĦ Ð¸Ð»
Ġgr ad
ĠÃ¡ Ã¡dÃ³Ã³
×ĵ ×¨
éģ ĭ
Ġkar o
áıħ áİ¯
ĠÏĥ Îµ
Ð²ÐµÑĢÑģ Ð¸ÑĤÐµÑĤ
Ġtaup ori
S e
T h
d es
t at
y b
Õ ¹
Ð» Ð¸Ðº
Ġk uri
Ġb asa
ĠA rab
st ell
ĠÐ² ÑĢÐµÐ¼
Ġke u
Ó§ Ð¹
Ġkom mun
Ø±Ø¯ Ùĩ
Ġ194 3
ron om
ĠÃ¥ r
q i
í Ļ
Ġt ari
Ġn Ã³
Ġn je
Ġn Ã®
ĠA h
ĠA us
ĠÐº Ð°
ĠC amp
ĠG ar
Ġng u
Ġà¤Ĩ à¤ª
ĠØ¹ Ø¨Ø¯
àª¯ àª¤
Ġfam Ã¼l
Ġáĭ¨ áī°
Ġul an
åĵ ģ
Î¯Î½ Î±Î¹
Ġ *
Ġ à½¡
Ġm Ã¨
Ġl ui
ÙĬ Ø§Øª
ÑĪ Ðº
ĠÚ© ÙĨ
à» Ŀ
Ð¾Ð» Ð´
ĠØ³ Ø§Ú©
ä¸ ľ
Õ¡Õ ²
ĠY a
Ġest ado
à¸§ à¸¢
ĠLond on
ĠpÃ¶sod s
Ġà´Ĵ à´°
Ġd ad
Ġt ime
Ġp end
al Ä±q
Ġv ald
Ġg em
Ġse in
iy ang
Ġpo z
åį ĥ
ĠÐĵ ÐµÑĢÐ¼Ð°Ð½
Ġ×ŀ ×Ļ×ĺ
Ġind ustri
Ġlu yag
ĠÃ¤bin Ã¤d
ĠrÄģ nei
w eng
Û ¶
ë ¯
un um
ol it
ro k
Ð¶ Ó¹
Ø§ÙĦ Ø§Ø±
áŀļ áŀĸ
Ġha i
áĢ» áĢ±áĢ¬
áĢ» áĢ¾
Ġge Ã§
ĠÅ¡ to
ÃŁ e
ĠÐŃ Ð»
ĠBer lin
emes ed
Ġfrug eti
ĠÃ¾Ç£ m
Ġl Ã¢u
us an
ag ue
ĠK l
Ġà¤® à¤£
Ð°Ð² Ð°Ð¹
ĠÙĥ ÛĨ
àºµ à»ī
ìĹ Īëĭ¤
ĠØ§ÙĨ Ú¯
Ġpos s
ĠÐ³Ð¾Ð´ Ñĥ
áıģ áıĹ
ĠÚ¤ Ø¦
Ð³ Ð¸Ð¹Ð½
Ġst udi
ĠÐĿ Ð¸Ðº
Ġ195 8
Ġcap it
ìĽ Ĳ
v v
å Ĺ
é ľ
ar na
Ġc il
Ð³ ÓĻÐ½
ul is
ĠP ak
Ġna am
Ġen n
Ġà´ ¦
Ã² i
à¦¤ à¦°
Ó§ Ñģ
áģ ĭ
Ġáİ¤ áİŃ
ici Ã³n
gu Ã³k
à¾© à½¼
Ġcap ital
àºŀ àº°
B a
r us
é Į
Ð½ ÐµÐ¼
Ġs ana
ar ra
Ġk tor
Ġb us
ÛĮ Ûķ
it os
Ġf ost
Ġr Ã¨
ĠS to
ag es
ĠØ¯ ÙĪÙĨ
ĠR ev
Ġta ua
ĠØ´ Ø¯Ùĩ
Ġac tu
% à¥¤
a Ê¼
s d
Ġg amp
Øª ÙĪÙĨ
ent al
Ð± Ð¸
Ò¯ Ñģ
ĠÐ¼ Ð°ÑĪ
Ġà¶ Ķ
Ġà´ Ī
ÑĭÑĪ ÑĤ
éĸ Ģ
å½ ¢
ç¨ ®
Ð» Ð°Ð½Ñĭ
Ġk ann
Ġb anda
as ter
à¦¾ à¥¤
ĠC am
ĠÑģ Ó©
Ġà¶ ·
ĠÙĦ ÛĮ
à®Ł à®¤
Ġ×ŀ ×Ĳ
Ġ195 9
Õ«Õ ¯
à½ĺà½Ĳ à½ł
ç¨ ĭ
è« ¸
t Ã©
al eg
Ġb ÃŃ
ĠÑģ Ð¸ÑĢ
ĠF il
ĠÐ¼ Ð°Ð½
ĠØ³ Ù¾
ĠÑħ Ò¯ÑĢ
ez h
Ð°Ñħ Ð°
ÐµÐ² Ð¸Ñĩ
Ġí ĺ
Ġeb ile
ĠÏĥÏĦ Î¿
ĠInse cta
â ĹĦ
à¥ ¯
Ġt at
Ġm ama
us en
re is
ay i
à¤® à¤§
ĠÐ½ Ð°Ð²
Ġà¤Ĩ à¤£
we e
Ûİ Ú©ÛĮ
Ġâ ĸº
Ð½Ð¾ÑģÑĤ Ð¸
ÑįÐ¶ Ñį
Ġáİ¬ áıĻáıĹ
c ep
v il
Þ ķ
Ġv ie
Ġàª ¡
Ø¨ Ûķ
ot en
ĠR ec
ĠÐ¼ Ð¾ÑĢ
sk om
to y
Ġë ¶Ģ
áŀĦ áŀĳ
áŀ¢ áŀĦ
0 5
Ġl or
Ð² Ð¾Ð´
Ùī ÚŃ
ay Ãª
ĠN eg
ci as
Ø§Ø ¤
ĠO kt
che a
Ø§Ø¯ ÙĬ
Äķ ng
Î¿Ïħ ÏĤ
lik e
Ġpag s
ĠÑĪÐº Ð¾Ð»
èº «
] .
Û ·
Þ Ĵ
é Ħ
or te
Ø§ÙĨ Ú¯
ov al
sa a
hi i
Ù¾ Ø±
ÑĥÐ½ Ñĥ
ĠÑĩ Ð°Ñģ
Ġsi ÄĻ
ard s
àª¯ àª¨
Ġmod ern
r Ã¥
Ġd ata
Ġt ru
un tu
ent uk
up okan
Ġì ĥ
ung u
ä» ¤
áĢ¼ áĢŃáĢ¯áĢ·
ĠAn ton
Ġà¸ Ī
ĠQ Ä±rÄ±m
Ġ×¤ ×¨
à©ģ à©°
ĠSo ci
b et
Ġs olo
Ġk amp
Ġh um
Ġy ew
ĠC u
ja an
Ġ×Ķ ×©
Ġmar upokan
unt y
ä¿ Ŀ
ĠChar les
c at
Ð½ Ð¾Ñģ
Ġf eder
Ġr ol
ĠÐº Ð¾
ĠÐº ÑĭÐ²
op i
åħ ©
Ġq o
áĥ£áĥ ĵ
ÛĮØ± ÛĮ
ĠÒ¯ Ð¹Ð»
Ġà¦ı à¦°
Ġkon tr
èĩ º
Ã¼m Ã¼
ÙĢ ÙĢ
E s
i Ñģ
n al
Ġt Ã³
Ġp ale
Ġk erd
Ġl Äģ
or ta
Ġg ada
om es
ĠB ern
ĠL ud
ĠÐ¿ Ð¾Ð¿
ĠÕ Ħ
áĬ ĳ
ĠáĥĽ áĥĿáĥ
olog ie
à¸ª à¸¡
Ġmil li
ĠÑĤÑĥÑĢ Ð°ÑĢ
it el
am enti
Ġe us
ĠR am
ĠÐ¼ ÐµÑĤÑĢ
×ķ× Ĵ
Ġ3 9
Ã¹ i
emb ra
Ġáı ļ
Ġà¦ĩ à¦īà¦¨
ots wana
Ġord o
Õ¡Õ½ Õ¿
ĠWal ay
ĠJa wa
ĠJos eph
y j
Ġ à½Ĩ
Ġ íķľ
Ġk uk
Ġv ic
ĠB at
à½ĸ à½ĳà½Ĥ
Ð°Ð» Ð¾
Ġà´ ¶
Ġì ¡
ĠÑĩ ÑĭÐ»
ih an
ĠÓ© Ó©ÑĢ
ĠiÃ§ in
L o
× £
Ġp rav
Ġm asa
al ek
is ha
ÙĦ Ø¹
Ðº ÓĻ
Ġv oj
Ġg Ã¼
à¤° à¤ª
ing ga
Ø¨ Ø§
Ġu ta
Ġá º
Øº Ûĩ
ess atti
å° ĳ
Ġid iay
Ð¸Ñĺ Ðµ
ç¾ ©
ĠáĬ¥áĬķ áĭ°
D a
b h
Ġs Ã«
Ġa Å¾
Ġn ez
Ðº ÑĮ
ĠS um
ib il
ãĥ ī
Ã´ d
Ġta ea
ĠÐĺ Ð²Ð°Ð½
200 4
è¿ ĳ
ĠIt alia
à¾Ĺ à½¼
ĠÎ³ Î¹Î±
v od
ç ĩ
Ġd Ã´
Ġk ans
ĠK un
Ð°Ð´ Ð¸Ð½
ãĥ ķ
Ø³Øª ÛĮ
ĠÐľ Ð¾ÑģÐº
Î· Î¼
Ġà¨² à¨Ī
æĮ ģ
r ar
Ġm me
Ġm uri
ĠA ra
Ġy ok
ĠÐº Ð°Ñģ
ĠØ¨ ÛĮÙĨ
Ã¨ int
Ġar i
Ġel ec
Ġel ler
ĠSt ate
d ur
o e
r id
Ġs n
Ġs ett
à¾ ķ
Ġg eh
us se
ĠM uh
Ġz ur
ĠÐ½ Ð¸Ð¼
ĠØª ÙĨ
ĠÕ Ģ
Ð°Ð´ ÐµÐ¼
Ûĩ Ùħ
ĠCh ina
ÐµÐ³ ÑĮ
olog ia
Ġtot oo
Ġ×¨ ×ĳ
b el
r um
¢ à¼
Ġs amp
Ġm uk
Ġb Ã¡
Ġg ev
Ġf Ã¸
áı ¥
ĠC oll
ĠÚ© ÛĨ
ĠF eder
ÙĤ Ø©
ant al
ĠW henua
ĠÕ ·
Ġis a
Ġà· ģ
ĠÐ¹ Ã¦
ĠáĥĴ áĥĲáĥĽ
à´Ļ àµ¾
ĠEng lish
ÑĢ Ð¸ÑģÑĤ
Ġb ras
Ġr od
ĠÚ Ī
ĠC ap
ĠÐ¿ Ñģ
ĠÐ¸ ÑĢ
Ġon der
à´° à´®
ĠÒ ·
Ø§ÙĪ Ûķ
Ġbil ang
ĠØ¦Ùī Ø´
ĠkÄģ ore
ÓĻÐ» ÓĻÑĢ
A fr
Ġk ak
as tr
ĠÐº ÑĥÐ»ÑĮÑĤÑĥÑĢ
Ġz ien
ĠI z
à½£ à½Ĥ
áŀĦ áŀĵ
×ĺ ×Ĳ
ĠáĢ¡ áĢĻ
Ġup p
ìĭ ł
è« ĸ
B A
m s
ÑĢ Ñĥ
à² «
Ġb ud
Ġi f
àµ ĥ
Ġàª §
Ġz b
ĠØ¯ ÙĪÙĦ
Ġan y
ĠÕ Ń
å§ Ķ
Ġmg be
j os
à« Ī
ri Ã°
st ant
ers k
sk ap
ip o
av i
ĠÐ· Ð°ÑĢ
Ġko ja
ĠÐ» ÐµÐ¼
áĮ ī
ĠFran s
ÑįÐ´ ÑįÐ³
Ġlang u
æ¼ ¢
áıįáıĽ áİ©
Ġnoho ia
loc ality
B C
an ka
Ġt inan
Ñį ÑģÑĮ
Ġw on
à¤¹ à¤£
áĭ İáī½
ãĥ Ń
ran e
Ù¾ Ø§Ø±Ùĩ
ij os
ika i
à¹Ģà¸ ª
uv v
åĬ Ł
Ġbil an
ĠTo itÅ«
Ð»ÑĬ ÑĥÐ»
P A
Ú ħ
Ġn z
ad de
ag en
Ñĸ ÑĨ
à¤¹ à¤¨
áģ Ģ
Ġwo on
Ġ×Ĵ ×¨
Ġà¬ı à¬ķ
c s
w Ã©
w ie
Ð½ Ð°Ðº
Ġp ent
ÙĦ ÛķØª
ĠS lov
Ġi e
áĥĲáĥ £áĥ
ug e
×ł ×Ķ
àª® àª®
aj i
ÐµÑģÐ¿ÑĥÐ±Ð» Ð¸ÐºÐ°
t as
Ġk ri
ch s
et z
il en
Ġg in
à¤® à¤£
ĠF re
Ø® Ø±
å¹ ¶
à·Ģ à¶½
ÐµÐ³ ÐµÐ½
à¤°à¤¤ à¤¯
ÐµÑĨ ÑĨÐ°
Æ°á» Ľ
ĠÚ¤ ÙĪÙĦØ§Øª
ç ¢
Ġa in
Ġh ie
Ġh az
Ġj am
ĠÑģ Ð°ÑĢ
ĠÐ³ Ð°Ð»
ĠÐ¶ ÐµÑĢ
Ġà¦Ĩ à¦Ľ
ä¿ ¡
áĥĲáĥł áĥĺ
à¶« à¶º
æı Ĳ
Í ĺ
Ġ ong
Ġm aga
it ta
it ra
Ġc ast
ĠØ§ Ø±
ĠM ich
ãģ Ĭ
ĠÐ¼ Ð¸Ð½
×¢ ×¡
à²² à²µ
Ġà¤ħ à¤µà¤¸
Ùĥ ÛķÙĨ
und an
Ġpo Äį
Î» Î¿
Ġáİłáı °áİµ
æĮ ĩ
) à¥¤
Ġb osh
à¬ ŀ
Ð· Ñį
ĠÐ¿ Ð¾Ð¼
ĠÑĤ Ð¾Ð»
ci u
ĠJ ames
Ġ4 3
ĠÐ½Ð° Ñĺ
Õ¸ÖĤÕ µ
à¸§ à¸Ļ
ÙĨÙĩ Ø§
Ġà¬® à¬§
Õ ²
Ġn Ãª
Ðº ÓĢ
Ã© va
ag er
ĠÐº Ð¸Ð½
ĠÐ³ I
Ãµ l
Ã» i
ĠáĪ °
Ð°ÑĢÑĭÐ½ ÑĭÒ£
alif orn
m Ã¤
Ġ Ïħ
Ġp is
Ġm ek
Ġn iv
Ġk ata
ĠÃ İ
Ġ19 19
ĠÙĤ Ø¨
ĠÐ» Ð¸ÑĤÐµÑĢÐ°ÑĤÑĥÑĢ
Ġ7 5
Ġ12 0
Ġà¶ħ à¶Ńà¶»
à»ĥ àºĻ
a x
n Ä±Ã±
um ba
ĠP ic
Ñħ Ñĥ
ĠL ab
ĠÐ½ Ð°Ð´
ĠÎ ®
Ġcon stru
Ġq al
Ġà¤Ń à¤ıà¤ķ
ÑĭÑĢ Ð°
any ÅĪ
éģ Ķ
Ġà¤¸à¤® à¤¯
ĠÐ¤ ÐµÐ´ÐµÑĢ
Ø§Øµ ÙĦ
é ¾
an j
an ja
Ġa ÅĤ
àª Ī
Ġà² ¡
ĠM it
ĠØª Ú©
Ġ5 5
à¸Ń à¸¡
ĠÚĨ Ùĩ
Ø· Ø±
èĢ ģ
Ġà¤ĸ à¤¨
Ġà²¨ à²¡
201 2
ĠÄ« r
ustr ia
m us
an Ãª
Ð½ Äĥ
el de
Ġw ill
ia p
Ġ19 00
od y
Ġu ch
ĠÐ¼ Ð¾Ð»
ĠÕ į
Ġà¤¤ à¤¤
ach d
ÏĮ ÏĤ
ĠÃ½ er
Ñļ Ð°
å³ ¶
¶ Ī
in to
Ġm Ãª
Ġh ono
Ġr ag
ĠL in
ek tor
ĠÑĤ Ð¸
ãĤ ¸
Ø¦ Ùĩ
Î¹ Ïĥ
Ó§ Ð¼Ð°
Ġad da
Ã» t
ff e
Ġmet ros
Ġà²¸ à²®
Ġàª® àª¹
an za
Ġp ie
Ġk ultur
à½¢ à½ĸà½¦
ĠÙħ ÛĮÙĨ
ĠÐ¿ Ð°Ð¹
Ã¦ Ñģ
à¤ª à¤ķ
ma q
Ġ×Ķ ×Ĺ
ĠY ea
ĠÐ¶ ÑĥÑĢ
ÐµÑģ Ð°
ÄŁ a
Ġáı¥áıĦ áıįáıĽáİ©
èı ¯
G C
Ġ ï
Ġk ong
Ð°Ð½ Ð½Ñı
ag t
Ġy ap
à¤¤ à¤¯
ĠB la
ĠD om
Ġà¤Ĩ à¤«
ort s
Ġmen en
ĠPar k
Ġbol up
å¯ ¦
Ġhem an
çģ £
e er
é §
ir es
Ġy ou
Ð°ÑĢ Ñħ
ĠN orth
Ġka w
áº ĵ
Ïĥ ÎµÎ¹
áĢ° áĢ¸
is wa
Ðº ÐµÐ½
Ġh ier
áİ ®
Ġi he
ÑģÐº Ñĥ
Ġ4 6
Ġq ur
art h
any ak
Ø§Ø¨ ÙĦ
Äħ Ê¼
Ġáİ¤ áİ¾
à»Ģàº ŀ
Ġ195 2
áİ¯ áı³
ĠSo uth
Ġà®ĩ à®¨
Ð´Ð¼ ÑĥÑĢÑĤ
y sk
Ġp le
ĠB and
ĠÐ½ ÐµÐ¼
ĠÐ¼ ÑĥÐ½
je c
ĠÏĦ Î±
sch t
Ġnga ahi
itu z
Ġ195 3
ÎŃ Î½
àµ¼ à´¤
è¨ Ī
ìĦ ±
ĠÕ´ Õ¥Õ
w l
áŀ Ī
Ġn Å«
ĠB ah
ãģ ĳ
Ð± Ð°Ð¹
ĠÐ´ ÑįÑįÑĢ
Ġpr em
áĥ£áĥ Ľ
Ġà¦ħ à¦¤
å± ķ
ĠØ¦Ûķ ÙĪ
à½ĳà½ĺ à½Ĥ
à¬¼ à¬¿
à¼ ½
Ð½ Ð°Ð³Ð°
à¨ ı
Ûķ Ø³
ĠÐº Ñĭ
Ð°Ð» Ðµ
Ġz am
Ãº bl
à´ķ à´¯
Ġme Ã°
ond er
ĠáĪ ĭ
ĠÊ» Oku
Ġ×ľ ×ŀ
áĥĶáĥł áĥĺ
ìł ķ
ĠÑĢÐ¾Ðº Ñĥ
Ġnya Ã©ta
Ġnafso oba
ĠÛ²Û° Û°Û
2 000
Ġ Åį
Ġd Ã³
at ak
ol as
Ð² Ð¾
Ã¡ ch
Ã¡ la
ĠL as
à¤® à¤¤
ĠÐ¾ Ò¥
Ûĩ Ø±Ùī
äº ŀ
ier i
Ġ195 5
Ġ193 7
ÉĻr ÉĻ
å¼ Ģ
Õ¡ÖĢÕ ¤
ĠÐŀÐ± ÑĮ
à¦°à¦¸ à¦Ń
Ġd Ã«
er al
Ġp om
Ġl ak
ti i
ra u
Ð· Ñĭ
ri es
Ġst or
Ùĥ Øª
áĥĶáĥĳ áĥ£áĥļáĥĺ
ĠÑİ Ñħ
Ġà¹ ĥ
ç¾ ħ
Ġáİ¾áıįáİ© áİ¾áİ¢
Ġcir c
a q
b ro
Ġk ala
à¥į ,
Ġv ill
à¤¨ à¤¸
ĠB ang
áĪ ±
od en
àµį âĢĮ
ĠÎ Ĵ
je j
ÑĥÑĢ Ð°
Ãµ s
å± ħ
ĠÎµ Î¯Î½Î±Î¹
áĥ ¯
Ġb ec
Ðº Ð¾Ð¼
àŃ ±
Ñĩ ÑĭÐ»
ĠØ³ ÙĪØ±
à±į âĢĮ
ÑģÐº Ð¾
ord s
Ð³ÑĬ Ð°Ð½Ð´Ñĭ
Ġìŀ Ĳ
ric t
áĥłáĥ Ĺ
Ġr it
Ã© i
Ġj ar
ãĥ ŀ
ran n
Ð¸Ð» ÐµÑĢ
sch aft
Ò³ Ð¾
mu ÅŁ
Ġ192 9
ft ir
Ġhabit antaro
ç½ ®
Ġlifay els
p re
an se
Ġs ah
Ġm ind
ĠÚ Ģ
ĠM un
ti co
à½Ĥ à½ĵ
ta c
li z
ĠÐ¸ ÑĪ
ĠÙĦ ÙĬ
ÐµÐº Ð°
áĢ½ áĢ²
agh yn
ĠFran cis
Ġye ar
ç© º
f on
å Ļ
Ð½ Ð°ÑĤ
Ġm Ã¥
Ġc oll
Ġc ultur
áİ ¥
Ġi i
ĠØ§ Øµ
ta in
ĠH al
ĠÚ© Ø§ÙĦ
ib o
eb i
ÛĨ ÛĮ
Ã¡n ÃŃ
à¸§ à¸ĩ
Ð³ÑĬ Ð°Ð½
íķĺ ìĺĢ
àªľ àª°
Ľ Ħ
Ð¼ Ð°Ð´
à¶ ·
im ba
ĠÑģ ÑĮ
Ġ19 17
ek en
iy et
Ãº r
Ġor bit
ure u
Ġàªª àª¶
ĠÛ±Û ³Û
ĠáĬĲ áīł
áºŃ p
d el
Ġn iya
Ġl le
à§ İ
Ġi ka
Ġj um
ĠB et
ap on
ĠÐ· Ð°Ñħ
à¦² à¦ķ
Ð¸ÑĢ Ð¾Ð²
áŀĦ áŀŁ
Ò£ Ð³
åĲ Ľ
à¶¸ à¶§
à®© à®°
rop oda
ĠÐ°Ð´ Ð¼
Äĳ u
ÅŁt ir
Ġà§¨ à§¦à§¦
ĠÕ« ÖĢ
u al
Ġd Ãª
er ie
Ġb lo
as k
it ud
ol s
ĠM es
ĠB otswana
ÙĤ Ø·
ete Ä©
Ġ193 6
àº· à»ī
ĠOr om
Ġorgan is
l ang
Ġa ga
Ġw est
Ä± lar
ĠT om
à¥ĭ .
ĠÑĥ Ð²
ĠÑĥ Ð·
Ġne u
Ġë ¬
åı ĸ
Ġàªķàª° àªµ
Ġd Ä±
Ġs Ã¼
Ġt un
ch ter
or en
or de
ĠÙħ Ø±Ø¯
Ú© ÛĲ
ob e
ĠÄ Ń
åį ³
ÅĨ u
Ð»Ð°ÑĤ Ð¸Ð½
áİ¦áı ĺ
Ġs ala
Ġe asti
Ġf em
Ġj ak
ĠÐ´ Ð¾Ð»
Õ¡Õ ¤
ĠØª Ø§Ø±
ĠJ anu
ĠÄ §
eb u
à¸²à¸ Ĺ
Ð¸Ñı Ð±
Ġto er
Ġth oma
ä¸Ń åľĭ
ï¼ī ãĢĤ
Ġinter n
Ġseg u
ï¯© ï»
0 6
Ġl ip
áı ¨
id z
ÃŃ v
Ø´ Ø§Ø±
ĠÐ¼ Ð¾Ð½
ara q
×¢ ×Ĵ
eng i
Ġì °
ÅĤ e
ĠØ± ÛĮ
Ġà¤Ń à¤µà¤¤
Ġà¤Ĺ à¤¢
Ġest is
ÑįÐ´ Ñį
Ð°Ð»Ñĭ ÒĽ
åĶ Ķ
ÛĮÙĨÚ¯ÛĮÙĦÛĮ Ø³
a in
er os
Ġv Ã¦
Ð³ Ò¯Ð¹
ed y
ĠP en
à½Ħ à½ĵ
ĠN av
ÑģÑĤ Ñĭ
ĠO m
Ġì Īĺ
ĠÑĩ I
ĠÑĩ ÐµÑĢ
Ð°Ð± ÑĢ
Ġdes ign
pa Ã±
ĠØ§Ø³ ÙĦØ§Ùħ
Ġwax ay
ĠØ¨ÙĪÙĦ ØºØ§ÙĨ
0 3
y al
å ļ
Ġd adi
in st
ÑĢ ÐµÑĤ
Ġs Ã¥
Ġo et
ĠH ul
iy ar
ĠØ¦ Ø§Ø±
Ġà¤¹ à¤°
ĠÑį Ñħ
à·Ģ à¶º
à¸ģ à¸©
áŀľ áŀı
Ġáİ¾ áıįáı
à²Ĺà²³ à²²
ĠÅ¾ e
åī ĩ
ç§ °
ç¸ ½
ĠAnim alia
I nd
Ð ¦
Ġà¤ Ĳ
Ġs á»ĳ
Ðµ ÑĦ
Ð» Ð¸Ð½
Ġm ug
il os
à¨ ī
ĠD ar
ay y
ĠÎ ĵ
Ġar te
ĠÑĥ ÑĤ
ĠÙĨ Ùģ
ÏĦ Î±Î½
ÖĢ Õ¡Õ¶
Ġam p
ĠÐ¡ Ð¡Ð¡Ðł
ĠÐ¿ÑĢ Ð¾Ð´
à²¯ à²ķ
çĶ °
Ġgad Äģ
k el
ĠÐ² Ð¾Ð·
Ġà´ Ĺ
Ð¾Ð¼ Ð°Ð½
à¤¬ à¤¨
àº¹ à»ī
ĠRep ubl
ĠÑħÑĥÑĮ ÑĢ
ĠØ®ÙĪ Ø´
Ġsuk at
Ġê² ĥ
Ġking dom
Ġmw aka
Ġgamp Ã´ng
l s
Ġs iv
Ġn ur
Ġn ok
à¸ Ł
Ġw ilayah
em as
Ġdi j
ro e
ĠR ober
ÑĭÐ½ ÑĭÐ½
ĠÐ¶ ÓĻÐ½Ðµ
ĠÑį Ñģ
Ġfr Ã¥
àº» à»Ī
ÑįÐ³ Ð´
Ġ×ĵ ×¢×Ŀ
Ġfil um
É£ en
ĠIt al
ĠáĬ¥ áĬĵ
ç» ı
Ġling u
Ġfir st
Ġê° Ģ
Ð¾ÑĢÐ´ Ð¾Ð²
Ġec onom
à¸Ħà¸§ à¸²à¸¡
g et
er na
Ñĥ Ð´Ð°
×ķ× ĺ
à¬° à¬ķ
Ġthe ir
à¤· à¤¯
ÑĥÐ½ Ð´Ð°
iss ion
ØªØ± ÛĮÙĨ
Ġsal ah
M A
s Ã¥
z an
Ġr an
ĠS ing
Ð°ÑĢ Ð°Ð±
à³į à²Ĥ
Ġdi c
Ã³ p
ĠÑĤ Ð¾Ð³
og en
Ġle is
ãĤ Ń
ÐµÐ´ Ð¸Ð½
áŀŁ áŀĵ
ĠÙģ Ø§Ø±
ier re
ĠÃ½ yl
Ġ192 1
Ġà²ľ à²¨
Ġngwagengk golo
w eg
z ione
â µ
in os
Ġl Ã¤
at y
Ġh ans
ag al
ĠÐ¿ Ð°Ñĩ
ÉĻ h
ĠÙ¾ Ûģ
eb Ã©
Ð¸ÑĤ ÐµÐ»
ÙĨØ¯ ÙĬ
ÐµÐ· Ð´
Ø§Ø³ Ùī
Ġwerd en
æ §
æ į
ì ²
Ġ íķ
áĢ ĩ
Ġa Ã§
Ġt v
Ñĭ ÑĨ
Ġb ase
ol ong
ĠÙħ Øµ
Ð¿ Ð¾Ð»
ĠÑį Ðº
Ġáĭ °
ĠØŃ Ú©
Ð¸Ð³ Ð¸
Ġloc al
X X
Ð½ ÐµÑģ
ĠP eter
áĪ ļ
ent ina
ot ball
ĠÐ² Ð¾Ð¹
ĠØ³ ÙĨÚ¯
ÅŁ Ä±
Ġer e
Ïģ Ïĩ
Ø§Ø² ÛĮ
Ġmer k
Æ°á» Ŀi
ĠUk ra
z w
ç ĸ
Ġl ane
Ġb uk
ĠB ras
ĠÐ± ÑĭÐ»Ð°
ĠØ¨ Ú¾ÛĮ
Ñĸ Ð½Ð´
Ġla in
ĠØ³ Ø§Úµ
ĠáĢ Ĵ
ĠÙ¾ ÙĪØ±
az ion
ĠØ´ ÛĮ
à¾Ĳ à½´
æĪ ĺ
Ġsk up
ĠÐķ Ð»
Ġà¶ħ à¶±
åĨ į
ĠAmer ican
áıģ áİ¸
æ´ »
èī ²
ĠpÃ¤ iv
à»ĢàºĹ àºĶ
ĠÐ Ī
Ġn uk
ad n
Ġy m
Ã¡ z
ĠC re
Ġà° ¶
ĠÙĦ Ø§
Ø® Øµ
ĠØ± Ûģ
Ġav ou
Ġcu i
ÛĪ Ø´
Ġà²ħ à²µ
Î³ Îº
ãģ§ ãģĤãĤĭ
Ġmay sa
ë© ´
d s
e ar
w ak
er r
Ġs imb
Ġa va
at as
as p
ÙĪ Ø§ÙĦ
à¤° à¤¶
à¤¤ à¤¤
Ġj wa
ĠÐ± Ð¾Ð¹
ĠI g
Ã¨ u
âĢĭ âĢĭ
à¸²à¸ ª
Ġ4 7
Ġper m
ĠÙĥ Ùī
ÑĥÐ³ ÑĬ
eder b
Ġkas ar
Ø° Ùĩ
Ġpapul asyon
c Äģ
Ö ¼
à¥ ¯à¥
Ġd d
Ġg ab
ĠØ§ Ø¬
ed es
ĠÐº ÑĥÐ½
ĠØ¨ ÙĬÙĨ
op tera
áĥĺáĥ ķ
ĠÐ¾ Ð²
av on
Ġte am
Ġbe f
æĪ ĳ
Ġingk ang
v ent
Ġd ass
Ġn ame
à´ ĸ
et tu
Ġc ost
Ġf as
ak y
Ġj ez
ig r
Ãª l
ĠØª ÛķØ±
ob i
ny s
Äķ ÑĪ
sh ip
Î» Î±
man uel
áĢ½ áĢ¬áĢ¸
ĠÑĥÐ» Ð°Ñģ
à¦ĸ à¦¨
Ġaut or
ĠØ³ÙĨ Ø©
ĠÐ±Ð°ÑģÑģÐµÐ¹Ð½ Äķ
ĠArth ropoda
t ing
Ġm pe
or b
ĠA ut
à± ĥ
Ġà´ ²
Ġnom bre
×ķ×Ĳ ×¨
ĠØ¨ÙĪÙĦ ÛĩÙ¾
áº¿ t
w ah
ÑĢ Ð¾Ð²
ÑĤ Ñĥ
Ġn icht
Ġl ek
Ġh á»į
ik ol
à½Ĥ à½¢
ĠÐ± Ð¾ÑĢ
ĠÑĤ Ð°Ð¹
ĠÐ½ Ð°Ð»
ĠÐ½ ÐµÐº
ĠØ§ÙĦ ÙĦ
ĠØ¬ ÙĨÙĩÙĨ
ÞĤ Þİ
ĠÐ¿ÑĢ Ð¾Ð³
áĥķ áĥĶáĥļ
éĢ ł
Ġà²ī à²ª
ÑĸÐ½Ñĸ Ò£
w est
Ø§ ÛĮÙĨÚ¯ÛĮÙĦÛĮØ³
Ġn ec
àª «
Ð´ ÐµÐ»
ng Ã®
Ø§ÙĨ Ùī
ĠÐ´ Ð¾Ð½
Ð¸Ð½ Ð¸Ð½
la w
à¦¨ à¦¨
eb a
ÙĪÙĦ ÙĬ
pi u
æĿ ĳ
éĥ ¡
q s
© Ù
Â ´
Ġ à½ŀ
ik l
Ġan nu
Õ¡Õ ¢
Õ¡Õ Ń
ĠV o
ĠÑĥ Ñģ
ÑģÐº Ð°Ð³Ð°
Ú¾ Ø§
å® ¢
ĠÅ ½
áĥĲáĥľ áĥĺ
áĥĶáĥĳ áĥ¡
èĳ Ĺ
l ic
¹ Ħ
Ø± ØŃ
il y
Ġv ide
Ġw ho
st ad
ha x
ĠÙĤ Ø§ÙĦ
Ġà¤¬ à¤¸
sch en
Ġà¤ī à¤¨à¤ķ
ore a
ÏĮ Î½
oma al
áİ¯ áıįáıĹ
Ġfin al
Î¹Îº Î¬
à½ĳà½Ģ à½¢
0 9
] âĢĭ
Ġm Äģ
Ġk Ãµ
Ġk iye
Ġv á»Ľi
Ġf et
Ġi Ã°
à¤¯ à¤ª
ĠU ni
Ð¸Ð¹ Ñĭ
Ïģ Î¬
all o
Ġur u
Ø§ÛĮÙĨÚ¯ÛĮÙĦÛĮØ³ Ø¬Ùĩ
Ġt ing
ĠM ir
ti ma
Ð± Ð°ÑĢ
ĠÐ¾ Ð½Ñĭ
ÑįÑĢ Ð¸
áŀĻ áŀĵ
ĠáĥĽ áĥĲ
ĠLe on
à½ĺà½ģ à½ĵ
ïºİ ï»
ederb Ã¶rd
æ £
ç ĳ
Ġv Ã¡
ĠS erb
ĠáĢ ĺ
áĬ ¥
áĥĲáĥľ áĥ¡
Ð°Ð¶ Ð°
ament u
ĠÏĢ ÎµÏģ
×¢×ł ×¢×Ł
é« Ķ
b ula
ļ Į
ÙĦ Ø±ÛĮ
Ġg ans
ĠS pe
ag at
ĠK or
ĠØ¯ Ùħ
à·Ģ à¶ļ
àº° àº«
ĠÑĦ Ð¾ÑĢÐ¼
v oj
Ġs eri
ĠS ikato
ik t
à« ĥ
ug i
Ġel la
Ã± o
Ġser b
Ð»Ñĭ ÑģÑĮ
ĠÐ¿ÑĢÐ¾ Ð¸Ð·
Õ´ Õ¡Õ¶
Ġ×ķ×ķ×¢ ×ľ
d at
j am
Õ ·
Ġ à½Ĳ
Ġv ot
ÐµÑĢ Ð½
ie f
Ã¶ Ð¼
Ġà¥ ª
Â» ØĮ
áĢ¼ áĢ¯
áĬķ áĮį
Ġà¤ı à¤¹
áĢ½ áĢ±
à½ī à½ĺà½¦
Ġwal ad
Ġnafsooba alchaa
A b
à¸ Ĳ
ur it
Ġw Ãª
and ro
ĠÑħ Ð°Ð¹
ĠÙĦ Ø±ÙĬ
Ġko h
àºĶ àºį
ĠCom m
à½ĺà½ģ à½¦
èŃ °
c ar
on ti
at ori
ĠÃ Ĵ
ĠM ic
Ð· Ð´
à½ĵ à½Ĥ
ĠH i
Ã§ i
à¸²à¸ ŀ
ĠÐļ Ð¾Ð½
à´° à´£
Ġà» ĥ
à¾£ à¼ĭ
ÓĵÐ» ÑĤ
Ġá¹ £
ĠÐºÄķÑĢ ÐµÑĤ
Ġm ie
Ġm az
al ta
Ðº Ð°Ð¹
om u
us te
ĠB ra
ĠT ra
à½Ħ à½Ĥ
ĠR esp
op il
Õ¡Õ ·
Ãł t
ĠÑĥ Ð¼
ran i
ĠØ¹ ÙĦÛĮ
áį ¡
à½ļ à½ĳ
à½Ł à½ĳ
ĠMe x
à½ĳà½Ķ à½£
Ġà®ī à®³
d et
k it
Ð» Ð°Ð½Ð´
Ġt la
am it
om er
ĠA ss
ta i
ĠØ§ÙĦ ÙĪ
áī ¡
ev o
Ð°Ð· Ñĭ
ĠÙĤ Ûķ
ua ir
land i
çļ Ĩ
ĠÓ© Ð¹
Ø§ÙĪ ÛĮ
Ġah n
wo od
Ġpopul ation
ÓĻÑģ ÓĻÐ¹
Ġs lu
Ġa ki
Ġp oh
áŁ ¢
ĠØ¨ Ø¹
ut ang
ĠÙĪ Ø§Ø±
ĠÑħ ÑįÑĢÑįÐ³
à²¦ à²¨
Ø§Øª ÙĪ
Ġáīł áĪĺ
Õ¥ÖĢ Õ«
àªĹ àª®
ĠCo unty
j Ãº
Ġt Ã¨
Ġp s
Ġm end
Ġn ama
al de
at ro
Ġh Ã´
Ġi ch
ĠÐº ÑĭÑĤ
ĠÐ± ÑĥÐº
ig in
ĠÑĤ Ð¾Ð½
ÑĦ Ð¾ÑĢÐ¼
åľ Ł
ï» ®
Ġok t
Ġdis p
à¹Ħ à¸Ľ
Ġcl ub
ç¦ ı
ĠÑĤÐµÑĢÑĢÐ¸ÑĤÐ¾ÑĢ Ð¸Ñı
ĠÑĥÐ½Ð¸ Ð²ÐµÑĢÑģÐ¸ÑĤÐµÑĤ
Ĳ ľ
Ġk ale
Ø± ÙĨ
ad in
Ð³ ÑĢ
Ġáĥ łáĥ
ĠÙĪ Ø²
Ã¨ e
ĠÑĢ ÐµÐº
Î¹ Î¬
si Äģ
Ġkab aleg
Ġllaqta pi
g ang
Ð» Ð°ÑĢÑĭÐ½
Ġn ou
Ø¯ ÛĲ
ak in
ÑĮ Ñİ
ĠK ap
Ã³ i
ig s
Ø¨ ÙĨ
ĠJ i
ĠØ¬ ÙħØ¹
int s
rit z
à¸ģ à¸¥
ÐµÐ² Ð¸
ĠUn idos
áİ´ áıħáıĵ
ä¿ ®
éĿ ŀ
á»ĩ n
ìļ °
Ú Į
Ĭ ¸
Ġv ul
ĠD it
ab at
ÃŃ d
ĠÐ½ Ð¸
ÑĭÐ½ ÑģÐ°
li f
ĠÐ³ Ðµ
Ġma a
Ġ4 9
ĠÃ¡ l
Ġà²ħ à²µà²°
à»ģ àº¥àº°
Ġtel ah
Ġkel as
Ġà¹Ģà¸ Ľ
êµ ¬
ĠÐ¾Ñģ Ð½Ð¾Ð²
åķ Ĩ
Ġëĭ ¤
i je
n n
y z
× ¥
Ġd od
en en
Ġp ow
Ġk esk
Ġb á»¥
×Ļ× ĸ
Ã® t
Ð°Ðº Ð°
ij iet
à¨° à¨®
ĠÙģ Ø±Ùĩ
áŀĦ áŀĸ
Ġ6 00
Õ¸ÖĤÕ ½
ult an
ĠÐ°Ð» ÑĮ
å¸ ĥ
ĠØ¨Ø± Ø§ÛĮ
åĳ ¨
à½± à¼ĭ
S E
p is
on as
Ġp eteÄ©
Ġb Ã©
el f
àª ı
ĠÃ µ
Ġw Ã¤
ĠØ§ Ø¤
áĪ Į
Ġla v
ĠH is
Ã´ s
Ġà¤ħ à¤Ĺ
Ã± e
ĠØ¢ Ø²
ĠIn t
Õ¡Õ¶ Õ«
à®ª à®¤
Õ¸Õ ½
ĠÏĦÎ¿Ïħ ÏĤ
Ġlug ar
ÐºÐ¾Ð½ Ð¾Ð¼
áº§ n
Ġnw ere
Ġà¤Ĺà¤¢ à¤µ
Ø§ Úª
at n
Ġo yo
Ġf yri
ĠØ¯ Ùī
ov en
Ð°Ð³ I
Å¾ a
Ø§Øª Ø§
Ġà¤Ĩ à¤¯
Ð¾Ðº Ñģ
rat ti
áıĵ áİµ
Ġfil os
201 3
Ġbat ho
Ġà¥¨ à¥¦
ĠkÃ¶ z
Ġd ze
us ia
Ø¯ ÛĴ
ak en
à¤® à¤²
Ġen w
ĠH istor
ĠÐ¸ Ñħ
Ġle v
Äĥ Ð»
Ġre aliz
Î· ÏĤ
ĠÐĴ Ð°Ñģ
Ġmo un
Ġà¸ Ń
áĢĽ áĢĦ
hu an
ÛķÚ© Ûķ
ĠØ¨ÛĮ Ùĩ
ĠÐ³ÑĮ Ð°Ð±
ĠÙĨÛĮ Úº
ĠÐ¿ÑĢÐ¾ ÑĦ
h es
Ġs uku
Ġm ost
Ġc ikin
ĠÚ Ĭ
ĠÐ± ÑĥÑĢ
ĠØ³ Ûķ
Ġng Æ°á»Ŀi
und er
Ġáĭ į
Ġpa ÃŃs
ÑĥÐº ÑĬ
Ø° Ø§
ĠAb d
à»Ħ àºĽ
Ġáĥŀ áĥł
ĠWik ipedia
Ð ĸ
ç ĭ
Ð½ Ð°ÑĪ
Ð² ÐµÐ»
Ø¯ ÛĮØ§
ĠÑģ Ñĭ
ab aw
Ø´ Ø§Ùĩ
×ķ× Ĺ
lar yÅĪ
ĠÚ¯ Ùĩ
ĠÐ¶ Ðµ
ëĭ ¨
éĹ ľ
P r
ÑĤ ÑįÐ½
Ġb Ã»
Ġw ol
ĠA ri
ĠM use
ãģ ¤
×ķ× ĸ
ĠÙ¾ ÙĨØ¬
Ġter it
Ã©n t
à»ģ àº¡
azi un
Ġcl ass
ĠÑįÐ¼ Ð´Ð°
ÑĨÐ¸Ñĺ Ð°
c ed
s yn
É Ĺ
Ġ ÖĦ
or io
Ġc os
ĠØ¯ ÛĨ
ĠG ri
Ð°ÑĤ Ð¸Ð²
Ġà¤¸ à¤¦
ĠJ uan
Ġar r
ĠØ± Ø§Ø³
Õ¶ Õ¥ÖĢÕ¨
áŀĺ áŀĵ
Ġak an
à¹Ģà¸ Ī
Ġà¤¶ à¤ķ
uw en
Ġpop ol
Ġà°¸ à°®
Ã¬n h
ĠGe org
ĠØ±ÙĪ Ø²
ĠÐ°Ð¹ Ð¼
Ġh oj
Ġg ou
Ð³ Ð°Ð»
Ð² ÐµÐ½
ĠM y
ĠÑĤ ÑįÑĢ
ĠâĢ ł
ĠÐ½ ÑįÑĢ
Ò¯ Ð¿
ĠV il
Ġpr esi
à¦¤ à¦¨
åı ·
enn u
Ġí ĥ
Ġbh ÃŃ
ä¸ĸ çķĮ
ĠÙĤØ± Ø§Ø±
Ġpach ak
S u
s id
y tt
Ġt ako
Ġb Ã¶l
Ġf Ãł
Ġin k
Ġy il
ĠÙħ Ùħ
Ã¨ k
Ð¸Ð½ ÑĩÐ¸
Ġal la
Ïģ Î³
à½ģ à½ĺà½¦
sch a
Ġà¼ ¡à¼
Ġex emp
áŁī áŀ»
ĠØ¦ÛĨ Øª
E urop
f un
q ar
s ome
Ġ à½ĳà½Ĥ
it ur
Ġo ko
te e
ta hi
ia c
ĠK am
ĠØ¨ Ø§ÙĬ
ĠJ uli
je ct
à²¤ à²µ
ĠØ´ ÙĪØ±
Ġà¤¬ à¤°
emb ro
Åį r
à¸µ à¹ī
éģ Ĥ
Ġ195 1
ĠÅ¡ t
ĠÃ½ a
Ġà¶ĳ à¶ļ
n ja
n ica
Ġp ast
Ġo w
Ð³ ÑĮ
ĠØ¯ ÙĦ
Ú¯ ÙĪ
ell er
Ġman ip
ÑĨÐ¸ Ð°Ð»
Òķ Ð°
Õ¾ Õ¡Õ®
ìļ ©
dabin ons
ĠRober to
l ja
Ð° Ã§Ã§
Ġd ra
Ġs Äĥ
Ġb ug
Ùī Øª
ĠD h
Ġle h
Ġà¥ ¬
ĠU s
Ùģ Ùĩ
à²ķ à²°
áŀĦ áŀĶ
Ġàº Ń
ĠÃ¡ r
ĠÐ°ÑĢ ÑĭÐ½
aro a
Ġess et
ĠNob el
Ġs uka
áŀ ĥ
Ġm Ãł
Ġm ins
Ð´ ÑįÐ³
ĠÃ ĵ
áı Ĳ
Ġw ot
ĠP ap
Ġ19 14
ĠÑĤ Ð¾Ð¼
ing an
à½ł à½Ĳ
Ø¬ ÙĨ
à¦² à¦¯
Ġ×Ĳ ×ĸ
Ġmin angka
ÙĦØ§Ø± ÙĨÙīÚŃ
Ġ×ĸ ×Ļ×ļ
ĠÚ©ÙĬ ÚĸÙĬ
×Ļ×ł ×¢
Ġbah in
áĢĿ áĢĦ
è¶ Ĭ
æĥ ħ
áĪĨ áĬķ
m ay
w ard
Ġ Ð°Ð³Ð°
Ġs Ã£
Ġv in
Ġf ebru
ag na
Ä± ld
ĠÑĤ ÓĢ
ÑĬ ÑħÑĮ
ĠÐ´ ÐµÐ½Ðµ
ĠØª ÙĪØ±
ĠÐ³ Ð¾ÑĢ
à²¨ à²²
Ø² ÙĪ
Ġno ong
Ġon ye
à´¯ à´®
ÑĥÐ¼ Ð°
Ġà²ħ à²¤
Ġ193 4
Ġhan esan
ÅŃ ng
àº½ àºĩ
ĠXV III
icha el
m ir
Ð» Ò¯Ð¼
Ġc s
Ð³ Ñį
us c
ĠL uc
ĠÙ¾ Ø§Ú©
à¦¤ à§°
ĠØ¦ ÙĪØ±
Ġma x
Ġko Ê»
à¹Ģà¸ «
ĠÃ¤ l
Ġàº Ī
Ġmen jadi
ĠÙħØ± Ú©
åı¯ ä»¥
Ð´Ð°Ð³ Ñĭ
khi Ã©u
Ġt wo
Ġk Ã»ng
Ñĭ ÑĤÐ°
Ġb ere
as in
áı Ķáıħ
ant on
oo f
×© ×ľ
Ġ×© ×Ķ
à¬¬ à¬°
Ġcont in
áĥĶáĥ¤ áĥ¡
ĠáıĤ áİ¦
ĠXV I
ĠNgwagak ete
Ġdhi worth
ĠÚ©Ø´ ÙĪØ±
ÑĥÑĢÑĥÐ´ Ð³Ð¾
- -
0 8
y w
è °
Ġa te
Ġm ud
el ek
Ġh il
Ġg ot
ĠN ag
ĠÙĪ ÙĤØª
ĠE in
Ġu ku
ie w
ĠF ilm
se e
à¨° à¨¸
Ġdes de
àºĻàº ª
Ġà¦ı à¦Ł
Î® ÏĤ
ros s
æ¨ Ĥ
Ġngwageng some
chh Ä«
ÑįÐº ÓĢ
ìĽ Ķ
Ġngwagengk ete
ĠNgwagak golo
A R
l Ã¤
Ġs emp
Ġp av
Ġk rit
at io
ch an
à° ĸ
Ġh Ã¸
Ã¡ ny
ĠÑģ ÐµÐº
ĠÙĪ Ø´
ĠE w
×Ļ× ¦
ÑĨ Ñİ
ĠÎ »
Ã¢ y
ÉĻ d
Ø¹ ÙĨ
Ġì §
Ġì ļ
Ùģ ÛĮ
ĠÐļ Ð°Ð½
Ġ4 1
Â» )
ÚĨ Ùĩ
amp ion
Î¿Ïħ Î½
à°µ à°¸
ĠØ¨ÛĲ Ø±Ùī
0 7
g ro
Ġl agu
is ce
os sa
ĠA li
ÑĪ Ð¾
ĠÑģ Ð»Ñĥ
Ġan ni
uk k
na Ã°
da w
ĠØ§ÙĦ ÙĦÙĩ
Ãµ q
Ø· Ø§ÙĨ
Ġann s
Úĵ Ùĩ
ĠìĿ ¸
Ġvol t
g ra
Û ³
Ø§ ÚŃ
Ġa uch
Ġp ure
ch ri
ak ten
ik h
Ø³ ÛķØ±
ĠP ang
Ã¤ ll
ĠÑģ Ð¸
ĠÑģ Ð»
ĠÐ± Ò¯ÑĢ
ah e
à½ĺ à½ī
ĠV ic
ĠW ash
áĢ¼ áĢ¬áĢ¸
àº± à»Ī
Ġmen y
Æ°á» Ŀ
Ġklas e
Ġray on
áĭļ áĪħ
i Å¡
å ´
er ing
Ġp ubl
al er
Ġg Ã³
ĠÐº Ðº
ic y
ĠØ¯ Ø³
ĠH or
ap ada
Ġáİ £
ion a
Ġqu a
à°¿ ,
ĠÅ º
Ð¸Ð´ Ðµ
201 5
à¸Ī à¸°
ĠÐ¸Ð· Ð´
à¬ª à¬°
è¾ °
ĠØ³Ø§Ø² ÙħØ§ÙĨ
ĠWind ows
Ġpachak wata
c tion
v as
Ĥ àºŃàºĩ
Ġn n
Ġl ud
Ġg n
Ġf iv
áı ī
ĠT ai
Ġz d
à¤¸ à¤²
ĠG ran
ĠF ried
àª¾ .
Ġpr v
ÑģÐº Ð°ÑĤÐ°
ou a
Ã» r
áĢ½ áĢ¾
å¸ «
Ġsc rit
ÑĥÑĮ Ð½
áıįáı Ĩ
Ġartik el
é¦Ļ æ¸¯
t in
u un
Ġb esk
Ġo tor
Ġe is
à¤° à¤ľ
ĠÙĪ ÙĬÙĪ
Ġst Ãł
Ġak k
ĠUn ion
200 2
Ø³ÙĦ Ø§Ùħ
ador es
ëį °
Ð»ÐµÐº ÐµÑĤ
' re
d ag
m ark
u va
Ġn Ã¨
áĥĺáĥ Ĵ
Î¿ Î¼
ĠÛ °
ĠØ¬ Ø³
Ð´Ð° Ð°ÑģÑĤ
Ġà¤¨ à¤¦
ÐµÐ´ Ñĸ
Ġ×Ķ ×ł
à²¸ à²°
ĠØ¬ÙĬ Úª
ĠSch ool
ĠáĥĲáĥ ł
idad es
ĠÐ±ÑĥÐ¹ ÑĭÐ½ÑģÐ°
l it
n Ã½
z as
Ġl ÃŃ
Ñĥ Ñĭ
à´ «
Ø¯ ÙĪØ¯
ĠÞ ¢
à¤ª à¤¯
ãĤ ı
Ġà¤ħ à¤¶
Ø¦ Ùħ
ĠÃł wá»įn
ĠÚª ÙĬ
ĠÚª ÙĬÙĪ
Ġ193 5
Úĵ ÙĬ
àº½ àº§
A t
or gan
ĠM aj
ĠC e
Ġna Ê»e
og n
ug o
Ùĥ Ø±
Å¼ i
bu ah
Ġ192 4
ike un
Ġrel ig
b ayan
g el
s ti
un ci
áı Ĩ
ĠÑĤ ÑĥÑħ
ers on
ĠÐ· Ð²
Õ« ÖĢ
Ûģ Ø±
aka i
Ġki ÅŁi
áİ³ áıĹ
Ġrev en
ĠàŃ §àŃ
Ġà¦ľà¦¨ à¦¸
çł Ķ
Ð°Ã§Ã§ ÐµÐ¹
I m
Ġp oc
ĠB ill
ĠP lat
ĠÑģ Ð¾ÑģÑĤ
ĠÑĤ Ð¸Ðº
áĥĲáĥ ¬
Ñĩ Ð¸Ð»
ĠG ir
ĠÚ© ÙĪØ±
Ã¢ âģ¿
ac c
Ġya ÅŁ
Ãµ h
Ġim per
any o
ĠÃ§ h
ĠÒ¯ Ó©ÑĢ
à»Ģàº ¥
Ġ×© ×ł
æŃ Į
æ° ı
Ġfar itr
ĠÐ¿ÑĢÐ¾ ÑĨ
ĠáĪĭ áĭŃ
ĠÙ ¢
Ġg ri
Ġr ÄĽ
ig t
Ã¶ tt
Ġsa u
ĠÑĥ ÑĭÐ´
×Ĳ ×¤
Ġke essatti
à¤· à¤ķ
ĠÑĩ Ð¸
Ġsp ec
Ġáİł áİµ
Ġáı Ļ
Ġ8 00
à»Ģàº Ĭ
Ġáĥ¡ áĥĲáĥĽ
ĠÏĢ ÏģÎ¿
ron an
Ġ192 8
æ³ ¢
ĠÄ« pan
Ġlat er
Ã¦Ð¹ Ñĭ
Ġgener al
Ġnyo e
Ġ à½łà½ĳ
or ie
Ġc Ã¼mÃ¼
Ġr ive
ĠS ab
ĠD ay
ĠÐ² Ð¸ÑĢ
áĭ Ľ
à¸²à¸ Ī
ĠÙĤ Ø§Øª
Ø§ÛĮ Øª
ans el
à¦¬ à¦²
Ð³Ð° Ð°
Ġmag nit
Ġkl ub
Ġs ho
Ġp ea
ch Ã©
Ð² ÑĭÐ²
ĠÐº ÑĭÑĢ
Ã¡ b
Ð°Ð» Ð³
ĠK en
eg h
ĠF orm
ĠV I
az e
Äį Äį
àª° àª®
ĠÑĩ ÑĤÐ¾
ĠÐ» Ð°ÑĤ
oj u
à½Ĩ à½Ĥà½¦
ÙĪÙħ ØªØ±
Ġmar ka
Ø±Ø¯ ÙĨ
ïº Ń
ÓĻÑĢ Ðµ
ĠÐºÐ¾Ð¼ Ð¸
ç´ Ħ
Õ¸ÖĤÕ©ÕµÕ¸ÖĤÕ¶ Õ¨
ÎµÏĦ Î±Î¹
Ġìĭ ľ
ëŁ ¬
P ro
d Ä±n
Ð½ Ð¸Ð¼
Ġs ad
Ġl j
es ia
à§ ¯à§
Ġv ÄĹ
Ã¡ va
ĠØ¨ Ø§Ø¨
ĠØ¯ Ø³Øª
ĠÑĤ ÑĥÑģ
ĠR ed
à¤µ à¤®
Ð¸Ð½ Ð´
ĠÐ¶ Ð°
ĠÚĨ ÙĬ
áŀĬ áŀĽ
æĺ Ł
Ġsk ri
Ġ193 3
amm ad
sc zi
ĠÐºÐ°Ðº Ð¾
w on
Ð½ Ñİ
Ġt ik
Ġt ud
Ġm um
Ġk ill
ĠÙ ½
Ġw Ã³
Ġw ara
ĠØ¨ ÛĬ
eg r
ob h
ĠÐ¡ Ð¾
àº° àº¥
à¤ı à¤²
ÑĭÑģ Ñĭ
å¼ µ
ĠPh ilip
ĠÐºÐ¸ Ò»Ð¸
ÌĤ -
ÄĹj ÄĹs
ĠDip tera
f Ã¸
h ib
p in
Ġm est
Ġb adan
ĠS z
ĠÙħ ÙīÙĦ
áĥĲáĥ ¦
ri u
ĠÐ´ ÐµÑĢ
à¤Ĺ à¤®
Ġì ²
ÅĤ u
Ġà¤Ĩ à¤µ
Å« r
Ó¹ ÑĨ
Ġ×Ĳ×Ļ× ł
çĻ ½
ìł ľ
zÃ« b
ç¸ £
ĠSept ember
k ap
z et
è Į
Ġs Ã¼nd
Ð» Ð°ÑĢÑĭ
Ġt ub
Ġk le
es ha
Ġb iri
ĠÐº ÑĥÑĤ
Ã¡ in
ĠP ed
ĠC atal
ĠÑģ ÐµÐ»
áĪ Ĭ
ut ti
ĠÐ¼ Ð°Ñģ
ĠáĢ ļ
ib wa
×¢ ×ŀ
ĠU t
Ð¾Ð´ Ð¸
Ġsu ur
ĠÐĲ Ðº
ĠÑĩ ÓĢ
ga u
oh n
à·Ģ à·ĥ
ĠÅ ļ
ĠÛĮ Ø¦
ÒĽ Ð°Ð½
Ġà²ĩ à²¤
Ġáİ¤áı ¤áİµ
ĠAmer ica
ĠÅĤ e
Ġold u
ĠÐ¾Ò¥ Ð¾ÑĢ
a Ã°
Ġm Ã©s
Ġm ula
Ġe w
Ġe it
Ġr im
ĠÐº ÑĭÐ·
ĠÐº Ð¸Ð¶
ro o
Ġse buah
ĠØª ÛĲ
ĠÙĦ Ø¦ÛĮ
Ø¬ Ø§Ø±
Ġha avon
ĠÃ¾ Äģ
Ġí ı
ÛķÚ© ÛĮ
æŀ ľ
ĠÕ¥ ÖĢÕ
adr ado
Ġhog y
" ).
r il
w anda
es ar
Ð¼ Ð°ÑĢ
Ð¼ Ð°Ð»
Ġr ip
em s
Ġz ijn
Ð°Ð¹ Ð´Ñĭ
Ð¾Ð² Ðµ
ÑģÐº Ð¸Ñħ
Ð¾Ð¼ Ð¾Ð½
Ġth u
Ð¸Ð· Ð°
ä¸Ģ åĢĭ
Ġ192 2
Ð±ÑĥÑĢ Ð³
ĠLou is
k ir
v ver
Ġ Äģ
Ġc ari
ĠS ic
Ġj er
ĠL iet
op le
Ã¦ g
ĠÙĦ Ùħ
Ø¬ ÙĪ
à»Ģàº §
à½łà½ĳ à½¦
éģ ¸
Ġvi et
Ġ193 2
æĶ ¯
ĠÐ°Ð² ÑĤÐ¾ÑĢ
ãģ§ ãģ¯
à¹Ħ à¸¡
Ġà¶º à¶±
ĠTim Ã³r
Ġà¤ ĳ
ÑĢ ÑĭÐ¼
am me
Ġj az
ĠC BS
à¥Ģ -
ah ay
ĠÑĤ ÐµÐ»
ĠÑĤ ÄĥÑĢ
Ø¨ Ø§ÙĦ
ĠÙĪ Øª
ĠR es
Ø´ Ùħ
Ð¶ Ð°Ð²
iy y
ow ych
áŀĶ áŀĦ
Ð°Ñħ Ð°ÑĢ
Äĵ o
áĥĲáĥľ áĥĵ
éĢ £
æ´ ²
Ġkilom et
áĥĺáĥĿ áĥľ
ĠGreg orian
Ġhev ur
Ù «
Ĩ Į
an ske
Ġs is
Ġt ant
Ġm ap
Øª ÛĴ
áİ ¿
Ġi me
Ùī Ù¾
Ġj ur
ĠL ev
ĠÙĦ Ù¾Ø§Ø±Ùĩ
Ġ×ĳ ×¨
ä½ ķ
×Ļ×Ļ× ľ
Ġ×Ļ ×Ĳ×¨
àºĦ àº§àº²àº¡
Ġprof ess
ç½ Ĺ
ĠÐłÐ¾ÑģÑģ Ð¸Ñı
t Åį
Ġ ?
al g
Ðº Ð»
Ġo x
Ġf h
us to
ia h
ĠÑģ ÑĳÑĢ
Ð°Ð¹ Ñĭ
ĠáĢ Ŀ
ãĥ Ĩ
à¸Ļ à¸Ļ
Ø® ÙĪ
Ġmet atra
ĠØ£ ÙĪ
Ġpri v
lig i
à°¬ à°¡
Ġà®Ĵ à®°
t ol
Ġm yr
Ġn ti
is Ã«
ĠÃ Ī
Ġj Ã¤r
à¦¾ )
ĠC D
ĠÑĤ Ð¾Ð´
Ð¿ Ð¾Ð½
ãĤ Ħ
ĠØ¬ Ùħ
Ġà¤ħ à¤µ
Ùĥ ÙĦ
ÙĦÙī ÙĨÙī
ĠÐľ Ð°Ðº
ier a
áį ¤
Ġav ec
Î» Îµ
Ġ25 0
Ġmay or
ÅĨ a
Ġìł ľ
ĠMart in
Ġs ame
áĢ ī
Ġa Ã½
Ġt Ä«
es u
Ġw ali
ÑĮ Ðº
id n
ic us
ĠT rans
and in
ay na
Ġma oy
Ù¾ ÛĮ
oc rat
ĠAn n
à¬¤ à¬°
ĠÒ¯ Ð½Ð´
ash on
ÙīÙĦ ÛķØ±
ĠÎ± ÏĢÎ¿
Õ«Õ ¿
lad Ä±
Ġplan Ã©t
Ġkont ak
Ġà¶ļà¶» à¶±
aliforn ia
A N
F L
{ {
à² ħ
Ġt iene
Ġm ann
al ik
it is
am is
Ġv eri
Ġf os
Ð³ Ó©
Ø¯ ÙĪØ±
im at
ĠP os
ĠP enns
ĠÐ± Ò¯ÑĤ
li p
ĠØ¦ Ø§ÙĬ
Ġsu v
Ġet c
æľ ª
Ġon a
à¤¥ à¤®
Ġ192 6
ĠÕ° Õ¥Õ¿
Ġik ke
áĥĶáĥļ áĥ¡
ĠÑģÐ² Ð¾
çµ Ĳ
Ġnah im
á»± c
ç® ¡
ĠÐ±Ð¾Ð»Ð³ Ð°ÑĪ
b t
k Ã²
y ll
} }
Ġs ug
Ġl ahi
Ġg at
áŁ Ĺ
ag ne
ĠT al
Ġz at
ent os
ĠH it
ĠÚ© Ùī
Õ¡ ÖĦ
ĠÐ² ÑĭÑĢ
Ġà¤¸ à¤¤
ĠØ³ ÛĮØ§
ÛĲ ØªÙī
à½Ĥà½¦ à½¢
ĠÙĤ ÙĪ
àªµ àª¸
Ġmo om
ĠÒ¯ Ñĩ
Ġok anye
ĠÚª ØªØ§Ø¨
Ġáĭ¨ áĬł
ĠÐ¾Ð± Ñī
Ġnahim utang
f al
f ter
Ġk wi
Ġl Ãª
Ġw y
id in
ek Ã®
ĠI ni
ĠÐ´ ÐµÐ»
Ø´ Ùĩ
Ġar d
Ġst re
ãĤ °
Å¾ u
à¤Ł à¤²
ill o
Ġ×Ķ ×§
à¦¬ à¦°
Ġbe en
ĠÐ£ Ð»
Ø§Ø² Ùĩ
amm en
æĻ ®
ĠEm manuel
b ul
f Ã¬
l jen
s erv
Ñ ĵ
áĥ Ł
Ġt est
Ġp Ã´
Ġk ali
à® ¸
Ã¤ Ã¤r
Ġà¨ Ł
ĠD ir
ana a
Ġpro te
àª° àªķ
Ġil dÉĻ
ĠSt ates
Ġà¸ «
Ġ193 1
Ġgu erra
æĽ ´
Ġà¥§à¥ ®
Ġìł ķ
g j
r ig
é ½
Ġs atu
Ð¸Ð½ Ñĭ
à¬° à¬®
Ġog sÃ¥
Ġap ar
Ġac tiv
à»Ģàº ª
ĠMa e
ĠáĥĲáĥ ĵ
à¨¼ à©Ģ
Ġson ra
åĮ ħ
×ķ×¢ ×Ł
Ġà¥§ à¥¦
y un
ê ·¸
ì °
Ġp Ã³d
Ġn na
ĠS eb
ĠP ra
ng Ã¬n
ĠF ritz
ĠÐ¸ ÑģÐ¿
Ø¹ Ø±
ĠÐĲ ÑĤ
tr es
Ġcom u
à²¡ à²²
Ġil ÉĻ
à½Ĩ à½ĳ
Ø§Ø³ ÙĬ
Ġà¸ Ľ
Ġum i
Ø®Øª ÙĦÙģ
Ð²Ð»Óĵ Ð½
Ġà¨Ĩ à¨ª
Ġfyr ir
Ġà¥¨à¥¦à¥ §à¥
Û ±
Û ¹
Ð½ Ð°Ñģ
Ñģ Ð°ÑĢ
ĠC at
ng á¹³
ĠÐ¿ Ð°ÑĪ
ĠN as
ĠÙĪ Ùģ
ĠF i
ĠØª ÛĮ
ĠÙĩ Ø¦
Ġko je
Ġ5 3
ind o
áĮ ħ
Øµ ÙĪ
sp ort
ÐµÑĪ Ðµ
ÅĽ e
ĠGr and
à¾Ļ à½º
Ġpun ika
Ġpou or
Ġà¦ıà¦ķ à¦Ł
ĠboÊ» l
Ġmarc apada
ĠWash ington
Ġd Ã¼
Ġk all
Ġb ien
ang er
Ð¿ Ð°Ð»
áĥĶáĥ Ļ
ac ional
à¸²à¸ ¥
à¤ļ à¤²
áıį áİ¦
áĢĲ áĢħ
Ġak tiv
ĠÃ§ ÑĥÐ»
à¸Ĺ à¸¢
áŀľ áŀĶ
jar ah
ĠÐ¿Ð¾Ð» Ð¸ÑĤ
ĠnÃ© bula
Ġolar ak
Ú ī
Ġ ureu
Ġp Ã©
Ġk Ã³
Ġv od
Ġv og
id de
ia ÅĦ
ĠÙħ Ø§ÙĦ
ĠÙħ Ø§Ø¯
ĠÑĤ I
le e
ĠÐ´ Ð°Ð²
ĠÑħ ÑĥÐ´
áŀĵ áŀŁ
à¸²à¸ ķ
Ã° u
ine a
ord in
àº²àº Ĺ
Ñĳ Ð²
Óĵ ÑĢ
uss en
Ġ×Ķ×Ĳ ×ĳ×Ł
éķ ¿
stit ut
Ġìĺ ¤
H e
l ap
ç Į
áĢ ĵ
ÙĨ Ø³
Ġb Ä§
Ġc ab
Ġc od
Ġv iz
Ġe erste
Ġf av
Ð¼ Ð¾
um in
Ð± ÐµÑĢ
ĠR od
ĠÐ´ Ð¾Ð±
ĠÚ© ÙĪÙĦ
ĠØ¬ Ø§Ùħ
ow i
Ġta x
lar dan
ĠÙĤ Ø¯
ier en
Ġáİł áİ¾
àªµ àª¨
ĠØŃ Ø³
à¸´ à¹Ī
ĠÚª Ø±
Ġcir ca
ĠÐ¿ÑĭÑĢ ÑĭÑĪÑĭ
g un
h it
Ġd ÄĹ
Ġk is
Ġg b
áı Ķ
ĠM ill
im ento
ing ar
Ġan ca
ĠÐ¼ Ð¾ÐºÑĪ
Ø² Ùħ
Ġ5 4
ĠáĪ į
yd h
ĠÑĨ ÐµÐ½ÑĤ
Ã¢n t
Ġà°® à°°
Ġà¤®à¤¹ à¤¤
éł ĺ
ĠÙ¾ÛĮ Ø´
ãģķãĤĮ ãģŁ
Ð½ Ð¸ÐºÐ°
Ġo ther
Ġe ftir
à¶ ł
ti p
ĠB und
ĠÑĤ ÑĥÑĤ
ĠØ¦ ÙĬ
Ġì Ļ
Ġà¤ľ à¤®
ann oo
ĠØ® ÛķÙĦ
Ġso cial
ä» ¶
ĠÚĨ Ø§Ø±
ond ronan
áį ĭ
Ġter min
áĥķ áĥĲáĥļ
ÑįÑħ Ñį
à¸ļ à¸£
Ġà» Ĥ
è¨ ĺ
Ġáĥĺ áĥľ
Ġpopul ar
à¹Ĥ à¸Ķà¸¢
æĶ¿ åºľ
åĤ ³
Ġfiv ondronan
c Ä±
t it
Ġs end
at et
Ð´ Ó¹
áı ¬
Ã© an
ia e
ĠT V
Ġu gu
×ķ× Ľ
Ġst Ãª
Ġà¥ Ń
Å¾ o
Ð¸ÑĤ Ð°
we un
ØŃ Ø±
Ġsp ort
ĠÐ¶ Ð¸Ð²
ĠÐĺ ÑĢ
pl ic
áĥķ áĥĺáĥ¡
ĠÔ ²
Ġ×Ļ ×©
Ð½Ñĥ Ñİ
éļ Ľ
ĠEst ados
ç© ¶
á»ģ u
f n
t he
Ġg ia
ik at
ti o
Ġj as
ĠÐº ÑĥÐ´
ay u
ĠÐ³ ÑĥÐ±
up o
Ġst ro
Î± Ïĥ
Ø¹ ÙĦ
Ä« s
àª° àª£
ÙĦÙī Ù¾
áº ¯
ĠÚĨ ÙĪÙĨ
å® £
ĠØŃ Ø§ÙĦ
ÙĨÙĩ ÙĨØ¬
å· Ŀ
ìĿ´ ëĭ¤
áĥĿáĥĳ áĥĲ
Ġprod uk
ituz ten
d n
w ara
Ö ĥ
Ð½ ÐµÑĢ
in sa
Ġt ure
Ġb ers
el wa
it iv
Ġh r
Ġg Ãł
ĠP re
ĠT ok
ĠÐ¼ ÐµÑģÑĤ
Ġda a
ĠO ri
Äĵ t
à®° à®®
ĠÃ§ he
ÛķØª ÛĮ
Ġrad yo
ĠNeder land
Ġparl ament
en sa
is es
ĠÑģ ÑĥÐ»
ĠT an
eg ua
og g
ãĤ µ
áŀĵ áŀĳ
Ð¸Ñħ ÑĬ
ÅĽ ci
ĠÐ¸Ð½ ÑģÑĤÐ¸ÑĤÑĥÑĤ
ìĦ ł
Ã¡r ini
Ġsab agai
Ġant ara
Ġà¨ī à¨¹
èĭ ı
ĠÐ½Ð°ÑĢ Ð¾Ð´
f ab
ç Ĺ
Ġb ob
it Ã¦
il gan
áİ §
Ġà¤¸ à¤Ļ
à®Ł à®®
ĠÑĦ Ð°Ðº
Ġus h
Ġmin ist
ĠÎµ Îº
Ġà°ħ à°¨
à¨ĩ à¨Ĩ
ĠØ³ÙĨØ¯ Ø³
c as
c ter
ķ áİ¸
Ġd us
Ġf is
Ġr ÃŃ
ĠÐº Ð°Ð¿
ĠD iv
ĠÚ© ØªØ§Ø¨
ĠV iren
à¾² à½´à¼ĭ
Ġas sa
ĠÐļ Ð¾Ð»
Ñĺ Ð°
ĠSt adt
Ò¯Ð» ÓĻÑĤ
Ġwax a
X V
Ġà² «
áĥĲáĥ ŀ
ÑĬ ÑĤ
ĠÚ© ÛĮØ§
Ã¶ h
Ã¶ m
á» ³
ĠÛ ´
ÑĭÐ» ÒĵÐ°
ell en
ĠØ§ÛĮ Ø³
Ġà²µ à²°
à¾© à½²
ĠÃº r
Ġpan ag
Ġtro ch
Ø§Ø±ÙĬ Ø®
Ġnor te
l um
Ï Ī
Ġb ira
il iki
âĢ ŀ
Ġy Ã®
ta y
ĠB on
Ã¨ i
ĠF ri
×¨ ×ĺ
à§° à¦ķ
Ä« g
Ġà¨¸ à¨®
ãģ« ãģ¯
áĢ¡ áĢģ
à²¬ à²°
çī ĩ
ĠdÃ© i
íķĺ ê³ł
ÑģÑĤÐ² ÐµÐ½
Ġ×Ľ ×Ļ×ł×¢
Ġsm oo
áº£ i
D en
P h
n itt
w ys
è ĸ
áĢ Ĺ
Ð¼ Ñĸ
ak si
ĠA qu
ĠÐ¼ Ð°ÑģÑĤÐ¾ÑĢ
ĠÙĨ Ø¦
ĠÑĢ Ð°Ðº
à«ĩ ,
ĠØ´ Ø±ÙĪ
Ġdel l
Ûİ Ø±
Ġres ult
æĽ ²
ĠÑĤÑĥÑĢ Ð³Ð°Ð½
ĠRep ublik
Ġrad io
ì¹ ĺ
d as
j um
É ª
er ah
Ġs ka
at it
el is
ĠÃ Ŀ
à¤ķ à¤¡
ĠF ilip
Ġch in
á» ķ
Ġpro g
ĠÙĩ Ø§Ú©
ann t
ĠÐĲ Ð½Ð´
ĠÐ» Ñİ
Ø¶ ÙĪ
ÐµÐºÑĤ Ð¾ÑĢ
Ø¸ Ùħ
Ġáİ¤áı ģ
Ġ) ;
D er
T Ä«
p un
é º
í Ĭ¸
Ġd apat
Ġm ien
Ġm ass
Ġk ama
Ġb ig
Ð¼ ÄķÑĪ
Ġr un
ed h
ul at
ĠB ab
Ä± g
à¤® à¤¸
ĠE ur
ion ale
ĠÐ² Ð¾Ñģ
ĠÑħ Ð°Ð½
áĭ ±
Ã® r
Ġper Ã²
Ġvar Ã°
ĠØ§ÙĨ Ø¬
èĩ £
éĻ ½
Æ° Æ¡
Ġmunicip al
l k
Ġt ec
Ġt ark
áİ «
ĠB ret
Ã¤ g
ĠD ec
à± Į
ud io
na ch
ĠÕ ¨
ÏĦ Î¿
äº ļ
Ġ5 2
ama a
ĠØ¹ Ø¯
à°² à°¨
áŀĻ áŀŁ
à½Ĳ à½ĸà½¦
Óĵ Ð½
à¾© à½ºà¼ĭ
ĠÃ´ ng
Ġpolit ik
Ġgrup o
Ġmaj or
áĥĺáĥ£áĥ ł
×Ļ×¡ ×ĺ
Ø±ÛĮÚ© Ø§
S ch
áŀ ¿
Ġp em
Ġn ib
ĠÚ ³
Ġj ih
Ð°ÑĤ ÐµÐ»
Ã¶ g
Ð¾Ð½ Ñĥ
ist s
Ġle en
Ġar ab
Ġar be
Ø¹ ÙħØ§ÙĦ
Ġì ¶
ĠÙĤ Ø·
à®¤ à®²
Ġsp i
oh ang
åĪ ¥
Ġà¸ ĭ
Ġê ¸°
Ġáīł áĬł
áĢ¡ áĢĲ
æĶ »
alm ent
ĠNg Äģ
ĠÐ¾Ð» Ð¾Ð½
ì¡ ±
ĠApr il
Ġdiplom atik
ĠKabup at
Ġtoer ana
c zi
f Ã´ng
Ġd isk
Ġk ter
el Ã¶l
ad is
Ġj uni
à½ĳ à½¢
um en
ĠÐ¿ Ð°Ñģ
Ð± Ð°ÑĤ
Ġen a
Ġle f
Ó© Ð¹
Ġà¤¬ à¤²
ÙĪÙĦ Ùĩ
à¾Ĵ à½¼à¼ĭ
Ú¾ Ø±
å® Ī
à½ķ à½ĵ
Ġàº ķ
ä½ ı
iti es
ĠÛĮ ÛķÚ©
à¾³ à½´
ĠÄĳ Ã£
Ġpos tu
ami Ã©n
ĠÅ¾ iv
áĪĪ áĭį
ç¤ º
Ġà³ §à³
Î¸Î· ÎºÎµ
y cz
Ġd ov
Ġm enn
Ġm Ã¨t
ch amp
ĠØ¯ Ø§Ø¯
Ð± Ð°Ð½
ĠØ³ Ú©
up an
ÑįÐ½ ÑįÐ¹
à°² à°²
à·Ģ à¶»
àºĻàº §
ĠUn ong
Ġ192 3
ãģ¨ ãģĹãģ¦
Ġà¤ķà¤° à¤¨
Ġprim or
ĠÐ³ÑĢ Ð°Ð´
áĥĺáĥĵ áĥĲáĥľ
è§ Ĵ
N o
j ekt
r Ã³
s ol
Ĩ Ĵ
Ĭ ¹
Ġc am
Ġe ma
Ġf ort
Ð² ÑĭÐ»
Ġà² Ł
ti es
ĠB il
ig ur
ĠH ab
Ġà° Ī
ĠØ³ Ø§Ùħ
Ð°Ð´ Ð°ÑĢ
av an
ĠÑĢ ÐµÑģÐ¿ÑĥÐ±Ð»Ð¸Ðº
ĠØ´ Ûĩ
Ø® Ùħ
ĠÚ¯ Ø¦ÙĦ
à¥Ī ,
ĠÑĦ ÐµÐ´ÐµÑĢ
ly mp
Ġser ie
Ġcum o
Ġtot al
Ġpart ir
Ġìŀ Īëĭ¤
ĠBur eau
Ġtok ko
áŁ¡ áŁ
p al
w ork
Ð½ Ð°Ð²
Ġk ho
ĠG ouv
ĠÐ¼ ÑĥÑĢ
ci j
ari u
Ð¸Ñı Ð»
ÑĭÑĢ ÑĤ
ĠÐŁ Ð°ÑĢ
ĠAl lah
Ġ. ..
ĠÐ±Ð¾Ð» Ð¾
Ġ192 7
ĠÕ¡Õ ¼
Ġrepres ent
áİªáıĹ áıĹ
v id
an sk
Ġa sa
Ġk and
ĠÑģ Ð¾Ð´
ĠÑģ Ð¾Ð±
Ġáĥ °
Ñĸ Ð¿
Ø¨ Øª
ĠÐ´ ÑĥÐ½
ĠF ebru
Ġà´ ¯
ĠáĢ Ĺ
ĠÙ¾ Ø³
ĠÙ¾ Ø±ÙĪ
áŀĵ áŀĩ
eb ra
ĠÑĢ Ð¾Ð´
ord en
ÚĨ ÙīÙĦÙī
áģ į
Ê¼ Ã¡
Ġmu y
Ð¸Ð· Ðµ
ÑĭÐº ÑĤÑĭ
erd in
Ġci Ã¡h
áĢ½ áĢ¬
à¶½ à¶º
ĠÄĳ á»Ļ
Ġïº ĭ
alaw igan
Ġtara f
Ð»Ð°ÑĤÐ¸Ð½ Ð»Óĵ
Ġreven uo
Æ°Æ¡ ng
D A
c or
Ġm ata
at te
Ġv et
Ð³ ÑĥÑģÑĤ
ĠA ote
ie c
ĠF ar
la Ê¼
Ġà¥ ®
áŀļ áŀł
à¬° à¬£
áĥĿáĥ ®
ĠÐ¿ÑĢ Ð¾Ð²
àº§ àºį
ĠÚ¾ ÛķÙħ
atur en
ĠJoh r
×Ļ×© ×¢
zb ek
estiv al
A d
E R
Ġt ien
Ġp hax
Ġb ib
ĠS em
Ġi pan
ĠÙħ Ø«
ing o
ri eb
li b
áĥĶáĥ £áĥ
Ġì ¹
Ã´ ÅĤ
ala Å¡
ÛĮØ§ Ø¯
Ġor ang
Ø±ÙĬ Ø©
Ð¸ÑģÑĤ Ð¾Ð½
ĠPro gr
Ġà¦ĩ à¦¯
Ġkl ima
çĪ ¶
ĠØ§ÙĦØª ÙĬ
ÑĥÐ³Ð° Ð°ÑĢ
ĠOrom oo
Ġs Ã´
áı İ
ed z
Ñı Ð³
Ġ19 10
Ġz ar
ut ar
áĥĺ áĥĺáĥ¡
à¦¿ à¦Ĥ
ĠáĢ Ĥ
âĢĻ âĢĻ
Ġes ti
Ã§ y
Ġ×Ķ ×¢
ĠØ¹ Ø±Ø¨
ale e
Ġhe f
Ġand re
áĢ½ áĢ²áĢ·
Ġpl use
áıĽ áİ´áıħáıĵ
Ġinter na
Ġ192 5
Ġ×ĸ ×¢×ł×¢×Ł
Ġkang go
Ġters ebut
y v
´ Ģ
á ł
Ġs ong
ar re
áŀ ²
Ġm und
Ġb este
Ġc rit
Ġg Ã¼n
Ã© re
ĠÐº Ð¸ÑĪ
ĠC as
ĠK er
ĠÑĤ ÐµÐº
ĠI d
Ġen pres
ĠF ern
Ð°Ð¹ ÑĤ
ĠÎ Ŀ
Ġcom pos
ru z
Ġme er
Ġsi Ã¢âģ¿
à½Ĳ à½Ħ
áĥĶáĥĳ áĥĺáĥĹ
Ġàªª àª£
íķĺ ëĬĶ
ĠØ®ÙĪØ± Ø´ÛĮ
P a
l ÃŃ
p at
p ak
t ak
Ġ à½ļ
áĥ «
it te
Ġc res
ĠS ci
ti ge
ĠK os
Ġàª «
Ð¾Ð» Ð¸
ĠJ ep
Ġis la
à¤Ĺ à¤¢
Ġì ¤ĳ
ÅĤ ts
à¤ľ à¤ķ
Ġest asyon
ĠÐł ÐµÑģÐ¿ÑĥÐ±Ð»Ð¸ÐºÐ°
à¬¨ à¬Ļ
Ġà®ĩ à®¤
ĠØ¦Ûĩ ÙĨÙīÚŃ
Ġlig ger
ĠÚ©ÛĮÙĦ ÙĪÙħØªØ±
O n
l isch
r Ä«
Ġs ow
ÑĤ Ð°ÑĢÑĭÐ½
Ġm Ã¥n
ch á¹³
Ġv ro
ur al
us es
ĠØ§ ÙĨØ¯
ik ir
Ð°ÑĢ ÑĮ
ta j
Ã¤ v
ĠÐ± Ð¾Ð´
ĠÑĤ ÑĭÐ»
à¾± à½ºà¼ĭ
ĠE nd
Ġà¬ ĸ
ant er
iy as
Ġà¤ľ à¤¬
Ãº t
ĠØ´ Ø§ÙħÙĦ
Ø§Ùħ Ø¨Ø±
ĠÑį Ð³
Å« t
Ġop o
àºĩ àºģ
áŀħ áŀĢ
ĠÃ¾ Ã¦s
Ġàª¸ àª®
alar Ä±
à¤« à¤²
Ġpres ent
ĠFr ant
×¨×Ĳ ×ľ
ĠìĦ ±
Ãłl la
. Â»
r z
Ø§ ÙĪØ±
is ÃŃ
ur ch
ĠØ§ Ø´
ĠW ill
à¤Ĺ à¤£à¤¨
ĠÐ· Ð°Ð±
ĠÐ¶ ÑĭÐ»
ili an
chi u
ÐµÐ³ Ð¸
200 3
ĠÐ³Ð¾Ð´ Ð·Ðµ
ĠSp esies
ĠÐ°Ñģ ÐºÐµÑĢ
ĠNov ember
ĠÐĲÐ»ÐµÐºÑģ Ð°Ð½Ð´
n ov
Ġd ÉĻ
en si
Ġi ad
ĠC ons
ÐµÑĢ Ð¼
Ð¶ ÑįÑį
ĠÙĦ Ø±
Ð¸Ðº Ð¸
ala is
ÙĦÙī Ø¯Ûĩ
ĠÐľ Ð¾Ð½Ð³Ð¾Ð»
ĠÚ¯ ÛĮÙĦ
oh r
Ñĺ Ñĥ
ff a
Ð¾Ð· Ð¸
å¤§ åŃ¦
Ġjo y
ÛķÛĮ Ûķ
ĠÐŃ ÑĢ
ëı Ļ
ĠÐ³ÑĢÑĥÐ¿ Ð¿
Ġesse va
weun ers
I C
d ay
Ó Ł
í ļĮ
Ġd ul
Ġl il
Ġl ed
el g
Ġv ec
Ġg ep
Ġg Ã¡u
Ġr if
ang en
Ġz aman
Ġan ak
ÙĤ Ø±
iv al
áŀļ áŀİ
Ø¬ Ø§ÙĨ
Ñİ Ð·
Ø® Ø§ÙĨ
×ł ×ĺ
ÐµÐ² ÐµÑĢ
Ġà²ķ à²°
Ġmen m
æķ °
Ð°ÑĢÐ° Ð°
Ġrel asyon
Å ŀ
Ġs eng
Ġt og
Ġn ast
es si
Ġe ile
Ġf en
Ã¡ nd
ĠÐ² ÓĵÑĪ
je w
Ġis te
Ġqu el
av er
ĠÑĢ Ð°Ð±Ð¾ÑĤ
Ùĥ Ø©
Ð¸Ñı Ð½ÑĮ
Ġne j
art en
ach i
Ġáı °áİµ
Äķ Ð¿Ðµ
ĠÙĥ ÛĪ
ÛķØ± ÛĮ
ĠØŃ Ø§ØµÙĦ
Ġ×ŀ ×©
Ã¨n man
áİ¬ áı©
Ġkap it
Ġà¦Ĺ à¦¨à¦¨
çµ Ħ
ï¯ ĺ
ĠáıĤ áıĽáİ´áıħáıĵ
ë¬ ¸
ĠAote aroa
H a
b ra
Ġo or
Ġv ille
ĠM ann
Ġà¨ ¯
re w
ĠD in
Ġen erg
op ol
Ġà¤ª à¤¡
Ġpr u
ma an
Ð°Ð± Ð¸Ð»
Ġth Ãłnh
Ġáı Ń
à´° à´µ
Ġman era
ĠÐ¹ Ð¸ÑĪ
ĠMar c
à©Ī à¨Ĥ
Ġinter pr
ÃŃn h
ÙĨÚ «
à±Ĩ à°Ĥ
rey Ã²l
Ġmoo y
ĠJes us
Ġáİ¢áı §
f ir
j ang
z v
² áį
Ġd ub
Ġb la
Ġh ari
Ð³ Ð¾ÑĢ
Ġi j
te v
ang wa
ĠP od
Ã¶ y
ip p
Ġel e
ĠÐ· Ð¾Ð½
ĠÐĲ Ð´
åľ Ĵ
Ġum um
ĠØ² ÙĨØ¯
ĠÃ§ al
à®³ à®¤
åĭ Ļ
Ġid enti
Ġdur ch
è® Ĭ
Ġret ire
åķ ı
æº Ĳ
± °
Ð° Ñī
Ġs g
on ni
Ġm og
at ri
it se
et ism
ÙĬ ÙīÙĨ
us tu
Ġin ic
à½ĸ à½Ĥ
ãģ Ī
ĠH igh
le ÅŁ
ĠØ³ Øª
ĠÐļ Ð°Ð·
ÙĦÙī Ø´Ùī
oj o
Ãµ es
à¦¹ à¦°
Ð¸Ð³ ÑįÑĢ
ĠáĢ¡ áĢģ
ç» Ł
ĠØ¦ÛĨ Ø²
áĥĶáĥĿ áĥĳ
k ri
r upa
s im
Ð° Ò»
Ġd ing
ar ie
Ġm Ã¢
Ġl eta
el j
àª ĩ
Ġc ensus
ÑĮ Ðµ
ĠR oba
ÑĨ ÑĤ
ka u
ĠÙĦ Ú¯
ĠØ´ ÙħØ§ÙĦ
Ġko uman
ĠØ¢ Ø¨
àº²àº ¥
Ġkom m
å° ģ
Ġpl ay
Ġnas od
zy Ã¨m
Ġà¬ı à¬¬
Ġgeb ru
çı Ń
ëª ħ
ĠÐ´ÓĻ Ò¯Ð»ÓĻÑĤ
Ġotor ite
í Ĩ
on is
us sa
Ð· ÐµÐ½
ĠT re
Ġáĥ «
ĠÐ¿ Ð°ÑĢÑĤ
ĠH ans
à¸Ļ à¸Ķ
ĠÐ¶ Ð°Ð½
Ø§Ø¯ Ø±
Ġáİ¤ áİ¾áı
ly g
ĠØ¯Ø± ÛĮØ§
ĠÒ¯ ÐµÐ´
ĠØ· ÙĪØ±
à¾Ĳà¾± à½ºà¼ĭ
ĠLong champ
ĠÐ±ÑĥÐ³ Ð¾
k po
l Ä«
æ ļ
ar da
ÑĤ Ð°ÑĢÑĭ
Ġt rib
Ġl alawigan
Ð´ Ð¾Ð½
Ġc Ä±
Ġde zyÃ¨m
ol lo
Ġr adi
ak ti
Ġ19 12
ĠK reyÃ²l
ĠÙħ Ø³Øª
Ø§ÙĨ Ø³
Ð¿ Ð°ÑĢ
Ġun ha
Ð°Ð¹ Ð³
ÙĤ Ø§Øª
ĠÑħ Ð¾ÑĢ
Ġì £¼
Ã§ o
Ġet ter
Ú¾ ÙĨ
ĠÐ¶ Ð°ÑĤ
ost lin
ĠÊ» akau
àºĻàº ķ
ĠÃ¦ ÑĢ
×¢×ł ×ĺ
Ð°Ð½Ð¸ Ðµ
ĠAy isyen
ĠëĤ ĺ
á»¯ ng
Ġdw Ã¨t
ĠÐ²ÓĵÑĪ Ð»Ð¸
" ),
S o
l al
l Ãº
v ert
w ig
ç ª
Ġs isp
Ġm amp
à¬ «
ÑĮ Ð¼
ĠM ichael
áĪ »
ĠL en
ĠL is
ÐµÐ½ Ð½Ñı
áĥĺáĥ ¥
ĠÐ¾ ÑĦ
ĠØª ÛĪØ±
Ġpr Ã©
ãĥ ¡
Ø¬ Ø¯
Ùĥ Ùħ
Ġab i
à½ļ à½Ħ
Ġpo i
ĠÑģÑĤ Ð°ÑĤ
ÐµÑĩ Ðµ
ĠÐ°Ð² Ð°Ð¹
Ã¤d as
pres s
Ġdak bayan
ganiz asyon
ĠLor osa
Ġáİłáİ ¹
ĠGouv Ã¨nman
Ġsisp ann
P opil
n oc
r Å¡
z it
æ Ĥ
Ġm undo
Ġde h
ĠS ie
Ùī ÚĨÛķ
Ġin weuners
ĠP lan
Ġà¨ Ĳ
ĠT am
ĠÙĪ Ø£
ĠÐ´ Ñĥ
Ġà¤ķ à¤¹
ĠO EA
Ġis e
ĠÑĥ Ð´
áĭ ķ
Ø² Ø§
ĠØ² ÙĪ
àª² àª¨
×Ĵ ×¨
ĠÃ¼ ber
áĥĲáĥłáĥ Ľ
ĠÃ² ganizasyon
à¦ĵ à¦¯
Ġperi od
akar ta
Ġ300 000
ĠRel asyon
Ġfilos of
Ġkouman se
d h
Ġ ÈĽi
Ð» Ð°Ð´Ð°
on c
Ġk ac
Ġo ma
Ġh ul
Ġw eb
Ġin ta
Ġy am
ul es
à¤ķ à¤¸
Ġch ansel
Ġar Ä«
ug os
Þ° ØĮ
Ġas p
àª° àª¨
tr is
ens ia
à¸ĩ à¸ģ
áŀĻ áŀĺ
Ġter itor
iya a
ĠÃ¶ ver
Ġbir nin
è¿ Ļ
Ġà®® à®±
ĠTh omas
Ġrep rann
ĠÒĽ Ð°ÑĢ
à¨Ĺ à¨°
Ġà®ħ à®®
Ġsim ipi
ÚĻ ÙĬ
Ġincl ud
çłĶ ç©¶
ĠRoba ina
ĠÐ²ÓĵÑĪÐ»Ð¸ ÓĵÐ»ÑĤ
Popil asyon
Ġchansel ye
A z
v ez
Ġs ok
Ġt ad
Ġt orn
Ġn Ãły
Ġr at
Ġan im
Ã¶ z
à§ĩ ,
Ã¦ Ñħ
ĠU ng
ĠÑĪ ÑĤÐ°ÑĤ
Ð¾ÑĤ Ð¸
ass en
ä¼ ¯
Ġ×ł ×Ĳ
ĠEurop e
ĠØ¯Ûķ Ù¾
Ġterrit ori
Ġì¡ °
è¾° åħī
g w
r á»¥
t am
é Ĭ
er es
Ġp ikeun
il or
Ġde e
Ġw Ã¦s
Ùħ Ø³
Ġy els
Ġj uli
Ġà¨ ¡
ra p
Ġz af
Ð¿ Ð¸
ĠE mp
Ð¾Ð² Ñĭ
ĠÐ³ ÑĭÑĩ
ãĥ Ĺ
all en
ĠY e
à¦¬ à§°
Ġest r
Ġàº Ļ
áĢĽ áĢĶ
Ġáİ¤ áıĻ
ĠÃ± e
Ġul ohang
áĪĪ áīµ
olu tion
èģ Ķ
àºĪ àº²àºģ
Ò· Ð¸Ðº
T V
h and
u ah
Ġm ÉĻ
Ġk enn
Ġb uvo
ch em
Ġf inn
Ġy en
Ñħ ÑĤÑĮ
ÑĪ Ð°Ð»
áĪ Ļ
ek er
Ñĸ Ñĸ
Ġz an
Ġu Å¾
ĠÙ¾ ÙĨÙĩÙĨØ¬
ac o
ÐµÑĤ ÑĮ
Ġko j
Ïģ Î·
ĠáĬ Ń
Õ¸ÖĤ ÖĢ
ĠáĪ Ĩ
Ġpa is
Ã¼n de
è¦ ĸ
ĠÎ¿ ÏĢÎ¿
Ã¼Ã¼ t
ĠÐ¸Ð¼ Ð¿ÐµÑĢ
Ġteng i
Ġprimor dial
Ä ·
ķ Į
Ġb ho
il ig
Ġf ab
us ion
ĠÙħ ÙĪØ±
Ġla ik
Ġun o
st re
ĠÐ² ÐµÐº
li j
Ã¢ ts
ĠJ uni
áŀĵ áŀĵ
ev en
Ġpro ces
à¦² à¦¤
ÑįÑĢ Ð¸Ð½
Ø§Øª Ùĩ
à¸Ń à¸ļ
Ġim m
ĠÑģÑĤ ÑĥÐ´
Ø±Ø¨ Ø¹
ĠÐºÐ¾Ð¼ Ð°Ð½Ð´
Ġib abaw
áıĥ áİ®
ĠÙħØ¬ ÙħÙĪ
Ġtemper atura
×©×ł ×ª
G e
O S
w es
y it
Ø Ł
Ġv ier
Ð³ Ð¸Ð»
à¤µ à¤µ
Ú© Ø§
Ġch ng
ÑģÐº ÑĸÐ¼
ÑģÐº Ð¾Ðµ
Ð°Ð³ Ð°Ð¹
Ġto i
ĠØŃ Ø¶
Ä§ u
Ġà¦ħ à¦¸à¦®
à¦ļ à¦¨
Ġez alÃŃ
Ġzu en
Ġàª¥ àª¯
ĠÐ¶ÑĥÑĢ Ð½Ð°Ð»
ĠÃ¤l Ã¶d
h ir
t es
x h
z Äħ
Û ¸
è Ĵ
Ġd ab
Ð» ÑįÐ»
Ġt ÉĻ
on ie
Ûķ ÙĨØ¯
im s
ĠÐº ÑıÐ»ÑĮ
ÃŃ r
Ġz m
ãĢ İ
ist u
Ġsu e
Ã½ an
Ġ5 1
à¶» à¶ļ
Åį n
×© ×ĺ
ÑįÐ» Ñħ
ĠPar ti
å¼ ķ
ogra fi
Ġhal k
éł Ń
àº¶ à»Ī
Õ¸ÖĢÕ ®
Ġave i
Ġbaba en
j ut
t ok
áĢ ı
Ð» Ð°Ð³ÑĮ
on z
ak ter
áŁ Į
ĠM idd
à¤¤ à¤¸
ay Ä±
ĠK az
Ġz na
ĠN A
ãĢ ı
Ò¯ Ð·
ĠÎ Ķ
Ġse en
ĠÑĢ ÑĥÑģ
Ġte or
ĠÑĪ ÑĭÐ²
à¾Ĵ à¾²à½²
ama an
Ġit ti
ĠY o
ĠÃ¤ lab
Ġà²ª à²¡
ÑĥÐ³ Ñĥ
Ã©n cia
ĠÛģ ÙĨ
ÙīÙĦ Ø§Ø±
×Ľ ×ľ
Ġà¤ľà¤¨ à¤Ĺà¤£à¤¨
ĠáıĹ áİ¦
ĠÐ±Ð¾ ÑİÐ½
ĠÃĦ dabinons
Ġlomane fs
Ġ×Ĵ×¢×ķ ×ķ×¢×Ł
æ¹ ĸ
ĠfamÃ¼l s
ĠÐ¿ÑĢÐ¾Ð³ ÑĢÐ°Ð¼
l Ã¼
n em
ç Ĩ
í Ķ
er man
Ġs ym
Ġb ru
as ch
Ġv ita
Ġf iz
ĠM agn
ĠH un
og ue
ĠÑħ Ð¾ÑĤ
ĠÑĪ Ð¸Ð½
Ġ5 8
ĠZ u
Ġ7 00
à¹Ģà¸ §
ĠÃ¤ so
à¦Ĺ à¦®
Ġà¦Ĩ à¦¨
ĠLe ague
å± ¬
Åº i
Ġfrug etism
ĠÃ¤binÃ¤d ons
ĠÃ¤so elÃ¶l
c al
k or
k ow
l ige
o ir
ĠÐ «
ÑĢ Ð¾Ð¿
Ġn ob
Ġk ed
at os
el ah
it za
Ã© na
ĠØ§ ÙĨÙĩ
ag hey
Ã¡ ik
áĪ ½
ĠÙĪ Ø±ÙĪ
Ð± Ð°Ð»
og h
Ġsa w
Ġà¤ª à¤Ľ
ĠÕ ¬
à¤¦ à¤²
Ó§ ÑĢÑĤ
Ò» Ð¾Ð½
ĠÑĦ Ð¸Ð½
Ġà¤ī à¤ļ
Ð½Ð¸ Ñĩ
land a
ĠÃ§ Ä±
Õ¥Õ ´
áĥł áĥĺ
áıĤ áİ¨
éĻ į
à½ĸà½ŀ à½Ĥ
ìĭ Ŀ
Sa int
íĥ Ģ
Ġà¹Ĥ à¸Ķà¸¢
ĠØ®ÛķÙĦ ÙĤ
q ip
t ir
Ġm idd
ÛĮ Ø§ÙĨ
Ðº Ð°Ð¼
Ġg reg
ed ig
ĠD un
eg t
ãģ ©
Ġu ur
ci ÅŃ
Ġar ea
sk y
ĠÙĨ ÙĬ
ĠÑĢ Ð°
Ä« v
ĠÐ» ÑĥÐ½
à½ŀ à½£
Ð¾Ñģ Ð»Ð°Ð²
Ó¹ ÑĤ
Ø· Ùĩ
Ñŀ ÑģÑı
Ġ×ĳ ×ª
ÙĪÛĮ Ø¨
ÑĭÑħ ÑĮ
ĠIt ali
Ġ190 5
ĠÐ¾Ðº ÑĤ
ĠÑģÐº Ð»Ð°Ð´
Ġrok Ã¹
ĠGerman ia
ĠPop ul
ìĥ ģ
h elm
» áį
Ġt ele
ch as
un to
Ð´ Ð¸Ð·
Ġw ana
ang k
ĠÑģ ÑĥÑĥ
ĠÐ± ÐµÐ·
áĪ İ
ãģ ł
Ġà¬ ĩ
Ð¾ÑĢ Ñĥ
ĠÎ ¬
Ġpr et
ĠÐ³ ÑĥÑĢ
iz h
Ø§ÙĦ Ùģ
Ã® k
Ð°Ð³ Ð°Ð½
Ġma ar
ev i
Äį u
ÐµÐ¼ Ð°ÑĤ
ĠÑĩ ÐµÑĤ
Ġ5 6
à¤ĥ ,
áŀĻ áŀĶ
×Ĵ ×ľ
äºº æ°ĳ
Ã¨n t
imi ento
ĠAmer ik
Ġà½¢ à½Ħ
scz Ã©gÃ²
r g
Þ Ŀ
è ħ
Ġd ira
in us
Ġà² ı
im bo
ro pe
ĠÙĪ ÙĤ
Ã¨ res
ĠÐ¼ Ðµ
est ra
áĥĺáĥ ®
ĠØ§ÙĦ Ø·
up un
az ar
Äį ki
Ä« m
Ġth an
×ŀ ×Ķ
Ġà§ ¬
Ġfu q
à·Ħ à¶±
ÅĻ ÃŃ
ä¸Ĭ æµ·
ãģ£ ãģ¦
áº§ u
å¨ ģ
Ðº ÑĪ
Ûķ Úµ
ĠÐ¿ Ð¸Ñģ
ri i
ĠÐ¼ Ð°Ð³
Ġà° Ń
ung i
ĠÑĪ Ð°ÑĢ
ĠÑĪ Ð¸ÑĢ
tr u
Ġ6 3
å¤ ±
ĠÑı Ð²
Ġáī µ
Ġsh en
ĠÐºÑĬ ÑĥÑĢ
Ġmat an
ĠPr in
Ġmer eka
Õ«Õ ´
ãģ¦ãģĦ ãģŁ
Ġprot est
ĠØªØµ ÙĪÛĮØ¨
soci ation
Ġà¹ĥ à¸Ļ
Ġk eng
Ġde er
ĠC la
ĠD ol
ĠG eneral
Ã¨ sa
Ð¾Ð½ Ð´Ð°
Ú© Ø§ÙĨ
ĠF u
uk rain
na w
à²¦ à²ķ
áŀļ áŀħ
ÑģÐº Ð¾Ð¼
Ġà¤¹ à¤µ
æľ į
ĠIn de
åį ¡
ÐµÐ³ Ðµ
ÐĲ Ð»
à¦¥ à¦®
Ġjed h
æ´ ¾
Ġyer oo
áºŃ t
Æ°á»Ľ c
Ġphax sin
h od
v ik
w let
Ġd Ã¥
al em
Ð´ Ð°Ð¹
Ġc uk
Ġr am
×ķ ×ķ×Ļ×
ĠÐ¾ Ñĩ
Ġpr is
eng en
ĠÙĦ Ø§Ø¡
ini i
à©Ģ à¨Ĥ
ho f
Ġsp r
Ġáĭ µ
Ġor ient
Ġà¦¬ à§°
Ġáī £
Ð¸ÑģÑĤ Ð°Ð½
Ġdr Å¾
ĠÕ§ ÖĢ
áĥĲáĥĵ áĥĴ
ç¬¬ ä¸Ģ
ĠKan ada
ë Ħ
ģ ¬
en ci
Ġm ong
Ġk ung
Ġk ry
Ġc Äĥ
Ġe il
ro y
ĠK im
áĪ Ĳ
ah ar
ist on
ãĥ £
à¨° à¨ķ
Ġ5 7
Ê¼ aÅĤ
à¶ļ à¶»
ÄŁ i
Ġsab oh
çİ °
ĠÑĥÑĢ ÑĭÐ½
Ġà¨¬ à¨£
Ġpun to
ÑĨÑĭ Ñĸ
Ġsucc ess
ĠÙħÛĮÙĦ Ø§Ø¯ÛĮ
c ast
j alan
Ù °
Ġd og
Ġv ad
Ġi huan
Ġin st
Ð°Ð» ÑĭÐ½
ĠT op
ab it
à½ĺ à½ĩ
Ð¿ Ð°Ð½
ĠÐ¼ Ð¸Ð»
ä¸ İ
up er
áī »
ĠÙĨ ÙĤ
ow ane
ec a
ÑĥÐ» Ð°ÑĢ
ĠY ou
ont en
Ġà¤¯ à¤ķ
sh an
Ð»Ð° ÑģÑĤ
Ġ×ĳ ×¢
à®µ à®¤
ïº ®
ëĭ Ī
ÛķÚ© ÛķÛĮ
Ġà´ħ à´µ
å¿ ħ
ç¥ ĸ
Ġgeme ente
ĠÐ±Ð¾ÑİÐ½ ÑĩÐ°
j ur
w ek
Ġp ian
Ġn hi
Ġb ank
Ġv es
Ġg rav
Ġf lu
Ġw annan
ĠM is
ĠP la
à¦¾ ,
ĠK urd
ĠØ¨ Ûģ
Ã« ve
ĠÐ¼ Ð°Ð¼
à²° à²²
Ð¾Ð» Ð¾
ĠÐ¾ Ð¼
wa an
Ġqu am
ÐµÐ» ÐµÑĢ
Ú¯ Ø§Ø±
Ã´ ne
ĠÑĢ Ð¾Ñģ
tu a
Ġà¤¤ à¤®
Øº ÙĦ
áĢĲ áĢĦ
ÑĥÐ´ Ð°ÑĢ
à¤ĸ à¤²
Ìģ .
if ic
ĠÐ³Ð¾Ð´ Ð¸Ð½Ðµ
Õ¡Õµ Õ«
ÑģÐºÐ¸ Ð¾ÑĤ
ĠPl ant
ĠÑĤÐµ Ð°ÑĤÑĢ
Ø§Ú» ÙĬ
à¥¦à¥¦ à¥¦
ĠÐ°Ð¿ ÑĢ
Æ¡ n
f ri
ç ĥ
Ī Ĵ
Ġp ens
Ġl h
Ġv at
Ġe a
Ġw ux
Ã¡ ban
ĠC um
ĠØ¨ Ùħ
ĠI st
áī Ĩ
áĥĿáĥ Ĺ
Äį in
Ñİ Ñĩ
ĠÐŁ Ð¾Ð»ÑĮ
Ã©s z
à¾³ à½º
ĠÓ© ÑĤ
Ġ×ķ ×ĳ
ä¸Ń åĽ½
ĠØ§ÙĦÙħ Øµ
ØªÙī ÙĨ
ĠÐ±Ð°Ð¹ Ð³ÑĥÑĥÐ»
Ġast ronom
Õ¾ Õ¸ÖĤÕ´
áĥĿáĥłáĥ Ĺ
Ġsay Ä±sÄ±
Ġà®Ĩ à®ķ
ĠáĭĪ áĭ°
Ġprom ed
j it
§ à«
ĠØ ¸
Ġt ep
Ġk Ã¼l
Ñĥ ÐºÐ°
or an
et to
ir g
ĠM ot
ĠÐ² Ó§
à¦° à¦°
×Ĳ ×Ł
Ġcon stitu
Ð°Ð· ÑĥÐ»
si i
erd en
Ġob ra
ãģ« ãĤĪ
ĠÔ ¿
ĠKar l
à»Ģ àºĶ
ĠÐ¸ÑģÑĤ Ð¾ÑĢ
Ġgov ern
Ġëĵ ±
L A
t ti
y Ã©
Ð ®
Ð¸ Ð¾
Ġb wa
or it
Ġg ru
Ġf le
te a
Ġz ak
Ã¼ ck
ĠÑħ ÑĥÐ¶
åı «
Å« i
ĠÃ© d
ond re
Ñĳ Ð¼
Ġmed i
ĠÑĨ ÓĢ
Ġwo od
íķĺ ìĹ¬
Ġprim er
ĠÙħÙĪ Ø¬ÙĪØ¯
Ġáĥ¨ áĥĶáĥĽ
æ¬ Ĭ
ĠÙĪÛĮ Ú©ÛĮ
ĠAustr alia
K a
Ġt chi
Ġp ola
Ġm wa
Ġm agh
Ġl aga
âĢ ²
Ġg la
Ġg Ã©n
ĠS ek
ĠÐº ÑĭÐ»Ð´
Ã¤ st
ĠÑģ Ð°Ð´
ĠT our
Ġan o
ok r
à¦° à¦£
ĠJ apan
Ġpr on
ib ys
ĠÑħ ÓĢ
Î¿ Î³
Ø² ÙĦ
ari i
ni o
Ø¬ Ø±
ĠÐļ Ð¾ÑĢ
ĠÙĤ ÙĪÙĬ
Ġ×Ķ ×¤
ny i
ÐµÑģ Ðµ
ĠÐ¢ Ð¾
Ġàº ļ
ĠÛĮ Ø§Ø±
ìĹ Ī
ĠFran cia
per ti
Ġpos ta
æĶ ¶
Ġ×¢ ×¡
ĠIs land
Ã³l Ç«
ĠJos Ã©
ibli ote
Ġinde pend
ĠÑĢÐµÐ´ Ð°Ðº
ĠÕ¨ Õ¶
d or
w ane
Ħ ĸ
Ð½ ÑĭÐ½
er on
Ġt ay
Ġp ula
Ñĭ Ñĸ
at ure
Ġc ad
Ġh enn
Ġv ert
ÙĬ Ûķ
Ġ19 11
ĠÐ± Ó©Ð»
eg ar
Ø§Ø± ÙĦÙīÙĤ
la ÅŁ
Ġpr emi
Ġà¤¨ à¤¹
ÙĦÙī ÙĥÙī
Ġku we
Ġap a
Ġmet al
ĠÛģ ÛĮ
à´² à´¯
×Ļ×Ļ× ¢
à¸« à¸¡
ÄĻ d
ĠInd on
ãģĵ ãģ®
ĠÕº Õ¡Õ¿
Ð¸Ð½Ð¸ÑģÑĤ ÑĢÐ°ÑĤ
Ġadministrat ivu
èĺ Ń
Ġhá»į c
à½ĺà½ī à½ĺ
Ð¾ Ò£
Ġt es
Ġb ra
Ġb atu
Ġh ij
à¤¨ à¤µ
ĠB lan
ĠP ad
áĪ ¬
ut z
ĠÑĤ ÑĥÐ½
Ø¨ Ùī
Ð°ÑĤ Ð°Ð¹
Ã¶ v
ÑĭÐ» Ð°ÑĢ
oc c
ĠÐ½Ð° Ñĩ
ĠÐľ Ð¸Ñħ
any ang
ÑĭÐº ÓĢ
ler ini
ĠÐĺ Ð·
Ã¶r t
Ġek sp
ÄŁ u
Ġpl ant
Ġpres idente
ìł Ħ
á»Ļ c
ĠÙ¿ ÙĪ
ÄĹn ÄĹ
æ® µ
Ġà¨Ĩà¨ª à¨£
r el
ç ħ
Ġt ali
Ġm ort
Ġh uman
Ñį ÑįÐ»
ak as
ĠR en
Ġal em
à²¨ à²Ĺ
Î¿ Î¹
Ġel a
à¤ľ à¤°
åħ ³
ØŃ ÙĦ
ÑĭÑĢ Ð´
Äĵ l
ĠÐĳ ÑĢ
ĠÒ Ĺ
å¾ Ģ
à¦ĩ à¦¤
ĠÎ± Î½
ĠIs rael
Ġrel ativ
åŁ ĭ
ĠÐ°Ð± Ð¾
Ġkay u
Ġfun k
ĠÐ¼Ð°ÑĤ ÐµÑĢÐ¸
ĠÖ ħ
ĠÐ¾Ð±Ð»Ð° ÑģÑĤ
ĠáĬĲáīł áĪŃ
Æ°á»Ŀ ng
ukrain ce
E m
t te
Ġ áŀĽ
in ya
on ina
Ġf ui
Ã© se
Ġj on
Ð°ÑĤ Ð°Ð½
ĠÚ© Ú¾
Ø§Ø± Ø§
ĠJ en
ÑĭÐ» ÑĭÐ¼
Ġte u
Ġba ile
Ġà¤¤ à¤¹
ind ÉĻn
Ġ×Ķ ×ķ×Ĳ
åı ª
pe ci
ĠØ² Ø§ÛĮ
ĠÐĿ Ð¾Ð²
ĠÐºÑĬ ÑĢÐ°Ð»
Ġpl at
Ġáĥ¡ áĥĲáĥ®
ÅĽ Äĩ
Ð¸ÑĪ ÑĤ
à¸¸ à¹Ī
áĢ« áĢ¸
esti g
ç´ Ģ
á»© c
ĠResp ublik
c Ã¼
Ġd ann
Ġt Ê¼
à¤¾ -
or ma
ĠÃ Į
Ġáĥ ¦
ĠG all
Ġun Ã¢
og i
ĠáĢ Ł
Ó© Ó©ÑĢ
Ã° ar
Ġë ¯
å® Į
áĢºáĢ¸ áģĬ
à¸¢ à¸ĩ
isch er
à¾¤ à¾²à½´
kh Ã®
ãģĿ ãģ®
Ġà¥¨à¥¦ à¥¦à¥
t ter
Ġt ug
Ġk eb
Ġb omas
Øª ÙĦ
Ġr end
ĠS ul
ĠB ik
ĠP ot
ĠÙħ Ø³ÙĦ
ĠÐ¿ Ð°Ð½
Ø§ÙĨ ÛĮØ§
ĠN ik
ĠH et
à¦° à¦ķ
Ð¾Ð» Ñİ
Äģ d
ä¸ Ķ
ers e
Ġis u
à°° à°¤
Ġ8 5
ĠÐĴ Ð¾
Ð½Ð¸ Ð¾ÑĤ
Ġkom pl
Î¬ Î´
Ġpol iti
Ġir Äģ
à¸Ľ à¸£
Õµ Õ¡Õ¶
Ä¼ a
pu Ã©s
ÅŃ k
for ma
Ó©Ó© Ð´
Ġà´ĩ à´¤
à½ĸà½ı à½Ħ
Ġ< <
ĠÐ¾Ð½Ð´ Ð¾
emper aturen
Ġmanip ud
R A
r er
é İ
Ġd ot
Ġn ekk
el ing
Øª ÙĪØ±
Ùī Ø³
ĠÐº I
áĥĲáĥ Ķ
Ġà¬ «
le ar
Ó© Ñħ
ac t
Ð°Ð³ Ñĭ
Ġta j
hi o
Î¯ Î¿Ïħ
ĠáĥĲáĥ Ļ
ĠÐµÐ» Ð³
Õ¡Õ¾ Õ¸ÖĢ
Ġ #
Ġm l
Ġm Ã´
Ð´ ÑĭÑĢ
Ġv ah
Ġv oc
ur en
ir as
Ġi ba
Ñĸ ÑĪ
Ã¶ ÑĤ
Ú© Ø³
áī ¢
ÑĭÐ» Ð³Ð°Ð½
ez o
Ïĥ Îº
oj i
Ã¸ g
Ð¸Ð´ Ð¸
Ġver k
Ġfam Ã¼
Ġur bo
Ġà» Ħ
Ġvers ch
ĠÑī Ð¾
çľ ¾
à¾¦ à¾±à½¼
ĠÙĪÙĦ Ø§Øª
Ġbid Ã¤das
ĠÐ´Ð¾ÑĢ Ð°Ð´
Ġáº ¹
I V
r up
w we
Ä µ
à½ İ
in Ã¼k
Ñĥ Ñī
Ġdi Åıh
ĠD or
ĠF ir
og e
áĥĺáĥ ŀ
Å¡ in
ĠÙĨ Ø§ÙĪ
az o
Ã° an
ane fa
Ġà¦¬ à¦¸
Ġni je
Ġà²¬ à²³
Ð¸Ñĩ Ðµ
Ð¸Ð´ ÐµÐ½ÑĤ
Ġex ist
æĿ İ
au te
ĠÔ ¼
mas Ä±
ÙĦØ§ Ùģ
Ġro he
Ġmus ic
ĠAfr ica
ĠBrit ish
ĠÙħÙĦ ÙĦ
âĢİ )
Ġdun ia
Ġë§ Ī
Ġuta wa
é Ĳ
an al
Ð½ Ð°Ð¼
Ġt ent
Ġh eta
Ġr ot
ĠS ak
ĠA u
ĠA pp
ut sch
ĠÑĤ Ð°Ð²
Ò¯ Ñħ
Î± ÏĤ
Ø¹ ÛĮ
Ú¯ Ø§ÙĨ
Ġì Ĭ¤
à¨° à¨¨
ho i
ĠÐĳ Ð°ÑĢ
ĠØ² ÙħØ§ÙĨ
Ġà¦® à¦¹
Ø§Ø¦ ÛĴ
ĠÛĮ Ø¦Ø±
isch d
ĠQ ue
tor ia
Ġfin an
Ġpod er
æ± Ĥ
Õ¡Õ´ Õ¢
Ġmem iliki
aho od
lash gan
c ra
t k
ÑĢ Ð¾Ð¼
Ġm ore
Ġn s
is in
ĠÃ ħ
ĠS un
ta a
Ø´ ÙĪØ¯
ÏĦ Î±Î¹
ong an
Î¹ ÏĦ
à½Ĥà½¦ à½Ħ
ala a
Ġha in
à²¯ à²°
ĠÐľ Ð¾ÑĢÐ´Ð¾Ð²
Ġ×Ķ ×¡
ĠØ¹ Ø¨
Ġit ech
áĮ Ģ
ĠÐĳ Ñĥ
Ġà¤ī à¤¨à¤²
àªķ àª¨
elt emperaturen
Õ¾ Õ¥Õ¬
éļ Ĭ
Ġgra f
Ġprov ins
ĠlÃ¶d anefa
ĠBras il
P o
l Ã¢n
p as
¯ àŃ
Ġd ati
Ġd aya
Ġs og
Ġa ya
Ġl um
Ġl ati
Ġc op
ĠM iss
ĠÐº Ð°ÑĦ
à¤ķ à¤¨
ĠC alifornia
à¥Ģ :
ĠÐ¿ Ð¾Ð³
ov Ã©
Ġng ir
Å¡ ki
ĠÑĥ Ðº
ĠÑĥ Ð»ÑĮ
à¸²à¸ Ĭ
Ġje u
à¸Ļ à¸ķ
Ñİ ÑĤÑĮ
ĠÐĲ Ð¹
ĠÐ¿ÑĢ Ð°ÑĨ
à©ĩ à¨Ĥ
áĢ¼ áĢ±
Ġag h
Ġà¸ ķ
inn en
ÑįÐ³ ÑĬ
æĹ ©
à²ļ à²¨
áĥ· áĥĽ
Ġà¶½ à¶¯
Ġkont in
zh ÃŃ
ĠÐºÐ¾ÑĤ Ð¾ÑĢ
Ġtá» «
åĹ °
R e
f ra
h orn
w ir
Ġk ort
Ġl oo
Ġh ud
Ġv Ã¬
ĠM and
ĠM adr
ĠÐº Ð°Ð·
ĠB urg
ent ro
à½ł à½Ħ
ĠE ast
ie v
Ġon u
ĠÚ¯ Ø±ÙĪ
ĠY ma
Ġab ra
åŃ ĺ
à²® à²¨
Ġí Ļ
Ø§Ú ĵ
Ġgod Äģ
Ġsek ang
åĵ Ī
Ġê² ½
ĠFrank riek
ĠSm ith
ĠRich ard
C A
N g
Q u
b ah
d on
Ġ à½Ģ
Ġs imp
áŀ ¯
Ø± Ø³
Ġb ou
Ġc ri
Ð³ ÑĢÐ°
Øª ØŃ
ĠS ystem
id he
ra j
ĠT ir
ĠÙĪ ÙĪ
ov Ã¡
ĠÐ¸ Ð´
ĠØª Ûĩ
Ãł na
ĠV olk
à²² à²¦
Ã¬ s
19 45
Äĵ r
Ð°ÑĪ ÑĤ
×ł ×Ļ
à¸± à¹Ī
ĠÑĦ Ã¦
ĠÐµ Ð½
Ġàº ¥
Ġà§ Ń
Ð°Ð½Ð´ Ð¸Ð½
ĠØ§ÛĮ Ø³Ùĩ
Ġnu o
Ø±ÙĪ Ùģ
ĠÅ¡ k
ĠÐ±Ð°Ð¹ Ð´Ð°Ð³
ĠÑī ÓĢ
ëł ¤
Ġef ter
ĠØ§Ùģ ØºØ§ÙĨ
áİ¨áıĴ áİ¾
Ġtark ib
Ġpromed yo
l ju
æ ĳ
Ġ áŀģ
Ñģ Ó§
ÙĨ Ø´
à¤¨ à¤°
Ä± t
ĠD re
ĠÙħ Ø·
áĥĺ áĥĲáĥ¨
ĠH on
Ġch hai
à¶º à¶§
Ġ×Ķ ×ĳ
Ñĺ Ðµ
çĶ µ
ÑįÑĤ Ñį
199 9
ĠÎ¿ Î¹
ĠÙĥØ§ÙĨ Øª
ĠÐ¹Ð¸Ñģ ÑĥÐ·
ĠFrancis co
N U
c rit
Ì ĥ
Ġa on
Ð» ÐµÐ½Ð¸
Ġb he
Ðº Ð°Ð»
ĠS ara
ti ch
ĠC entral
ent ri
ing g
ÐµÐ½ Ð½
ĠG ab
ĠÐ¼ Ð»
Ġch Ã©
×¢ ×ĺ
à®ķ à®®
ĠÑĩ Ð¾ÑĢ
Ġ5 9
ĠÑį ÐºÐ¾Ð½Ð¾Ð¼
àª¤ àª®
àºŃ àº¡
Ġà¸ Ļ
Ġà²¸ à²°
if t
ĠÙħÙĨ Ø·
ĠInd ian
ĠÐ¾Ð± ÑĢÐ°Ð·
ãĢį ï¼Į
Ġáĥĺ áĥ¡
Ġsar ta
Ġlig g
Ġà»Ģàº Ľ
ĠVir us
çĿ £
Ġs Ã¼r
es en
Ġc asa
Ġh uv
ak golo
ĠM att
à¤¨ à¤¤
ta ch
à¤¯ à¤µà¤¸
ĠÑģ ÐµÐ·
re c
ent ra
ĠÙĪ Ø¬
ĠV el
ĠÑħ Ð¾Ð»Ð±
ip dir
Ġel ekt
ãĥ ¥
Ùĥ Ø§
ĠØ´ Ø§Ø¹
ìĿ Į
ind u
Ġ×Ķ ×¨
ih ugu
ier d
Ġà¦ħ à¦Ń
alis iniÃ±
èģ ŀ
Ġà»ģ àº¡
vel op
ĠÙĬØ§ ÙĥÙī
æĩ ī
åŀ ĭ
P O
k w
å ©
Ġd uk
Ð½ ÐµÐ²
Ġm ig
Ġb ac
Ġv ys
ad Ä±r
ĠÃ Ķ
Ġr ock
ul s
Ġ19 13
ĠÙħ Ø®ØªÙĦÙģ
Ġna u
ĠÙĪ ÙĦÛĮ
Ñĩ ÑĭÐº
ÑĨ ÑĨÐ°
Ġal c
ĠØª ÛĨ
Øº ÛĮ
Øº ÙĪ
ert s
åį Ĭ
æĺ ĵ
iss en
Ġby l
ĠØ§ÛĮ Ø´
ÙĦÙĬ Ùħ
æī ĵ
×Ľ ×¢
ĠÛ±Û µ
Ð¾ÑĪ ÐºÐ°ÑĢ
ĠØ§ÛĮÙĨ ØªØ§
Ġlat in
ÛķÙĪ ÛķÛĮ
æ¬ ²
×Ĳ×ł ×ĵ
Ġà®Ĩ à®£
ĠgÄ§ al
Ġdial ek
ĠÓ©Ð» ÐºÓĻ
Ġë³ ´
ĠRad io
ĠØ¹Ø¨Ø¯ Ø§ÙĦ
l op
Ġs vo
ar ca
Ġp aj
Ġc Äĵ
ti q
à½ĺ à½ĵ
ĠV ers
eb o
ãĥ Ĳ
ĠÐ· ÑįÑĢ
Äį no
Ġ×Ĳ ×ĳ
ĠÙģ ÙĪ
áĮ ½
ĠÐĶ Ð°Ð³ÑĬ
ïº į
à¸ļ à¸ļ
åĬ ¨
çī Ī
ÑĢÐ°Ð½ ÑĨ
199 0
ĠÐ°Ðº Ð°Ð´ÐµÐ¼
ĠáıĤ áİ¨áıĴáİ¾
à»Ģ àºģ
ĠØ¶ ÙĦØ¹
ĠØªÚ¾ Ø§
Ġáģģáģ īáģ
ĠØ´Ø±ÙĪ Ø¹
v est
Ġà¤ Ĭ
Ġa q
il es
il ya
Ġo j
ad pan
ÑĮ Ð²
ĠÐº Ð°Ð½Ð´
Ã¤ j
Ġna cional
ĠR io
Ġà¤ª à¤²
Ġst ra
ĠÛ ¶
ĠÐ· Ð°ÑĤ
ĠÑĢ Ð°Ð´
Ġon wa
Ġà¤Ĩ à¤¶
ĠØ¢ Ù¾
Ã£ d
Ø§Ø¦ ÙĦ
ĠÐ°Ð» Ðµ
ĠÎ± ÏħÏĦ
ÉĻr bay
ats he
åĳ Ĭ
ĠÐºÐ» ÑĥÐ±
æĢ Ŀ
ĠÐ¿ÑĢÐµÐ´ ÑģÑĤÐ°Ð²
ĠÐ±Ñĭ Ñŀ
ĠImp eri
n ig
Ġm art
Ġk ga
Ġb esch
Ġdi ad
ĠN j
ĠÐ´ Ð¾Ð´
Ð¾Ð» Ñĥ
ĠJ ahr
ĠU p
Ð°Ð³ ÑĢ
Äį ka
ĠÐļ Ð¾Ð¼
ĠÐ¿ÑĢ Ð¸Ð½
ÙĪÙĦ ÛĮ
Ġsi Ã¨
Ñĳ ÑĤ
Äķ k
ĠÙĥ ÛĨØ±
à¸¢ à¸§
Ġbo y
Ġpi Ã³
Ġà²Ĩ à²¦
Ġhab agatan
à»ģ àºķ
ĠÐ³Ð°Ð· Ð°ÑĢ
ĠÑĸÐ½ ÑĪ
Ø¹ÙĨ ÙĪÙħÙĩ
h il
k ah
in ar
Ġs ake
et sa
Ð°ÑĢ Ð¾Ð´
ro ch
Ġáĥ §
ĠE alisiniÃ±
ĠØ§ÙĦ Ùĩ
iz m
à¦¤ à¦®
Ġka u
Ġil m
Ġab er
ĠØŃ ÙĤ
Ġà¤ı à¤Ĺ
Äĳ en
à¹ĥ à¸Ĭ
Ġhad de
åł ±
ĠXV II
Ġë° Ķ
ĠÄĹ Å¡
èĲ ½
ĠÐ±ÑĭÐ» Ð¾
é¢ ¨
ÙĥÛĪ Ø²
h ad
z ie
ł à¼
en as
Ġs op
Ġk Ã¼
Ġg ag
ĠÑģ Ð°ÑĢÑĭÐ½
ĠÑĤ Ò±
ot te
Ã¨ ra
Ã¶ Ð´
Ð¾Ð½ Ð´Ð¸
Ġse par
ĠØ³ Ø§Ø®
Ã¢ ld
áĭ ľ
nd i
Ð°Ñħ Ð°Ð½
ÑĭÑĢ Ñĭ
à«Ģ .
Ġmu h
ĠAl eks
Äķ Ã§
Ð³Ð° Ð°ÑĢ
è¿ Ľ
èª ª
umb ang
Ġbin ne
Ġpent ru
m el
s che
w end
Ç Ĵ
æ ¶
Ġs od
ar Ä±
Ð¸ Ð²Ð°
al and
it ik
os tu
im en
ro b
ro u
ÃŃ u
ĠR ef
ĠÎ Ļ
ĠØ§ÙĦ Ø°
ãĥ ĩ
Î¹ ÏĥÏĦ
ÐµÑĤ ÐµÑĢ
Ġsu o
Ù¾ ÙĪØ±
Ġà¤¬ à¤¢
lu i
àºŃ àºĻàº
uv i
Ġles h
rop ol
æĽ ¾
Ġzu wa
Õ¡ÖĢÕ ¿
ĠÐ¾Ðº Ðµ
×Ļ×© ×ĺ
æ¯ ı
Ġnh á»¯ng
ĠÙĨÛģ ÛĮÚº
ç¯ Ģ
áĥĸ áĥĶ
ĠáĮį áĬķ
ÑĸÐ½Ð´ Ðµ
ĠmÃ¥n aden
Ġáİ¢áı§ áİ³
N e
s ha
s Ã©n
z ir
Ġt udi
at el
Ġc av
ag ua
à¤¨ à¤¨
Ä± ra
Ġàª ĺ
ÃŃ as
ĠI ran
ĠÐ² ÑĭÐº
Ġà° Ĵ
ĠØ§ÙĦ Ø«
ĠÙĨ ÙĪØ±
ĠÛ µ
ĠÑį Ð²
ĠÃ© t
ĠÙĬ Ûķ
Ġ9 5
ÙĪØ¯ Ùĩ
à½¤ à½¢
Ð¸Ñħ ÑĤÑĮ
Äĳ Äĳ
Ġev it
Ġ×ĸ ×Ļ×Ļ×Ł
ÑģÐºÐ¸ Ðµ
ÙħÙī Ø²
Ð¸Ð½Ð¸ Ò£
Ð¿ÑĢ Ð°Ð²
ĠÐºÐ°Ð» ÐµÐ½Ð´
ãĤī ãĤĮ
ëį ĺ
ë¯ ¼
l us
p us
r ys
ŀ Ī
ÑĢ ÑĪ
Ġm are
Ġk ec
un un
ÙĦ ÛĴ
Ġg li
Ã³ j
Ø´ ÙĪ
ĠÐ² Ð¾Ð´
Ġà¶ Ĵ
ĠV or
ĠO li
áĬ Ŀ
à²¤ à²¨
Ã² d
ĠÐ¡ ÐµÑĢ
ĠÐ¡ Ð°Ð¼
Ð¾ÑĤ Ð°
Ġà¤Ĩ à¤ķ
Ġq ay
Ġë Ĳĺ
à¦¼ à¦¿
ĠØ¹ ÙĦÙħ
ĠØ® Ù¾ÙĦ
Ġtr akten
Ġja ar
Ġà¤¥ à¤¨
ĠÐĺ Ð½Ð´
Ġáīł áī°
áĪµ áī°
Ġbol g
ìĹĲ ê²Į
Ġà®ķ à®Ł
áīł áīµ
Ġmill ion
ĠìĦ ¸
ĠtÄĵ tahi
Ġìľ ł
ÑĭÑĢÐ³ ÑĭÐ·
Ð¸Ð½Ð¸ÑģÑĤÑĢÐ°ÑĤ Ð¸Ð²
f ul
y el
Ã ģ
é ĵ
Ġs ve
Ġt us
Ñģ ÐµÑĢ
âĢ º
Ġh it
Ñį Ñĥ
ĠS et
ĠÐ± ÑĸÑĢ
Ġz aj
ĠÐ¿ ÑĥÐ»
ĠN erin
Ġen er
Ã« j
ĠV II
ug ar
ja w
ãĥ ĭ
Äį ke
Ġje ho
à®ķ à®°
ĠØ± Ø£
ĠÐ¡ Ð°Ð½
ÄĹ ju
Ġ×Ķ ×Ļ×Ķ
ier ra
áŀĽ áŀĢ
áį »áį
Ġ7 2
Ð½Ð¸ Ò£
ske je
ĠdÃ© c
ĠGu erra
áĭ« áĬķ
Ġbom akgolo
é¾ į
Ġnib ak
b ena
ì Īĺ
Ġs eni
Ġt Ãł
Ġm ari
Ġn er
at ie
at iva
Ġb ran
Ġb ili
àª ĺ
Ðº Ð°ÑĤ
Ġh ap
Ġv est
Ñį ÑįÑħ
ĠS y
ĠÑģ Ð¸Ð½
Ġng o
ĠV u
à¤Ĺ à¤¨
ãĤ º
Ø¹ ÙĪØ¯
ĠÑĢ ÐµÐ·
ĠÙĩ ÛĮ
äº Ľ
Ð¾ÑĤ Ð¾ÑĢ
Ġà¤¬ à¤¡
res o
ĠIn stitu
ĠÐ° Ñĥ
ĠÐ¢ ÐµÑĢ
ĠUn it
Ġga is
ĠSo omaal
ç§ ¦
Ù½ ÙĬ
rod uc
Ä±nÄ± Ã±
ë§ Ī
oms nitt
Ġê³ ł
Ġà¦ĩà¦² à¦¤
ĠOkt ober
y as
Ú ĥ
Ø§ ÛĮÙĨ
Ġk Ã®
al ari
el ig
un j
àª Ľ
Ġv ak
ÑĪ ÑĭÐ½
ĠC el
ab h
ĠH Ã³k
ĠÐ´ Ð°Ð¹
Ġà¤¸ à¤°à¤ķ
Ġsa j
Ġpro du
à´¾ à´Ĥ
we en
Ġ6 2
Ġsp esies
Ġit a
áĢħ áĢĬ
if a
ä¸Ģ ä¸ª
Ġmas o
Ġpre v
Ġà¹ Ħ
áĢ¡ áĢĸ
ĠØ¨ÙĪ ÙĪ
ĠÐ±Ð¸Ð» ÓĻÐ¼
à½ĺà½Ĳ à½¢
Äĭ i
×¨×Ĳ ×©
ĠÃ¢ n
éĸĭ å§ĭ
a ill
v eg
z em
z ek
æ ½
Ġt Ã¼rk
Ñģ Ñİ
Ġk Ã±
el in
et l
Ġh v
Ġg eg
Ġg le
Ð² ÐµÐ·
ĠÐº Ð¾Ð¹
ĠB raz
ĠN aj
Ġu od
ant h
ant is
Ð°Ð´ Ð¶
à¤¥ à¤²
Õ¡Õ¶ Õ¸ÖĤÕ´
Ã©n s
Ġdal s
ÑĭÑĤ Ñĭ
Õ¥Õ ¼
à¨¼ à¨¿
Ġbol sa
ĠÃ± i
Ġà¨ª à¨°
Ġho e
Ã¨r s
ÑįÑį Ñģ
ÑĥÑħ ÑĬ
Ġà¶± à¶¸
ĠLo und
ĠÙħØª ØŃØ¯
Õ¡Õ¦ Õ´
r Ã¤
y ÅŁ
Ñģ Ð°Ð½Ð°
Ġg agauz
ad ir
à· ĺ
ĠS ep
Ġy ay
ul la
ĠF ra
ĠF iji
ĠÐ¼ ÐµÐº
ov u
ĠÎ ¹
Ġda o
og le
ĠV as
Ð¾Ð² Ð¾ÑĢ
à²¨ à²µ
áĭ ©
Ð¸Ð» Ð¸Ð½
à¸Ļ à¸ª
ĠÐ¡ Ð¾Ð»
ru ct
ĠØŃ Ùħ
Ġáİ¤ áİªáıĹáıĹ
à¦ª à§°
ĠÐ¾Ð± Ð»
Ġ190 6
ĠCar l
ĠÐ°Ðº ÑĤ
ĠÕ¸ ÖĢÕ
azz joni
ĠÏĥÏħ Î½
Ġà¤ļà¤² à¤ļ
ihu itl
ĠØ³Ø§Ú© Ø§ÙĦØ§Ø±
íķĺìĺĢ ëĭ¤
ĠØ³Ø§Úµ ÛĮ
Ġd Ãªr
Ġm Ã¤d
Ġb od
Ġo Ä©
Ġv Ã¶
Ùħ Øª
id enti
im et
ng a
ĠÙĪ Ø¨
ÐµÐ½ Ð¸Ð¹
Ð¿ Ð¾ÑĢ
Ú© Ø§Ø±ÛĮ
ĠÞ ¤
ä¸ ĩ
Ġpr ins
Ú¯ Ø§
ow ej
ĠØ® Ø§Øµ
Õ¡Õ¶ Õ¡Õ¯
Ġav er
ĠÐĴ ÐµÐ»
ĠÃ¡ riÃ°
ÑĢÐ° Ñŀ
ĠÎµ Î½
Ġáĥ¬ áĥ§
Ġrel igi
àª¥ àª®
ĠÐºÐ» Ð°ÑģÑģ
Ġword t
ĠàŃ ¨
çī© çĲĨ
Ġpob la
ÄĿ is
æ® º
Ġleb ih
] ]
m or
x u
Ġd am
Ġt ata
Ġk ina
Ġl Ã¬
it es
Ġv iri
Ġg ez
Ø¯ Ø§Ø¯
Ð°Ð½ Ð¾
ro z
ÃŃ ch
ĠØ¯ ÛķÚ©
ut te
ÐµÐ½ Ð·
ot ti
à¥ĭ ,
Ġà° İ
ĠØ³ Ø§Øª
ĠV iet
ana ch
Ġta on
Ġas c
Ġam ih
Ó§ ÑģÑĮ
ÐµÐ¹ Ð½
à´Ł à´¤
áıĤ áıı
ĠÐ±Ð°Ð¹ ÑģÐ°Ð½
Ġ×¢ ×Ŀ
ĠáĮ Ī
ì§Ģ ë§Į
ĠTim ur
ays ia
ÄĹj ÄĹ
Ġà¨ķà¨° à¨¨
èĤ ²
ĠNap ole
Ð¾Ð¼Ð¾Ð½ Ð¾Ñģ
d Ãª
g Äĥ
n ic
p il
y ong
æ ¦
Ġd ou
Ġk po
Ñį Òķ
Ġw ad
ah at
ĠÑĤ ÑĥÐ´
ĠF I
Ġpr ost
ãĤ ¨
ĠÙĦ Ú©
Ġà¤° à¤¯
ard in
Ê¼ osh
ĠÐĳ ÑĢÐ¸ÑĤ
Ġem b
áŁĩ âĢĭ
å± Ģ
Ġkun ye
Ġáİłáı ¥
Ġà´¸ à´®
Ġgro ot
Ġâ Ħĸ
ÑĥÐ»ÑĮ ÑĤ
é¤ ¨
j m
k und
p ap
t hi
y y
Ñģ Ó©Ð½
Ġn ich
Ġk j
ol ki
Ð³ Ñĭ
Ġw r
ĠM erc
Ġy Ã¬
ĠB ri
Ġz n
ÐµÐ½ ÓĻ
ĠG w
la and
ĠÐ¼ ÐµÐ¶
ĠÐ¸ Ð¼Ð°
est r
ĠØ´ Ø£Ø±
Ġba ay
áŀı áŀĵ
Ð¸Ñģ Ð¾Ðº
ä» Ķ
áĢķ áĢĦ
Ġmar s
ÏĮ Î¼
ĠMar k
Ġaf ter
ä¹ĭ å¾Į
Ø§Ùĩ Ø±
ï¼ī ãĢģ
àµ¼ à´ķ
ãģ¨ ãģª
Ġpal ing
åĳ ĺ
åħ¬ åı¸
Ġà¤ĺ à¤°
ĠÚī ÙĪÙĦ
Ġqo Ê»
s et
© à¼
Ð° Ð¸
Ð° ÒĽ
ÑĢ ÑĥÐ·
Ġs Ã®
ar se
Ġe u
ÙĬ ÙīÙĦÙī
um as
Ð°Ð» ÑĭÐ¼
ĠØ¨ Ø¤
ĠÐ¿ Ð°Ðº
Ġan al
ÉĻ si
ĠÐ· ÐµÐ¼
ÐµÐ´ Ð¾Ð½
ani el
Ġre al
Ġà²ª à²¦
à°¯ à°µà°¸
ult ure
èĪ Ī
Ġà®µ à®°
iku wa
Ġplu i
iliz tli
ĠáĬ¥áĬķ áĭ²
ĠÐłÐµÑģÐ¿ÑĥÐ±Ð»Ð¸Ðº Ð¸
Ġstan ov
ÓĻÐ»ÓĻÑĢ ÐµÐ½Ð´ÓĻ
ĠFried rich
ĠbÄ§ ala
- ,
h on
y ang
Ġa al
Ġm erd
Ġb ÄĽ
as to
Ġo y
ir s
Ġr ig
Ġr iba
id el
Ð± Ð¸ÑĢ
Ġdo o
Å« d
Ġ×ŀ ×Ķ
à¸§ à¸¡
Ġ×© ×ĺ
éĢ Ł
Úª ÙĬ
ĠÐ°Ð´ Ð·
ĠÑĥÐ» Ñĭ
ĠìĿ ĺ
æĭ ¬
æĦ Ľ
åķ ²
ĠØ§Ù¾ ÙĨÛĴ
íĻ Ķ
G o
m ad
r ing
Ġd Åº
ÑĢ ÐµÐ·
at is
ÙĨ ÛĲ
et ik
Ðº ÑĥÑĢ
Ġf ine
Ñį ÑįÐ´
Ð°ÑĢ Ð°Ð»
Ñħ ÑĤÐ°
ĠÑģ ÑĥÐ´
áĥĺ áĥĲáĥ¡
ÑģÑĤ Ð¾
Ġà¤¸ à¤Ĺà¤³
ub i
à²² à²ķ
Ð°Ð³ Ð´
Ã½ Ã¤n
ĠÐľ Ð°Ð½
ĠÐľ Ð°Ð»
ind Ã¤
Ġ6 7
Ġre j
à¦¬ à¦¸
à®² à®¤
áĥĲáĥľ áĥ¢
Ð¾Ð· ÑĮ
×Ĺ ×ª
à²¥ à²µ
åł Ĥ
à¸¶ à¹ī
ĠÐºÐ°ÑĤ Ð¾
åĻ ¨
Ġjoy lashgan
B e
l ement
ï Ń
Ġd Ã¬
ÙĨ Ø§Úº
Ð¼ ÑĥÐ½
Ġi en
re ich
ĠK il
ĠØ¯ Ø¨
ĠØ¯ Ø§Ø±Ø¯
ĠI N
ĠN et
à¤® à¤°
Ð¿ Ð¿
à¥ģ à¤ģ
Ġse perti
Ð°Ñģ ÑĭÐ½
ĠÐ³ Ð¾Ñģ
ob al
ĠÛ ³
Ð¸ÑĤ Ð¾ÑĢ
à¥Ĥ à¤Ĥ
me e
áĢĲ áĢļ
ÑĥÑĤ Ð±
ĠÒ¯ Ð½
à®¯ à®²
Ò¯Ò¯ ÑĢ
ĠáĥĲáĥ ¦
Õ¸Õ ¬
çİ ĩ
×ķ×ł ×Ķ
Ġsek ete
ĠÙĨÛĮ Ø²
çľ Ł
ëł ¥
Ġáĭĺ áĪĺ
S an
b os
n ek
on zi
Ġk end
à¸ ¤
Ġc Ã´
ur us
Ġà¨ ĺ
ĠÐ± Ð°ÑĤ
ĠÐ± Ð°Ð·Ð°
ek in
ĠÐ¿ ÐµÑģ
ĠÐ¿ Ð¾Ð±
ri et
le p
Ò¯ Ð±
ĠW i
Ã´ h
áĥĿáĥ ŀ
Ġme e
ama i
ĠAl b
Ġ×ĳ ×Ķ
ĠÃ¡ ra
Ġà¤¶ à¤°
Ġus ed
tic u
Ġsam o
ĠÑģÐ² ÐµÑĤ
æīĢ ä»¥
ĠPort ugal
Ø¤ÙĨ Ëĩ
h te
Ġn ederbÃ¶rd
Ġo je
ĠS pan
Ġw et
Ñı Ñŀ
ĠT emp
Ñĸ Ð½Ðµ
ĠG or
ĠR ome
le v
ÑĭÐ½ ÑĪÐ°
ĠV ill
ib b
av en
à¤ľ à¤§
à¦ķ à§°
Ġko y
×ľ ×Ķ
Ġli u
Ġil k
Ã¹ r
eri or
áĢĻ áĢĦ
Øµ Ø¯
ĠÐ¢ ÑĢ
isi Ã³n
Ġà¦® à¦¨
à¸¥ à¸ĩ
ÑĥÐº ÑĤ
å· ±
Ġph Ã¬n
åŁ Ł
Ġcap ita
Ġà²ī à²¤
Ġmp onina
Ġfra h
Ð½Ð¾ÑģÑĤ ÑĮ
ÏĥÎ· ÏĤ
ĠÎ® ÏĦÎ±Î½
ĠÐ±Ð¸Ð»ÓĻÐ¼ ÓĻÐ»ÓĻÑĢÐµÐ½Ð´ÓĻ
I N
l on
Ðµ Ñı
Ġv ida
ad ur
Ñį Ð²
Ġr Ã©g
ĠS and
ĠS uku
ĠÐº ÐµÑĩ
ĠB ell
ĠÙħ ÙĪÙĦ
ĠÐ¿ ÑĥÑĤ
ĠÙĪ Ûģ
ĠÐ´ Ð°ÑĢÑĭ
ud h
ĠÎ Ĺ
ĠV ien
ob re
ãĤ ¦
Ġta i
ĠØ® Ø·
ĠÑį ÑĪ
ä» İ
ff en
Ġab ad
Ġki el
Ø§Ø¨ Ø±
ÐºÐ° Ñı
à»Ģàº Ī
à®¯ à®°
ÈĽ ie
à°ª à°¤
çķ Ļ
Ġ190 8
áİ³ áİ©
à½łà½ķ à½Ĥà½¦
Ġneb ula
ĠÙĥÛĲ ÙĬÙīÙĨ
Ġáİ§ áıĥáİ®
Ġkep ada
isÃŃ piu
E r
P er
Ġ Ð°Ð½Ð³
Ġp ig
or ra
or ish
am t
ÙĬ Ø±Ùĩ
Ġw atu
ĠM ans
ĠÐº Ð¸ÑĤ
ic es
ĠØ¯ ÛĮØ±
Ð± Ñĥ
ĠH ay
iy asi
ĠO rt
eng o
ĠÐ· Ð¾Ñħ
Ùģ ØªÙĩ
Þ¨ ØĮ
ni ch
nd an
Ġof t
à¶» à¶Ń
à²ª à²°
pe h
Ġter r
à¨¸ à¨¤
hu atl
Ø±ÙĬ Ùĩ
à®¯ à®¤
Ġà¤ĩ à¤²
Ġtra v
Ġein er
Ġnh Æ°
Ġneg ara
ĠØ¦ÛĪ ÚĨ
Ġpags asao
. ]
L es
h ip
n eg
Ġs ip
Ġs aman
Ġa x
Ð» ÑĭÐ³
ed on
Ġj áº¹
ĠB udd
ro bi
Õ¡Õ »
Ãł k
Ġpr uv
ĠÙ¾ ÙĨÚĪ
ĠÄ ĩ
Ùĥ ÙĪÙĨ
áĥĿáĥ Ļ
Õ¡Õ¶ Õ¤
amb e
áĢĽ áĢķ
Ġmed ia
Ø±ÙĪ Ù¾
ĠÐ¾ÑĢ ÑĤ
è¿ ĺ
ĠÐ¸Ð½ ÑĤÐµÑĢ
èĪ ī
èģ ¯
ĠTim or
ĠÒ¡ ÑĥÑĪ
Ġáĥ¬áĥĲáĥľ áĥĲ
Ġindiv idu
éĲ µ
M T
R o
S eg
f ran
k ak
l ate
Ú Ģ
í ĽĦ
Ġs qu
ÑĤ Ñĸ
Ġm ÃŃ
Ġb ala
ÙĪ Ø§Ø±
il it
Ġr Ã¡
Ġw henua
um me
im as
Ð· Ð¾
ĠÑģ ÑĥÐ±
ut ta
Ġan e
ĠÐ´ Ð¸Ð½
Ã¦ tt
Ġà¤ª à¤ķ
Ġst Ã¸r
ÖĢ Õ¡
×Ĳ ×ĺ
ke j
Ġà¤Ĩ à¤²
Ġest Ã¡
áŀĽ áŀĶ
ĠØ² ÙĪÙĨ
ÑĭÐ³ ÑĬÑĥ
ĠPar agu
Ġà¬¸ à¬¹
ãĢį ãĢĤ
Ġáİ¤áı ©
×ķ×Ļ× ¡
ĠNo ord
ìľ¼ ë©°
ç¦ ®
Ġprz ez
æ¢ Ŀ
ĠfÃ¸r ste
B o
j y
l ast
Þ Ĺ
Ġn Ã´
Ġb ola
un tr
Ġf ela
ĠA th
ĠL ife
Ġz osta
ĠÑĤ ÑĥÐ»
Ð± ÑĭÑĤ
ĠÐ´ ÐµÐ¼
ĠÞ ķ
ĠØª Ø£
à¤¦ à¤ķ
ĠÑħ ÑįÐ¼
ÏĦ Î¬
ãĤ ĵ
ãĥ Ĭ
Ûĩ ÙĤÙī
Ø§Øª Ø±
Ġë ²
Äĵ c
åĲ ī
ess u
ĠÐĶ Ð°ÑĢ
à¸Ĺ à¸³
Ġmil itar
åº ·
Ġà¨ª à¨¹
ĠTh is
Ġtemp o
Ġáİª áİ¯
ĠÅĽ e
ĠÐ¾ÐºÑĢÑĥÐ³ ÑĭÐ½Ð´Ð°
ĠBla ck
C on
P S
Õ §
Ġm ec
Ġl ic
Ġl Ãµ
es z
Ġb oh
ÙĦ ÙĪÙħ
Ð´ ÑĥÐº
Ġg ub
Ġr ik
Ø¯ Ø©
ĠT ong
ĠD ub
à¤® à¤¹
ĠG eb
ĠH il
Ã¨ me
Ò¯ ÑĪ
Ð°Ñģ Ð°Ð½
Ġpr us
áŀĢ áŀĵ
ÄĹ Å¡k
ru ck
Ò» ÑįÐ½
Ġ7 50
Ġ8 3
ĠÃł ti
Ġà§ §
Ã©s ia
Ġ×ĵ ×Ĳ×¡
uf u
ĠMa i
Ð¾ÑģÑĤ Ð°
Ð°ÑģÑĮ ÑĨÑĸ
ĠØ¬ÙĨ ÙĪØ¨
ĠtÃ© h
ÉĻl ÉĻr
áĬĽ áĭį
Ġà¤¸à¤ķ à¤¤
ĠHen ry
ĠÑĢÐµÐµÑģÑĤ ÑĢÑĭ
ÉĻrbay can
j yn
í Į
ar ab
Ġg ape
ol g
Ð³ Ã¦
ti va
Ûķ ÙĬ
ĠÑģ ÑĥÐ²
ĠÑģ ÑĢÐµÐ´
ĠÙħ Ú©
ri pt
ie u
Ã¶ ÑĢ
Ġà° ¹
ĠÐ¾ Ð¿ÐµÑĢ
áī ²
ub ah
ĠÛ ·
ĠÑĦ ÑĥÑĢÑĥÐ´Ð³Ð¾
Ġáī ³
ÅĦ sk
Ġut iliz
áĪµ áĮ¥
Ġres ta
áĥĲáĥłáĥ Ļ
ÑįÑį ÑĪ
ĠÑįÑĢ Ð·
Ó¥ ÑģÑĮ
ĠAt lan
ĠIm per
ĠÒ³ Ð°Ð¼
ĠÑĤÒ¯ Ð±
è¬ Ĥ
é£ Ł
Þ Ļ
en sk
Ð» Ð¸Ð²
Ġt eb
Ġt si
Ġp and
Ġk av
Ġ1 01
Ġe Ã½
à¤° à¤ļ
ĠS A
Ã³ va
Ñĸ Ð¶
ĠÐ¿ ÑĸÐ´
ĠN ev
ĠN acional
ud s
ĠÕ Ĩ
ÐµÑĤ Ð¸
Ù¾ Ø¯ÛĮØ§
áĥĿáĥ ¦
Ø® ÙĦ
áıį áİª
Øº Ø±
áŀĦ áŀĬ
Ġ×Ķ ×Ĵ
Ú¾ ÛĴ
Ġà¤Ĺ à¤ĩà¤²
Ð¸Ð¼ Ð°Ð»
à´° à´¸
Õ¸ÖĤ ÖĢÕ
áĥĺáĥ¡ áĥĺ
ĠÐµ ÑĢ
ess en
Ġà¸ £
ĠÐ±Ð°Ð¹ Ð³Ð°Ð°
Ð²Ð°ÑĢ Ð¸
èµ °
Ġrah v
miÅŁ dir
é© ¬
à¹Ģà¸Ĺ à¸¨
j j
w it
x an
an ni
is ana
Ġc ultura
il in
Ġh Äĵ
à¤¯ à¤µ
ĠT Ã¡
ĠD al
Ġ19 15
à¤® à¤¯
à» Ĩ
na v
Ġst rat
io on
Ġam m
à¸£ à¸£
ĠÐ» Ð¾Ð¼
Ġë ķĮ
era jaan
å® ¤
à½Ĳ à½Ĥ
Ġom na
fr ed
Ġur b
Ġà¦ħ à¦ķ
Ġsom e
ĠAng eles
ros oft
áĥĺáĥľ áĥĲ
Ġá» ¥
Ø§Ø¹ Øª
Ġparti cip
ĠáĢĲ áĢħ
str ument
ĠFl or
ĠÐºÐ¾Ñĺ Ð°
è± ¡
z ioni
¢ áīµ
Ã ĩ
Ä £
Ù Ľ
Ġ ÉĻs
Ġp Ã¨
Ġm Ãµ
Ġn eng
Ã© b
Ġj ira
ĠÐº ÐµÑģ
ĠÙħ ØªØ±
ri os
Ð¾ÑĢ Ð¾
Ã¦ l
ni Ã±
Ġand ere
ĠáĬ ķ
ĠÑĦ Ð¸Ð·
any i
à¶¸ à¶º
Ġbi ja
ĠáĥĽ áĥĺ
Ġà¤¶ à¤¬
à»Ģàº ®
è¡ ĵ
à¹ģ à¸ķ
Ġ×ł ×Ļ×©×ĺ
ĠÑĥÑĢ Ð½Ð°ÑĪ
æİ ¨
Ġprincip al
à½Ĥà½Ļ à½Ħ
Ãºbl ica
ĠÃ§al Ä±ÅŁ
a ie
d Ã¡
Ä ī
in ÉĻ
Ġs Äħ
Ġt ung
à¤° à¤§
ur at
ĠM old
im ir
ĠÐº Ò¯ÑĢ
ĠÑĤ Ð¾Ð¹
ï¼ Ł
ĠW elt
ĠÕ ¹
Ġle ap
ib er
ĠØ¬ Ø±
Ð¾Ð³ Ñĥ
we i
à©Ģ ,
áŀĦ áŀ¢
Ġth Ã¡ng
Ġed il
à¶¸ à¶ļ
Ã¸ d
ĠMar y
å¤§ åŃ¸
ä¿ Ħ
çĤ ¹
åĭ Ŀ
ors z
Ġà§§à§ ®
Ġstat us
ĠÙ¡Ù ©Ù
Ġsigni fic
ĠÐ²ÓĵÑĪÐ»Ð¸ÓĵÐ»ÑĤ ÑĪÓ¹
ĠMadr id
M u
f Ã©r
Þ ¢
Ðµ Ðµ
Ġa ke
Ġb ari
Ġb Ã½
Ð´ Ð¾
Ġr h
ĠM est
ĠÐº Ã¦Ð½
ĠC amb
à¤² à¤¤
Ġ19 16
ut r
ĠR iver
Ã¼ b
wa ÅĤ
ĠW at
Î± Î¸
áĬ Ĵ
Ø¦ Ø´
Ġma e
Ð¸Ñı Ð½Ñĭ
à¯ģ ,
19 80
à´ķ à´°
Ø§Ø¯ Ø§
ĠCh u
×ł ×ĵ
à¸ĩ à¸ª
ĠAl t
ÛĨ Úĺ
ÛĪ Ùĥ
à»Ģàº «
Ġà¶ļ à¶½
ĠáĢ¡ áĢĢ
ĠáĢ¡ áĢŀ
áĥļ áĥĶáĥĳ
Ġmot se
ĠÑī ÑĭÑĤ
Ù½ Ø±
éĤ Ħ
Ġà»Ģàº Ĭ
ĠÃ¼Ã§ in
ĠÐ±Ð¾Ð¹ ÑĭÐ½ÑĪÐ°
ĠØ¬ÙħØ¹ ÛĮØª
P ar
n oj
ç °
ĭ áĪĭ
Ġd anda
in si
Ðµ Ñĺ
ÑĤ ÐµÐ¼
Ġa tr
Ġt av
Ġp jes
Ġm ala
Ġk we
al ir
Ġl ay
Ġc and
Ġh ow
Ġh iji
Ġg un
Ġw Ãł
Ñı Ð»Ñĸ
ĠÐ± ÑĥÑģ
Ñĸ ÐºÐ°
ĠI to
ot an
ĠH am
Ã« d
ok at
Ġal d
ug Ã©s
Ø¹ ÙĬ
ĠÑĢ Ð°Ð´Ð¸
Ġta Ã°
Ġsu ya
à¦² à¦¨
Ġje j
di i
ÙĬÙĨ ÙĬ
àºĻàº ¥
Ġver b
Ġ×ķ ×ŀ
ĠEn ero
ĠÏĢ Î¿Î»
ĠÅŁ eer
Ġinter net
Ġà²Ĩ à²¯
Ġmod el
äºĮ åįģ
ĠÙħØ´ Ùĩ
Ġshek ara
á»ĵ ng
áĭ® áĮ
ĠKabupat Ã¨n
i Ê¼
Ġs itt
Ġa yn
Ð» ÑįÐ³
Ð» ÑįÑģÑĮ
Ġt Ã©r
on en
es wai
it im
ĠS ran
Ġi Ã¢
ĠØ§ Ø±Øª
Ġj est
ĠD ok
ĠL im
ek an
ĠE f
×Ļ× Ĺ
ĠÐ¼ ÐµÑħ
ĠØ¬ ÙĦ
Ġas i
ata o
ĠÐŁ Ð¾Ð»
ĠÙĬ ÙīÙĦ
å® ĭ
ĠÒ ±
ĠÛĮ ÛĮ
ï» Ł
Ġà¶´ à¶»
ĠáĥĲáĥ ¡
ÐĲ Ð¢
ami ento
à¶ľ à¶Ń
Ġ190 7
ĠØ§Ø³Øª Ø¹ÙħØ§ÙĦ
ĠPa ci
ĠMal aysia
ĠÐĻ Ð¾ÑĪÐºÐ°ÑĢ
Ġbek end
Ġkill api
3 00
G u
T im
k ie
n Ã¨
p ra
Õ »
æ Ĩ
áĢ ¦
Ġp unt
Ġn ito
Ġb ron
el ela
Ġf ri
ĠS id
ĠT ri
Ġz uten
Ġz ituzten
Ø¨ Ø©
ĠÙĪ Ø®Øª
ĠH el
ĠF ren
ĠV ar
à¤Ĺ à¤µ
Ġte h
Ġper ts
ind er
ĠØ¹ Ø±
Ð°Ð± Ð¸
ĠÑĨ I
Ġiz an
áŀ¾ âĢĭ
igh ts
ĠØµ ÙĪØ±Øª
Ġá» Ł
åİ ¿
ç´ ł
ĠáıĹ áıĤ
Ġpra c
é» ¨
ĠÐºÐ¾ÑĤ ÑĭÑĢ
çł ´
g or
l ara
w w
ê ¸
Ġ Ð°Ð½Ñĭ
Ġd ara
Ġk Ä±
Ġf Ã³l
ĠS r
ĠS ub
ĠA D
ĠL ie
Ġz Ä±
ĠØ¯ Ø§Ø®
Ã« ri
Ð¾Ð½ Ñı
ĠÐ² Ð°Ñģ
Ø§Ø ¸
da a
ĠÐ· Ð°Ð´
Î¹ Î¼
Ð¸Ðº ÑĤ
Ġto o
oj en
ĠÑį Ð¿
à¤ĸ à¤°
Ġà²ķ à²²
18 60
Ġut anas
èĪ ¹
çĻ º
éĿ ©
ÏĥÏĦ Î·
èĻ ķ
Ġbev olki
íĸ Īëĭ¤
åĮħ æĭ¬
T e
Å £
Ġd ow
Ġd hu
in er
Ġs eks
Ġa ux
Ð» Ð¸Ñĩ
Ġt emb
Ġt odo
Ġk ug
as jon
Ġr oce
Ġy ek
ĠB ag
ĠL eg
ĠÑĤ Ð¸Ð¿
Ġan to
Ġan che
ÙĤ Ø§ÙĦ
ĠÕ ¦
ÓĻ Ò¯
ĠØ¦ ÛĩØ±
Ġà¤µ à¤¸
Ġte chn
ĠÙĤ Ø¨ÙĦ
Ġq Ä±
å¤ ´
ÏĢ Î¿Ïħ
ÙĬÙĨ Ùĩ
Ġge upe
Ġà¶ļ à·ħ
áıĤ áİ¬
ĠAs sociation
èģ ĸ
Ġhabit antes
à¾¦ à¾±
ĠØ¯ÙĪØ± Ø§ÙĨ
ĠÖ ĥ
isip al
Ġdirec tion
f j
s m
y ari
Ø§ ÙĪÙĦ
er min
Ð¸ Ð¸Ð½
Ø± Ø§Ùħ
Ġb ele
am us
Ġv ik
Ġà² §
im h
ĠC ole
à¤² à¤µ
ĠÐ± Ó©Ð³
×ķ ×ķ×Ĳ
ĠÚ© ÙĪÙĬ
ers i
Ġst ato
se y
áŀļ áŀı
ĠÑĢ ÐµÑģ
à¤ľ à¤¸
ĠÙĤ ÙĪÙħ
áģ ģáģ
ĠCh in
ÐµÐ¹ Ð¼
Ġag ugu
pa Ã±a
ato ari
Å¼ e
ĠÑĺ Ð°
Ġáĥ¬ áĥĶáĥļáĥ¡
Î±Î½ ÏĦ
è³ ½
à·ģ à¶º
ĠColl ege
¢áīµ áĭ®áĮ
B u
C om
D r
l ans
s al
w or
w and
é ¨
ĳ Ĳ
Ġt ika
Ġp ublik
Ġk aya
at re
el an
Ã© yah
ĠC ro
ĠÑģ Ð°ÑĤ
ab ak
ng ie
ĠÐ¿ Ñĥ
ĠÐ² ÑĬ
ĠÑħ Ð¸Ð¹
Ûĩ ÚŃ
ĠÑĢ ÑĥÐº
Ġsu ch
lar Ä±nda
ÑĥÐ½ Ðº
Ð°Ñħ Ð¾Ð´Ð·
ĠY Ãłlla
àº° àºļ
Ġàº Ľàº°
ĠÐĴ Ð¾Ð»
ÐµÐ³ Ð¾
æķ ´
ĠØ§Ø³ Ø§Ø³
ement s
×¦ ×¨
à¤¼ à¥į
æĻ ¯
Ġnas c
ĠØ· Ø¨
ÒĻ ÓĻ
èª į
Ġà®ħ à®¤
ume ur
ĠÐŁÑĢ ÐµÐ·
éĹ ´
Ġimport ante
ĠÐ¹Ð¸Ñģ Ð°Ð½
Ġday toy
eny ane
ĠStat isti
Ġà¤¨à¤Ĺà¤° à¤ª
Afr ika
¢áīµáĭ®áĮ µ
O M
q as
ì ¶
Ġd Ã©n
Ġd Ã¼ÅŁ
Ġk ini
Ġv all
Ġg est
Ġw it
Ùħ ÙĪÙĨ
ĠA S
Ġin stitu
Ġj Ã«
Ġdi z
ĠP ress
ĠÑģ Ð¾Ð²ÐµÑĤ
ĠI SO
ĠG ol
à¥ĭ -
ĠE b
à¥ģ ,
Ú© Ûķ
Ġsa at
ÅĤ i
Ġà¤ħ à¤¦
Ġ18 00
Ġka q
åħ ¸
ÐµÐ¼ ÑĭÐ½
æľ «
ÑįÐ½ Ñį
Ġ6 8
ĠÐł ÓĻÑģÓĻÐ¹
adi i
vi je
à¨¦ à¨°
ĠMa x
ĠMa ur
ìĹĲ ëĬĶ
à¾¤ à¾±
Ġà²¤ à²®
Ġhu wa
Ġik ki
ĠÕ´ Õ«
ĠKa undi
Ġlib er
à¾¨ à½¼
æĢ »
ĠáĥĶ áĥłáĥĹ
ĠÑĢÐ°Ð· Ð²
pro gr
Ġkilom eter
ĠÕ¡Õ ·
ĠÙĨØ¸ Ø±
ĠJohann es
ĠÕ¥ÖĢÕ ¯
ĠÑĥÑĢÐ½Ð°ÑĪ ÐºÐ°Ð½
M e
l ek
s at
Ġ áŁ
Ġ áŀľ
Ġ >>
Ġs int
Ġa yaa
Ġp ac
Ġk art
et ate
Ġh ana
Ð¼ Ð¸Ð½
ol le
Ġr ac
id al
Ø§ÙĨ Øª
he z
st va
sk oj
ÅŁ y
ĠØ¦ Ø§Ùħ
Ä« b
Ġà¤Ĩ à¤ľ
à°° à°ķ
ier o
à´° à´ķ
à¸ģ à¸§
Ġà¤¯ à¤¦
àºĻàº ŀ
ÑĤÑĭ Ò£
Ġ13 0
ïº ª
aya an
éĻ ³
Ġseg unda
Ġtan Ãłna
ath er
Ġnas el
Ġáİłáı °
Åĳ l
Ġgeb ro
ĠÐ¼ÐµÐ½ ÓĻÐ½
á»ĳ c
Úķ ÛĮ
è¶ ³
ĠìĹ ¬
çģ «
à¸ł à¸²à¸ŀ
Ġheman ari
à¤ Ĭ
Ġd Ã¡
Ð¸ Ñį
Ġp ele
as al
ch in
or p
Ðº I
Ġv ag
Ġde el
ur r
ir il
ol la
Ġr ist
om ba
Ùħ Ø§ÙĨÛĮ
ĠB erg
Ñħ Ð°Ð»
ĠÑģ Ð¾Ð²
ĠÑģ ÐµÐ½ÑĤ
ĠI ka
ĠN ig
ĠH ill
Ã¨ la
ĠÐ´ Ð°Ð¼
ĠF C
ud z
de b
Ġar tic
Ïģ Îµ
ĠY er
ĠáĪ ¥
Ġag wu
ĠÃ¤ n
Ġ×ŀ ×¡
ĠÐ±Ð¾Ð» ÑĮ
à¦ĩ à¦Ł
Ġok uk
æŃ ¢
ĠÎ± Î½Î±
ØªÙī Ù¾
à¤µà¤° à¤£
ê° Ħ
çµ Ĥ
áĮĪ áĪŃ
è³ ĩ
Un ivers
ĠgÄ§ all
Ġmark api
Ð°Ð±Ð¸Ð» ÐµÐ±
L u
f eld
v ard
en zi
Ø§ ÚĨ
Ġl ua
Ġl ind
is ku
or at
el op
un it
Ð¼ Ð¾Ð½
Ġj et
Ø³ Ù¾
ia us
ĠÙħ ÛĮØ±
ĠÐ¿ Ð»
ĠÐ¿ ÐµÐ´
ÑģÑĤ ÐµÑĢ
Ġà´ ±
ĠØ³ Ø§ØŃ
áī ¹
ÉĻ ri
Ġà¥ ł
eng ah
Ùĥ ÙĬ
io in
à®¿ ,
ĠØ± Ø§Ø¬
ĠÑĪ Ð¾ÑĤ
Äĥ Ð¼
Ġà¤Ĺ à¤£
ĠÑĦ ÑĥÑĤÐ±
åį °
Ġáİ¤ áıħ
ĠX III
Ġà·Ģ à¶½
à°Ł à°°
ĠØ· Ø±ØŃ
Ġáĥĺ áĥĽ
æ± º
éĥ¨ åĪĨ
Ø¢ ÙĨ
Õ½ Õ¿
Ġcal ender
Ò»Ð° Ð°
ĠÐ³ÑĬ ÑįÐ¼
Ġnatur al
ĠÑĢÐµÐ³ Ð¸Ð¾Ð½
D em
j d
k v
ch ia
it us
Ġc ostr
à¨ ĺ
am ah
Ġv Ãª
Ġf Ã¥
Ġr ug
Ġr ou
Ġw orn
ĠÐº Ð¾ÑĪ
ĠB ach
ic ion
ĠÙĪ Ø¬ÙĪØ¯
ĠR oy
st vo
Ġu v
Ã« k
Ú© Ø±Ø¯
li i
ĠØª ÙĪÙĦ
Ġar u
Î± ÏģÎ±
áŀĵ áŀĬ
×¢ ×ĵ
Ø¦ ÙĪÙĨ
Ġper c
ĠÐ¿ÑĢ ÐµÐ¼
à¶º à¶º
ĠÙģ ÛĮÙĦ
ĠÐľ Ð°
áŀĦ áŀĩ
Äĵ s
ys s
àºŃ àºļ
ÙĬÙĨ Ø©
Ġter d
çĶ ļ
Ġê ¹
ÑįÐ» Ð»
ĠÐ°ÑĢ Ð¼
éĢ Ļ
ĠØ§Ø³ Ùħ
Ġí Ķ
Ûĭ ÙīÙĬ
å¯ Ĩ
199 5
ç¾ ¤
Ġà¦ļ à¦¨à¦¤
åĸ ®
à¾¨ à¼ĭ
áŁĦáŁĩ âĢĭ
ĠAnton io
c le
k Ã®
p hu
à² ĩ
ĠS ti
Ġw ork
ĠP ag
ĠÑģ Ð°Ð²
Ġàª Ł
ĠH r
ĠÐ´ Ã¦ÑĢ
ha v
Ã´ te
ĠÐ· Ð°Ð³
ni u
Î¹ Î»
×Ĳ ×Ĵ
Ð¸Ðº Ð»
áŀĢ áŀŁ
ke y
Ġ×Ĳ ×Ļ×Ļ×ł
ce ae
und s
Ġab b
ĠÏĦ Î¹ÏĤ
á¹ Ľ
Ø§Ø³ Ùħ
ÑĤÐ° Ñŀ
ÛĪ Ø²
ĠÐ°Ð» Ð°
ĠÃ¾ aÃ°
ĠáĢ¡ áĢĽ
Ġbil o
ss on
áĢ¡ áĢĻ
à¥Į à¤Ĥ
201 6
ìĦ ¸
Ġwat api
Ġcont inu
Ġà²ī à²¦
áºŃ n
ĠØªÚ¾ ÛĴ
áŁł áŁł
ÑĬÐ» Ð³Ð°ÑĢ
Ġwux uu
] )
l akan
s Ã®
t Ä±
¯ à³
í ģ¬
Ġd la
Ġs ust
ar ta
Ð» Ð¾Ð¼
Ñģ Ñģ
Ġn ne
os an
os se
Ġw ell
Ġw hen
ĠØ§ ÚĨ
ĠK ra
Ġla p
ant en
ĠÙĨ Ø²
ãĥ ł
ĠØ´ Ùī
ĠØ´ Ø§Ø±
ys z
åľ º
ÑĭÐ¼ Ð°ÑĪ
Ġ7 6
Ġ15 00
à¬¨ à¬°
Äĩ u
ĠÐ±Ð¾Ð» ÑĥÐ¿
ĠÃ¾ Ã¦t
tic as
ĠÐĽ ÐµÐ½
à¦¶ à¦¨
àºŃàºĩ àºĹ
Ġmak gol
Ġdist rit
ç§ »
Ġbel g
ÄķÐ½ ÑĩÐµ
Ġprin ci
Ġìł Ħ
ĠÃģ rea
Ġà¦¸à¦® à¦¯
ĠØªØ§Ø±ÛĮØ® ÛĮÙĨØ¯Ùĩ
Ġish te
Ġìľ Ħ
ĠEg ip
åļ Ł
áĬķáĮį áĪ¥
k Ã¢
w is
er ta
ar di
Ġm ult
al j
àª ł
Ġde ven
ol is
ed an
ĠB ru
ang l
ĠD am
ĠÐ± Ð°ÑĢÑĭ
ah t
Ġz ab
ĠG es
Ã¨ ne
ĠÐ´ ÐµÐ½
Ð¶ Ð¾
ĠÐ³ ÐµÑĢ
áĬ Ķ
Ġes k
ĠØ± ÛĮØ§
Ġre i
å¹ ¾
ĠÐĳ ÐµÑĢ
lo und
ff t
ĠáĪ ģ
ĠAl bert
àºĶ àºĸ
aj n
Îº ÏĦ
ĠØŃ ÙĬ
Ø§Ø¦ ÙĨ
ĠÛĮ ÛĲ
af a
Å¯ ÅĦ
ÐµÐ³ Ñĸ
à¤ĩ à¤¤
áıĵ áİ´
ÑĥÐ± Ð»Ñĸ
Ġà²ħ à²²
uf t
Ġdis se
à¸« à¸£
ĠáĥĴ áĥĲáĥľ
×Ľ ×Ł
ĠØ¨ÛĮ Ø´ØªØ±
çī Ļ
Ġà²ĩ à²ª
Ð¸Ð¿ Ðµ
àª£ àªµ
ĠÑģÐ¿ Ð¾ÑĢ
Ġhin di
ĠCan ada
ĠÐ³Ð°Ð· ÐµÑĤ
Ġcentr al
Ġëª ¨
Ġetx ek
Ġbevolki eng
f lu
Ħ °
en os
ÑĢ ÐµÐ½
Ġs isch
ar ka
on k
Ġn ch
Ġg av
ĠØ§ Ø«Ø±
Ø³ ÛĮÙĨØ¯ÙĨ
im is
Ġdi Ã½
ĠC ab
Ġàª ĵ
ĠØ¯ ØºÙĩ
ut as
Ã¨ g
Ã¼ y
Ġse h
ha u
ĠáĢ ¦
Ġcon qu
ÐµÐ¼ Ð¿
áº ±
Ġ×Ķ ×¨×ĳ
Ġ6 6
Ġx u
ĠÐĳ ÑĥÑĢ
àªµ àª²
Ġáİ¤ áıĵ
Ġpol ÃŃ
Ġpop ula
Ġein em
ĠSan ti
199 6
Ġà¦ļ à¦²
ĠØ¨ÙĨ Ø§
ĠRep ublic
ĠKr ist
Ġmul ieri
ĠUnivers it
ĠKon kn
á»ĩ t
Ġperson as
ĠSup er
ĠØ±Ø§Ø³ Ø§
ĠØ¦ÛĨØª ÙĥÛĪØ²
S R
e ff
m y
m int
n de
an is
Ġa sk
Ġk ob
al ang
Ġb anyak
Ġh ov
Ġv era
us ch
ti vo
Ġz on
le z
ok uba
Ø´ ÙĬ
ĠÐ² Ñģ
ĠÐ¼ ÐµÑĢ
ĠÎ §
Å¡ en
Ð°Ð² Ð°Ð½
ĠÐ· Ð°Ð½
àºĻ àºŃ
ung g
ÄĹ r
ĠÑį Ð´ÐµÐ¼
à¦¬ à¦¨
ĠSt udi
àºģ àºª
ÐµÐ· Ð¸
ler in
áıĽ áıĹ
ĠÚ¾ ÛĨ
ĠáĥĲáĥ ļ
æķ Ĺ
ÎŃ Ïĩ
Ġmer c
ÙĦØ§Ø± ÛĮÙĨ
Ø¸ ÙĬÙħ
áĥĶáĥľ áĥĵ
æ² Ļ
è¦ ª
Ġà¬® à¬¹
ĠBar b
ĠAt lant
ĠÑĳ Ð½
ĠvÃł o
áº£ n
ĠÐĻ ÑĭÐ»ÒĵÐ°
Ġtang gal
ĠØ¹ÙĦ Ø§ÙĤ
Ġdiff er
eber apa
ĠÐ±Ó©Ð³ Ó©Ó©Ð´
I A
d je
x on
Ġt ÇĴ
Ġl he
Ġb ayan
or r
Ġc yn
ir wa
Ġin sp
Ð°ÑĢ Ð¸Ð½
Ġj bena
ro j
Ġz in
ĠÐ¿ Ð»Ð°Ð½
od ik
ĠR ang
ĠØª Ø¨
iv an
Ó© Ð´
up t
ãĤ ª
ĠÙ¾ Ø§ÛĮ
Ø² ÙĨ
ÅĤ ad
ÐµÐ¼ ÐµÐ½ÑĤ
ĠÐļ ÑĥÑĢ
ĠÑĪ Ð¾
Ġcom pr
Ġme hr
ĠÐĳ Ð°ÑĪ
Ġgr andi
Ġ8 4
ĠØ² ÛĮ
Î¼ Î²
à¾³ à½´à¼ĭ
ĠÐ±Ð¾Ð» ÑĥÑĢ
Ġ×ĵ ×ķ×¨
ĠÐĽ Ð¾Ð¼Ð¾Ð½Ð¾Ñģ
à¸« à¸§
ÑĭÐ½Ð´Ð° ÒĵÑĭ
Ġà¤ķà¤° à¤£
sta v
çĻ »
ĠáıĹ áİ¦áıĺ
ä¸» è¦ģ
198 9
æ¯ į
à½ĺà½Ħ à½ł
ĠReg ion
Ð¸ÑĩÐµÑģÐº Ð¾Ð¹
æ© ĭ
æ· ±
ĠØ³ÙĨÚĮ ÙĬ
h os
n ot
n ke
o ff
Ġd int
er ti
Ð¸ ÑĨÐ°
Ñģ ÑıÐ½ÑĮ
Ġl un
Ðº Ñı
Ã© pe
ĠB ank
ek om
ĠR ot
ĠH arr
iy en
Ġqu ali
Ġte x
Ġà¤ľ à¤¸
áŀĦ áŀĺ
all s
à½ŀ à½ĸà½¦
ĠAl em
àºĶ àºķ
à¹Ģà¸ Ħ
à¤ĸ à¤¨
à¸Ĺ à¸²à¸ĩ
Ġà¤ĩ à¤¸à¤ķ
å¸ Į
ĠPro f
Ġnj egov
Ġà¥§à¥ ¬
ĠáĮ ¥
åħ¶ ä¸Ń
Ġmang rupa
ĠNor te
áĥĺáĥ£áĥ ļáĥĺ
ë³ ¸
ĠØ§Ø¨ ÙĨ
Ġ×Ĵ×¢×ķ ×ķ×Ĳ×¨
Ġtaraf Ä±ndan
c um
p á»į
w ad
Þ ŀ
an sa
Ġt amiÃ©n
Ġk ik
Ġk ish
al b
it hi
Ðº ÑĭÐ½
Ġde z
Ġg sch
Ñį Ð½Ñĭ
Ġr ish
ĠS ultan
áĪ ł
ut es
ĠÐ´ Ð¾Ð¼
Ġà´ «
Ġà´ ı
ä¸ ¤
ĠJ ah
Ð°Ñģ Ñı
Ġar upi
ip l
Ġqu an
Ã² t
ac iones
ÅĤ aw
Ð¸Ñı ÑĢ
ich er
à´ķ à´¤
à¸£ à¸ģ
à²¯ à²¦
ÛĮØ§ ÛĮÛĮ
à¦® à§°
Ġáı ©
ĠÙĬ Ø¹
ĠÐµ Ð´
Ġàº Ĭ
ĠÐł Ð¸Ð¼
Ġang l
Ġà¦Ĩ à¦¹
ÙĦÙĬ Ø©
Ġà¤ªà¤° à¤¸
ÙĨÛĮ Øª
éĻ ¸
Õ¡Õµ Õ¶
ĠÐ°Ð² ÑĤÐ¾Ð¼
Ġsab uah
199 8
Ó©Ð½ ÑĮÑı
ĠÃ³ m
Ġtam in
Ġwor re
ĠFo otball
Ġapr il
ĠÑħÐ¾ ÑĳÑĢ
ĠáīĢ áĬķ
S he
s Ã©
Â º
Ġ !
Ð½ Ð¾ÑĤÐ¾
er re
at ir
Ġb ert
Ġv Ä«
ir de
Ġw Ã®
ed du
ĠB y
ĠP ierre
ĠÑģ Ð»ÐµÐ´
and es
ng it
st wa
Ġse us
iy ada
Ð°Ð´ ÑĭÐ»Ð°
ub li
Ð¸Ð» Ð¾
ÑĦ Ð¾ÑĢ
ĠØ´ Ùħ
Ġat s
ØŃ ÙĬ
áº ·
Ġsp or
Ġx ihuitl
ĠSt re
Äħ c
ÑĢÐ° ÑĨ
ĠÛĮ ÙĪÙĨ
pa q
ãģŁ ãĤģ
×¦ ×Ļ×¢
ĠMus ic
ç¬¬ äºĮ
chh á¹³
Ò»Ð° Òķ
Ġáİ¤áİ¾áı ¤áİµ
Ġcuk up
p la
Ä ı
ë Ĳľ
Ġd ost
Ġt m
et as
Ġc idade
ur b
ur m
ul as
à½ĸ à½£
ĠI i
Ø¨ Ø¤
ĠG old
Ð¸Ð½ Ð°ÑĤÐ°
á» Ŀi
Ġst atu
Ġte y
ĠÐļ Ð°Ð»
Ġku i
Ġme h
ĠÚ¯ Ûķ
à¸Ń à¸ª
Ġth em
Ġap par
ĠØ¯Ø± Ùĩ
ĠÐ°Ð» Ð°Ð¹
Ġby ÅĤ
å· ¦
Ġà²ĩ à²²
Ġpal ab
Ġkh Ã´ng
Ġkir adi
ĠáĥĿ áĥ¨
Ġland et
Ġà¶¶ à·Ģ
é¡ ŀ
Ġleng ua
ĠØ¨Ø§Ø´ ÙĤØ§
ĠXI V
åĤ Ļ
ë³ ´
Ġà¥ł à¤¤
l end
s ce
æ ¾
Ĭ áĭľ
er to
ar ter
Ġt yp
at ing
at ha
Ġh jÃ¡
Ø¯ ÛĩØ±
Ġj uh
Ã¡ ly
ÑĪ Äķ
ĠT et
ĠD y
and en
ĠÐ¿ Ð°Ð²
Ø¨ ÙĬØ±
à¤® à¤¦
ri ft
Ġpr uw
ob ol
áŀĵ áŀħ
ÙĪØ± Ùĩ
Ø³Øª Ø§ÙĨÛĮ
Ú¾ ÙĪ
Ġti ed
Ġti emp
à®² à®ķ
Ġà²ķ à²¡
ĠØ² Ø¨Ø§ÙĨ
ĠÐŀ Ñģ
Ðļ ÑĬ
Ø¶ Ø§
Ð°ÑĢÑĭÐ½ Ð´Ð°
ĠÃ¦ Ð²
ĠÔ ³
Ġsig lo
lia in
áı¯ áıĽ
éŁ ¿
iment u
ĠÑĪÐº Ð¾Ð»Ð°
Ġà°Ĵ à°ķ
Ġpruw ins
. /
c r
Ò Ĺ
Ġt ash
Ġm n
is ki
Ġc ada
Ġ1 18
ol in
ĠM ong
ag as
Ð°ÑĢ ÑĪ
Ð· ÑĭÐ½
ĠÑģ Ð°Ð½Ð°
ek te
ek ue
Ġàª ¯
Ġna i
od at
×ķ ×ķ×¢
à¾² à¾Ńà¼ĭ
io Ã¹
×ľ ×¢
Ġat om
Ð¸Ñģ Ð¸
à¦® à¦¨
×ł ×Ļ×Ŀ
Ġà²ª à²¤
ĠÐĺ ÑĢÑĤ
æĺ Ń
ĠÑĸ Ð¼
à´µ à´°
ä¹ĭ åĲİ
ĠÑİ ÑĢ
ĠPr im
Ġà¬¬ à¬°
àªĹ àª°
ĠáĬ¥ áĪµ
Ġgod ina
ÙīÙĬ Ûķ
Ġà´ħ à´¨
Ñļ ÐµÑĤÐ¾
Äĭ Äĭ
àª§ àª¨
à¹Ģ à¸Ļ
ĠÕ¿ Õ¡ÖĢ
ungs od
ĠaÃ± os
ĠÐĲÑĦ ÑĢÐ¸Ðº
ĠØ§ÛĮÛģ Ûģ
ĠMuh ammad
a qu
Ù į
Ð» ÓĻÑĢ
Ġn ow
àª Ŀ
Ðº Ð¼
am ma
Ġh asta
ad el
àµ º
Ġj Ã¤l
ĠÑģ Ñİ
ĠÑģ ÑĥÐ¿
ĠN h
ĠR Ã¨
ist ik
Ġse v
ĠØª Ø¬
ĠÑĥ ÑģÑĤ
áŀļ áŀĻ
ãĥ ĸ
Ġes a
Ġà¤ľ à¤°
Ġà¤Ĩ à¤¤
ell u
Ġth Ã´n
áĢĲ áĢĢ
áŀĽ áŀĺ
áŀĻ áŀĳ
Ġàº Ľ
ins hi
Ø§Ø¨ ÛĮ
Ø±Ø¯ ÛĮ
ĠÐ²Ð¾ ÑĭÐ½
àºĹ àº²àºĩ
ĠÃ± a
pu es
199 1
ÙħÙī Ø³Ùī
ĠMin ist
195 4
ĠÐ¼ÓĻ Òĵ
ĠÑģÐ¾Ð» Ð¸
Ġorig in
Ġáİ¢áİ¦ áıĽ
E ng
h old
j ow
è §Ģ
Ġt Ã¶
Ġb lan
Ġf ill
ĠM b
Ã¤ iv
ĠL ake
Ø¨ Ø§Øª
ĠÙĪ Ùħ
à¤® à¤®
ĠÚ© ÙĪØ±Ø¯
à¤ª à¤£
ĠÑĥ Ð¹
ÅŁ an
áĭ ĵ
Ġqu ando
áĥĿáĥ ª
Ð°Ð· ÑĮ
Ġë ¶Ī
à¾Ĵ à¾²à¼ĭ
å¤ ®
Î· ÏĦ
Ġáı ´
Ġáı Ĳ
Ġáı ķ
Ġ8 6
Ġà¤ī à¤²
ile yo
áĢ½ áĢ±áĢ¸
Ã¨n de
à¦¶ à¦°
Ġpos to
ÈĻ i
ĠÐŃ Ð½
imb izi
Ġmul ti
Ð°Ð»Ñĭ ÒĵÑĭ
Ġáİ¨áıĴ áİ©
á»ģ n
ÐµÑģÑĤÐ² ÐµÐ½
Ġ×Ĳ×ķ×Ļ× £
Ġaug ust
ĠÐ¼ÑĥÐ· ÑĭÐº
ĠÐ°Ð»ÑĮ Ð±
çĹ ħ
ĠStatisti ek
a od
o or
t el
y re
í ŀĪ
Ġd itu
à¦ Ĩ
ar at
ar be
Ð» ÑĭÐ½
Ġh w
Ġr unt
os u
ĠÚ «
ed u
ed it
ĠÐº Ð²
ĠT ak
ĠÙħ ÙĪØ³
ĠÑĤ Ð¸Ð»
ĠÑĤ ÑİÑĢ
à¥ģ à¤ĥ
Ð¾ÑĢ Ð¾Ð½
Ġsa an
ÉĻ k
ja ch
ÄĹ l
ĠÙģ Ø¹
Ġq of
ĠØ¹ ÙħØ±
à¤¬ à¤²
ÓĢ ÑįÐ¼
ĠIn c
ĠSt and
à²Ł à²°
ori i
Ġ×ŀ ×¢×Ł
isch n
ĠØ§ÙĦÙħ ÙĨ
à¨Ĩ à¨°
Ġà²ĩ à²¨
Ġáİ¦ áİ¸
Ġot ro
cion es
Ġcent ro
Ġmut lak
ÏĦÎ± ÏĤ
ä½¿ çĶ¨
ĠÙĤÙīÙĦ ØºØ§ÙĨ
ĠØŃÚ© ÙĪÙħØª
ĠHis pan
Ġ×Ĵ×¢×ķ×ķ×Ĳ×¨ ×Ł
G r
z ion
à¤ ±
Ġl aka
ol ia
ĠM ik
Ġy ake
te p
ĠB ÃŃ
à¤ķ à¤ķ
ĠD ic
eg er
ĠÑĤ Ð°ÑĤ
ĠE z
ĠH ot
li et
Ġch hi
ci ju
ĠJ isk
à¤ª à¤Ľ
ĠO ce
ĠO lymp
Ø§ÙĦ Ø§Øª
à·Ĭ ,
à±į ,
à¸²à¸ Ķ
ata a
Ġ×Ĳ ×¤
à¸Ń à¸Ķ
ond iss
ÄĽ d
ont in
ĠÐµ ÑĤ
ĠÙĥ ÛķÙĦ
ÑĭÐº ÑĬ
ĠØŃ ÙĪ
ĠÐł ÑĥÑģÐ¸Ñı
ge y
à®¯ à®®
olog ical
Ġfu Ê»u
tic os
ĠSch d
fi eld
Ġà²ĩ à²¦
Ġsch ool
ĠØ¯Ø§ Ø´Øª
199 2
Ġnak on
é¡ Į
ĠØ¬Ø§ÙĨ Ø¯Ø§
ichte id
ĠÐĲÐ² ÑģÑĤÑĢ
sd ichteid
é½ Ĭ
Ġbevolkieng sdichteid
j yr
l oss
ì Ĥ
ÑĤ ÑįÑĢ
Ġt ym
Ġk Ã³t
Ġk umbang
Ġl el
Ġb all
Ġh vor
Ġv ÃŃ
Ġv az
ĠB av
à¦¾ /
re j
ĠD as
ĠD á¹³
ĠK n
ĠL umb
ab ang
ĠÑĤ Ó±
ĠN ar
Ã¨ d
ĠØ³ Ùĩ
áĥĶáĥ ®
Å¡ ta
ÐµÐ» ÐµÐ½
sa ch
yn dan
Ġthe y
Ä« bas
tu ur
ier no
Ġx alq
à¹Ģà¸ Ĭ
ÛĮØ± ÙĪ
ĠAn na
ĠÐł ÑĥÑģ
Ġmet a
ÑĭÑĪ Ðµ
Ġà¦ħ à¦§
à¾¡ à½²
uw an
Ġir ratti
àªª àª°
Ġlang s
Ġ190 3
ĠÐ±Ð¸Ð» Ð°
à½¼à¼į à¼į
ĠÎŃ Î½Î±
Ġtag Ä§
Ġbed roe
ĠÙ¾ÙĪ Ø¡
Ġëı Ļ
Ê¼ÃŃ ÃŃs
Ġ×ķ×ķ×¢×ľ ×Ľ×¢
Ġvog ges
Ġtarkib iga
ĠViet nam
S T
a ux
f und
k em
k ul
k ÉĶ
s Ä«
ç Ĭ
í Ħ°
Ġs oll
Ġm iy
ch ie
àª Ĩ
Ġde y
ta an
Ġdi Äĵ
ĠP ara
ĠC ong
ĠL et
ĠÑĤ Ñĭ
ĠÑĤ Ò¯Ò¯
ĠÐ² Ð¸ÑĪ
ĠÞ Ļ
ä¸ ļ
ant in
à¤Ĺ à¤ķ
Ġà¤® à¤¸
áĭ ¶
ĠU g
ka ah
à¤¶ à¤¯
Ġko ta
ĠØ¢ Ø³
ama in
Ð¾Ñģ Ð°
Ġor az
à½Ĳ à½¢
Ġcu al
asi Ã²un
Ġve ih
ĠÛģ ÙĪÙĨ
á¹³ k
Ġ×ŀ ×ª
ite it
ĠÒ¯ ÑĢ
Ġà¤ļ à¤¡
×§ ×¨
éĢ Ģ
Õ«Õ ¬
ĠÎµ Î¯
ĠRe ich
Ġbh liain
Ó¥ Ð·
ĠÐ±Ð°ÑĪ Ð»
à½ĺà½ģ à½ł
è¶ ħ
é» ŀ
elij ke
ĠRec ords
Ġinweuners antal
d oni
k Ã¡
l ung
er er
Ð¾ Ð¾ÑĢ
Ġt ho
Ġt ard
ch id
Ġc Ã²
Ġg min
ad rat
Ġr av
ĠS ig
ĠA nyi
ĠM oh
Ġy ra
Ġj al
ia j
ÑĪ Ð¸
ĠÑģ Ð°Ñħ
ĠÐ± Ð°Ð·
ek si
ĠR ock
Ð¶ Ñį
Ġì Ľ
Ùģ Ø§Ø¯Ùĩ
æľ ¨
tu ak
ĠÑį ÐºÑģ
áŀĽ áŀĵ
ĠÑĦ ÐµÐ²
Ġki u
uc k
Õ¥Õ ¯
ÑĥÐº ÑĮ
ĠÒ¯ Ðµ
ĠÐŀ Ð´
Ġac ting
Ø§ÙĬ ÙĪ
áĭį áĬķ
ĠØ§ÙĨ Ø³Ø§ÙĨ
à²ľ à²¨
å¼ ·
Ġkat ol
áĥĿáĥļ áĥĿ
ÑĥÐ²Ð° ÑļÐµ
éĤ Ĭ
åĶ Ĳ
åħ± åĴĮ
Ùł Ùł
ĠÐļÑĢ Ð°Ñģ
ĠÓ©Ð· ÐµÐ½
ĠØ¨Ø® Ø´
ĠÐķÐ» Ð³Ð°
ĠMic rosoft
ĠÑĤÐ¸Ðº Ð»ÐµÐ¼
Ġureu Ã«ng
Ê¼aÅĤ kaah
Ã£d Ã´r
E d
h und
k op
l iga
r Ã«
Ġ Ñĭ
Ġ ÏĮÏĦ
Ġs Å«
Ġt iy
Ġp Ã¶
as ha
el sk
un as
àª ī
ir od
ol n
ĠS ang
Ã© ny
Ġin di
ĠB C
ĠT ro
à¤² à¤²
Ã³ b
ab ad
Ð¸Ð½ ÑģÐº
ÑĨ ÐµÐ½
á» Ł
ĠÐ³ Ð°Ð´
ac u
ec o
Ġto e
ÑĥÐ½ Ð¸Ð½
ann en
ĠÐ½Ð° ÑĥÐº
áŀĦ áŀı
Ġfor s
ÓĢ Ð°
Åį tl
à»ī âĢĭ
ĠÒ ¶
ĠÅ Ļ
àª¯ àªµàª¸
ĠÊ» ikai
Ġus e
Ġang er
Ø§ÙĬ Ø©
àº§ àº¡
ĠTe x
áŀĴ áŀĺ
Ġkal Ã£dÃ´r
áĥĲáĥķ áĥļ
ĠCl ub
Ð°Ð½Ð³Ð» Ð¸Ñģ
é¤ ĺ
æ¡ Ī
Ġamih anan
D isi
T r
w ald
ç ¼
Ī ¬
Ġn ik
Ġl en
Ġo er
am os
ĠS ah
ĠA na
Ã© iert
ĠC rist
ĠD ez
ĠN Ã«
ĠN ame
ĠÎ Ľ
Å¡ ka
àŃį âĢĮ
ow an
ez u
ĠÑĩ Ð°ÑĢ
ĠÐ» Ð°Ð½Ð³
Äĵ m
Ġà¤Ĺ à¤¤
Ð°Ð± Ð°
à½ģ à½ĸ
ost en
ĠÐ¢ Ð¾Ð¼
à¶¸ à¶±
Ġav o
ĠÐµ Ò¥
ÛĮÙĦ Ùĩ
Ġ9 9
å° Ī
à¨² à¨®
éĢ ģ
itt Ãł
Ġáĥ¡ áĥĲáĥ¥
Ġcun s
Ġà®ª à®Ł
Ġnj ih
Ġpas ar
ÖĦ Õ«
Ð°Ð³ÑĬ Ð°
Ġnov ember
Ġ189 0
ĠÐ±Ð°ÑĪ ÐºÐ°
Ġcomp et
ĠáĭŃ áĪħ
ÙĨÙĪ Ø§ÙĨ
ĠØ¯ÙĪØ± Ùĩ
ĠWil helm
A nd
Ã į
ë £
Ġ ust
Ġd uke
en ia
Ġt ac
Ġt ama
Ġt Å¡a
Ġm bo
Ġk tÃ³
Ġl ub
Ġl Ã¤h
ÙĦ Ø§Ø±ÛĮ
Ġv Ã¶r
Ġg asan
ĠS l
ti en
ul os
te y
Ã¡ Å¡
à« Į
ĠÑĤ ÐµÐ¿
Ãª ye
ĠÐ² Ð°Ðº
ĠÐ¼ ÑĥÑģ
Ġà¶ ł
Ġch am
Ġsa iyang
ja i
ÓĻ ÑĪ
Ġas yr
à¸²à¸ «
ÛĮÙĨ ÚĪ
Ġno a
Ġwa an
oc ia
ru Äį
emb o
ÄĽ l
Ġ7 8
Ġsh um
éĩ İ
æ° ¸
ĠÐ³ÑĢ Ð°Ð¼
Ð°Ð»ÑĤ ÑĭÐ½
ĠmÃ¡ is
éŁ ĵ
) -
O N
p ot
Ġ ersch
Ð¾ Ð¾Ð»
Ġa ach
Ġn ale
al ay
Ġb ile
as dz
Ġc all
am ed
Ġg it
Ġg ames
Ñı ÑĪ
ĠB ad
Ð°Ð» Ð°ÑĢÑĭ
ĠØ¨ Ø´
ĠâĢ ¹
ĠE p
ÑĨ Ð¸Ð½
li Äį
ÙĤ ÙĪ
ÉĻ b
àºĻ àºģ
19 60
à¦² à¦ª
Ġà¤¤ à¤ª
ny o
Ġsp ir
Ġden ne
Ã¸ n
ire o
è¨ ±
æ´ Ľ
lich en
ĠÑĳ ÑĢÐ¾Ñģ
Ã¼Ã¼ d
åĶ ±
áĪª áĭ«
à½ĳà½Ģ à½ł
elij k
Ġgou f
Ġmagnit udo
ĠÐ¼ÓĻÒĵ Ð»Ò¯Ð¼
l je
¶ Ħ
ï ®
ÑĢ Ð°Ñģ
Ġp ek
Ġn ational
Ġv uo
Ñı Ñĩ
ĠB ea
ĠC ir
and an
ĠÐ± Ð»
ut in
ĠÐ¿ Ð¸Ð½Ð³
ĠI ll
na u
ĠØª Ø§Ø¬
ĠO st
Ġar asÄ±nda
áĭ Ļ
19 70
ĠØ´ ÛģØ±
ĠÑĪ ÑĥÐ´
tu al
Õ¶ Õ¡Õ¯
Ò» Ðµ
Ãµ t
à´° à´Ļ
ÑĭÐ¼ Ñĭ
ĠÑĦ Ð°ÑĢ
ĠØŃ Øµ
áĥĲáĥľ áĥĴ
ĠáĥĽ áĥĿáĥľ
à½ı à½ĵ
Ã¤n n
ÛķÙĨ Ûķ
à½ĺà½ļ à½ĺà½¦
Ġnum ro
çŃ ĸ
ident al
ĠÙĪØ± Ú©
àº¼ àº·
Ġê³ µ
ĠØ¨ÙĪØ¯ Ùĩ
ĠØ¯ÙĨ ÛĮØ§
èĩº çģ£
Ġvide o
ĠMuse um
ÑĭÐºÑĤÑĭ Ð²
j ana
j ali
o om
v it
É ĳ
à² İ
áŀ ±
Ġt wee
Ġc ro
Ġc ust
il te
il ah
Ġde ux
Ġi ko
ĠL it
Ñĸ ÑģÑĮ
ah on
ĠR ay
ĠÐ² Ð°Ð½
ÑĭÐ½ ÑĨ
Å¡ Äį
ĠO ne
à¤Ĺ à¤¡
áī ģ
ÙĪÙĨ ÙĬ
si Ã©
tr on
ÄĹ jo
Ø§Ùħ ÙĬ
ĠÚĨ Ùī
à²ª à²¨
Ġ8 1
Ġden n
Ġgo i
Ġà²ķ à²¨
Î¼ ÎŃÎ½
à¤°à¤¤ à¤ķ
Ġkon c
ĠAm Ã©r
å¯ ¼
ĠGr ande
à¤ħ à¤¨
ĠÐ±Ñĭ Ò»Ñĭ
Ġà« §à«
ĠÑģÐ»Ñĥ Ð¶
ĠHit ler
I X
d Ã³
g s
h Ã©
Ġ à½Ħ
Ð½ Ð¸Ñı
Ġs ÅĤow
Ġa er
Ġt aha
Ġl inn
Ġb ord
Ð´ ÑĮ
Ð´ Ð¾ÑĢ
Ġr ata
Ùħ Ù¾
ĠA br
ĠB ob
ĠP ada
ĠT est
ĠT hi
ĠL ag
ÃŃ p
Ñĩ Ð°Ð½
ĠÐ´ ÐµÐ¹
ĠF el
Ġda w
ĠO ff
ĠÑĢ Ð¾
ÙĪØ± Ø³
Ġma f
Ġka ini
à¸Ļ à¸Ń
ĠØ´ Ø®Øµ
Ġ×Ķ ×Ķ
ÙĨØ¯ ÚĻ
Ã» nt
Ñĳ Ð±
Ġdu i
Ø· ÙĨ
Ø· ØŃ
Ġ9 6
å° İ
ĠÃ¾ vÃŃ
ĠÚ©ÛĮ ØªØ§
ĠdÃ© part
×ĸ ×¨
Ġinc Ã¹
Ġ189 8
aliz a
Ġà¬ľ à¬£
ÑįÐº ÓĢÑį
àºĽàº° à»ĢàºĹàºĶ
Ġbie x
Ġcontr ol
Ġsept ember
ĠChr istian
ĠPopul asaun
¢áīµáĭ®áĮµ áĭ«
Ġd va
Ð½ ÐµÑģÑĮ
Ġs ell
Ġl ine
es es
el or
it on
à¬ ħ
Ġv Ã¡l
Ð¼ Ð¸ÑĤ
ĠS pr
ĠÑ ļ
ĠM edi
ag li
ĠP ost
ĠT onga
ĠK em
Ġun ter
ĠR um
Ø§Ø ©
ĠÕ ª
ub o
sk Ã©
ÅĤ Ê¼
ij en
Ø³Øª ÙĪ
ĠÑĪ ÑĤ
ĠZ w
ĠAn ti
àºŃ àºĶ
ĠÐµ Ðº
Ġdu e
å° Ĩ
à¦Ĺ à¦°
ĠÚª Ø¦ÙĬ
à¸Ńà¸ĩ à¸Ħ
ĠÕ° Õ¡Õµ
199 4
à¨¬ à¨°
etti in
ĠÐºÐ°Ð» ÑĭÐº
Úı ÙĩÙĨ
ĠIntern et
ç¾İ åľĭ
f re
t ha
Ã ĸ
Ġm emp
al at
Ġl uc
et Ãª
Ġo lu
Ġe itt
áı ĩ
Ã© v
ag ar
Ã¤ it
re f
st adt
ĠO Ê»
Ú¯ ÛĮØ±
Ð°Ð³ Ð¾Ð³
Ġta o
Ġ18 70
Ãº g
Ġdo on
Ú¾ ÙĬ
áĢĶ áĢļ
Ġ7 3
×ŀ ×©
ÛĨ ÙĨ
Ġà²ķ à²Ł
ew wel
uv ern
Ġmas ome
Ġpe umeur
Ġ×© ×ĳ
Ġkar akter
ØªÙĩ Ø§
ĠÃº l
æĸĩ åĮĸ
Ġfra e
æĶ¿ æ²»
æĬ ķ
Ġáĥ¬áĥĲáĥľ áĥĲáĥ¡
Ġlangu age
²áį ±
ĠÙ¾ÙĨÙĩÙĨØ¬ ÙĬ
A c
A g
C D
O R
c ing
n Ã½ch
Ġd Ã¤r
Ġd onn
à² ŀ
Ġt uk
Ġt yd
Ġn ation
Ġh ip
Ġg ib
ed ir
Ġy et
id Ã¡
id da
Ã¡ st
ĠB og
ĠC ho
ĠT ay
Ġz g
Ġz vin
ĠÙħ ÛķÙĨ
ĠI X
ĠR ud
ĠH aute
à½Ķ à½ĳ
à²° à²¸
Ġse ver
ant si
Å¡ o
Ġà¤® à¤°
áŀĵ áŀĤ
Ġta u
to h
àºĻ àºĻ
Ð¸Ñı Ñģ
áĥĿáĥ ¢
à¤Ł à¤®
åħ ļ
Ø® ÛĮ
ÙĦÙī Ø´
ĠCh h
×ł ×¡
ĠIn s
Ġap ro
Ġà¨¸ à¨ķ
ĠFran z
Ã¨n tah
Ġáĭ¨ áĪĺ
ĠÃ¼ z
ĠØ¯ÛĮ Ø§Ø±
åº §
éĻ ¤
Ġnom in
à¸³ à¸Ļ
Ú¯Ûķ Úµ
àºĪ àº°
Ø§ÙĨØ¯ ÛĲ
ĠEng land
êµ °
áĥĶáĥłáĥ ¡
ĠáıĦ áİµ
ïºİ ïº
ĠÐ±Ð¾Ð»Ð³ Ð¾Ð½
M Äģ
f il
p el
p ang
t Ä±r
u it
Ç §
Ġa ad
Ġt anto
Ġm Ã¤r
Ñĭ ÑĨÑĭ
Ġv Å¡
Ġv Ã´
Ġg esch
ir os
Ð· Ð°Ð²Ð°Ð¹
ĠC iv
ĠL eh
ĠØ¯ Ùģ
ĠH av
ĠÐ½ ÐµÐ¿
li er
Ð°Ð´ Ð°Ð»
Ġpr en
à²¨ à²¡
ĠÛ ³Û
Ã´ m
ĠÐ· ÑĥÑĢ
Ã° ir
Ð°Ð· Ð¸
ĠÐ½Ð° ÑĥÑĩ
à¤¡ à¤ķ
Ġli orish
Ġ6 1
àº²àº ļ
emb e
Ġni et
ĠÑĦ ÑĢÐ¾Ð½
ĠÙĥ ÙĦ
Ð½Ð¾ ÑĹ
çĶ ·
ĠX II
Ġok tu
Ġà¦Ĩ à¦¯
ä¸Ń å¤®
els en
att an
ĠáĢ¡ áĢĸ
Ġsv et
áĥĶáĥľ áĥ¡
ä¾ ĭ
ĠÐ±ÑĥÐ» ÑĭÐ¿
ĠHer z
ĠÑįÐ» ÐµÐºÑĤ
ĠtÄĵ nei
ĠÐłÐ¾ÑģÑģ Ð¸Ð¹
èĬ ±
ĠnÃº mer
ĠArg entina
Ġâĸº âĹĦ
Ġbolup dyr
Ġáİ¾áıįáı ĭ
ĠÐ¿ÑĢÐ¾ÑĦ ÐµÑģÑģ
ĠÑģÐ¾ÑģÑĤ Ð°Ð²
Ð¸ÑĪÑĤ Ó¹
a id
f am
f Ã¼
l Ãł
y ane
ar ah
áŀ Į
Ġn ta
Ġb ell
or ang
Ðº Ð°ÑĤÐ°
am ak
à¤° à¤¬
ĠÃ Ĩ
Ð² ÑįÑĢ
ti mo
Ñħ Ð¾Ð·
ĠÑģ ÐµÐ±
ĠÐ± Ð°ÑģÑĤ
ĠL ang
ĠÙĪ Ú©
ĠH els
Ã¨ Ã«
Ãª ra
ĠÑħ ÑĥÐ±
Ñİ ÑĨÑĮ
äº ī
ĠÙĤ ÙĪÙĦ
áŀŁ áŀı
àº²àº Ī
Ġak ti
Ġed he
ĠÐµ Ð³Ð¾
ÛķØ± Ûķ
Ġman jadi
ÑĥÐ¼ ÐµÐ½ÑĤ
ĠÑĨ Ð°ÑĢ
Ġ14 0
Ġca us
áĥł áĥĺáĥ¡
ef t
ĠÐ¤ Ð¸Ð»
Ġáĥĺ áĥ§
èª ¿
Ġfamil ie
ĠÏĥÏĦ Î·
ç«ĭ åľ¨
áĥĶáĥĹ áĥĺáĥ¡
Ð¸ÑĨÐ¸ Ð¿Ð°Ð»
ĠÐºÐ½Ð¸ Ð³Ð°
Å© ng
Europ a
éİ ®
C o
Ġà¤ ¢
Ġp up
Ð¼ Ð°Ð¹
ĠØ§ ÙĪÙĨÙĩ
Ã¡ ll
ĠP asa
ĠT un
ay Ä±ÅŁ
ĠL iv
ĠL eb
ab el
ing in
ĠÙĪ ÙĨ
ĠÙĪ Ø§Ø±ÙĬ
ĠH all
ĠÐ´ Ð°Ð½
ĠÐ´ Ð¸ÑĢ
Ã« sh
Ð¾Ð½ ÑĤÑĮ
ĠÐ² ÑĢ
ĠÐ² Ðº
ud ian
op en
ĠJ ur
ĠJ ak
ĠW ay
ĠØ¬ ÙĪÙĨ
Å¾ y
Ġ18 80
ÐµÐ´ Ðµ
ĠÐ» ÑĭÐ´
à¤¡ à¤¯
ih t
any ch
Ġà¤¶ à¤¤
Ø§Ø¦ Ùħ
ÑĭÑĤ ÑĤÐ°Ð½
×Ļ×Ļ× ª
ÐµÑħ Ð¸
Ġwo uld
ê³ Ħ
par ti
Ġà¶¯ à¶ļ
ĠCar los
æ´ ĭ
ĠÙ¿ ÙĬÙĪ
Ġtrad is
è¯ Ń
Ġkut oka
çį ²
å¢ ĥ
Ġpert ama
Ġmani f
ĠÙĤØ§Øª Ø§Ø±ÙĦÙīÙĤ
ĠCole optera
4 00
L os
U s
m t
n Äģ
r Äģ
Ġd Ãł
Ġd ere
Ð½ Ð¾Ð½
Ø§ Ùĥ
in ni
Ġt áº¡i
Ġp ia
Ġl itt
Ġc itÃ©
id agi
ĠP ur
ĠÑģ Ð¾Ð·
ĠD ew
and s
ab ol
ab we
ent in
ÐµÐ½ ÑĩÐ°
ĠÚ© Ø§Ø±ÛĮ
iy asÄ±
ug ur
ip ada
ÑģÐº ÑıÐ¹
Ġà¤µ à¤¹
Ä« st
áŀĦ áŀħ
à®Ł à®©
àºĩ àºª
ĠÐ¢ Ñı
ĠMar ie
Ġmen os
à°¤ à°°
Ġ×ķ ×ķ×Ļ
æŃ ¸
Ġáĭ¨ áĬ
Ø¶ Ø¹
cz Äħ
199 7
ÎµÎ¹ Î±
è³ ª
ĠÓ ĺ
Úļ Øª
Ġà°ľ à°¨
Ġimport ant
ëŀ ĺ
ĠBor wa
ĠÙ¾Ø§Ú© Ø³ØªØ§ÙĨ
áİ¬áı© áİ¶
E st
k um
s Ãª
y ak
Ġd ana
Ġp ari
Ġn inu
at ter
it ions
ad al
Ġw á»į
